{
  "version": "1.0",
  "truncation": null,
  "padding": null,
  "added_tokens": [
    {
      "id": 0,
      "content": "[UNK]",
      "single_word": false,
      "lstrip": false,
      "rstrip": false,
      "normalized": false,
      "special": true
    },
    {
      "id": 1,
      "content": "[PAD]",
      "single_word": false,
      "lstrip": false,
      "rstrip": false,
      "normalized": false,
      "special": true
    },
    {
      "id": 2,
      "content": "[CLS]",
      "single_word": false,
      "lstrip": false,
      "rstrip": false,
      "normalized": false,
      "special": true
    },
    {
      "id": 3,
      "content": "[SEP]",
      "single_word": false,
      "lstrip": false,
      "rstrip": false,
      "normalized": false,
      "special": true
    },
    {
      "id": 4,
      "content": "[MASK]",
      "single_word": false,
      "lstrip": false,
      "rstrip": false,
      "normalized": false,
      "special": true
    }
  ],
  "normalizer": {
    "type": "NFC"
  },
  "pre_tokenizer": {
    "type": "WhitespaceSplit"
  },
  "post_processor": null,
  "decoder": null,
  "model": {
    "type": "BPE",
    "dropout": null,
    "unk_token": "[UNK]",
    "continuing_subword_prefix": null,
    "end_of_word_suffix": null,
    "fuse_unk": false,
    "byte_fallback": false,
    "ignore_merges": false,
    "vocab": {
      "[UNK]": 0,
      "[PAD]": 1,
      "[CLS]": 2,
      "[SEP]": 3,
      "[MASK]": 4,
      "!": 5,
      "$": 6,
      "%": 7,
      "&": 8,
      "'": 9,
      "(": 10,
      ")": 11,
      "*": 12,
      "+": 13,
      ",": 14,
      "-": 15,
      ".": 16,
      "/": 17,
      "0": 18,
      "1": 19,
      "2": 20,
      "3": 21,
      "4": 22,
      "5": 23,
      "6": 24,
      "7": 25,
      "8": 26,
      "9": 27,
      ":": 28,
      ";": 29,
      "<": 30,
      ">": 31,
      "?": 32,
      "A": 33,
      "B": 34,
      "C": 35,
      "D": 36,
      "E": 37,
      "F": 38,
      "G": 39,
      "I": 40,
      "L": 41,
      "M": 42,
      "N": 43,
      "O": 44,
      "R": 45,
      "S": 46,
      "T": 47,
      "U": 48,
      "V": 49,
      "W": 50,
      "X": 51,
      "`": 52,
      "a": 53,
      "b": 54,
      "c": 55,
      "d": 56,
      "e": 57,
      "f": 58,
      "g": 59,
      "h": 60,
      "i": 61,
      "j": 62,
      "k": 63,
      "l": 64,
      "m": 65,
      "n": 66,
      "o": 67,
      "p": 68,
      "q": 69,
      "r": 70,
      "s": 71,
      "t": 72,
      "u": 73,
      "v": 74,
      "w": 75,
      "x": 76,
      "y": 77,
      "z": 78,
      "«": 79,
      "­": 80,
      "·": 81,
      "»": 82,
      "А": 83,
      "Б": 84,
      "В": 85,
      "Г": 86,
      "Д": 87,
      "Е": 88,
      "Ж": 89,
      "З": 90,
      "И": 91,
      "К": 92,
      "Л": 93,
      "М": 94,
      "Н": 95,
      "О": 96,
      "П": 97,
      "Р": 98,
      "С": 99,
      "Т": 100,
      "У": 101,
      "Ф": 102,
      "Х": 103,
      "Ц": 104,
      "Ч": 105,
      "Ш": 106,
      "Э": 107,
      "Ю": 108,
      "Я": 109,
      "а": 110,
      "б": 111,
      "в": 112,
      "г": 113,
      "д": 114,
      "е": 115,
      "ж": 116,
      "з": 117,
      "и": 118,
      "й": 119,
      "к": 120,
      "л": 121,
      "м": 122,
      "н": 123,
      "о": 124,
      "п": 125,
      "р": 126,
      "с": 127,
      "т": 128,
      "у": 129,
      "ф": 130,
      "х": 131,
      "ц": 132,
      "ч": 133,
      "ш": 134,
      "щ": 135,
      "ъ": 136,
      "ы": 137,
      "ь": 138,
      "э": 139,
      "ю": 140,
      "я": 141,
      "ё": 142,
      "–": 143,
      "—": 144,
      "‘": 145,
      "’": 146,
      "“": 147,
      "”": 148,
      "„": 149,
      "…": 150,
      "€": 151,
      "№": 152,
      "ст": 153,
      "ен": 154,
      "ов": 155,
      "ра": 156,
      "ро": 157,
      "но": 158,
      "ре": 159,
      "ко": 160,
      "на": 161,
      "го": 162,
      "по": 163,
      "ни": 164,
      "um": 165,
      "num": 166,
      "ли": 167,
      "ны": 168,
      "ет": 169,
      "ер": 170,
      "ль": 171,
      "ла": 172,
      "ка": 173,
      "ени": 174,
      "об": 175,
      "за": 176,
      "да": 177,
      "ит": 178,
      "во": 179,
      "ри": 180,
      "то": 181,
      "ки": 182,
      "ва": 183,
      "ле": 184,
      "та": 185,
      "ру": 186,
      "ми": 187,
      "не": 188,
      "ло": 189,
      "де": 190,
      "ци": 191,
      "ма": 192,
      "мо": 193,
      "со": 194,
      "про": 195,
      "ти": 196,
      "до": 197,
      "ста": 198,
      "те": 199,
      "ова": 200,
      "ско": 201,
      "ся": 202,
      "пре": 203,
      "ди": 204,
      "сс": 205,
      "сти": 206,
      "че": 207,
      "па": 208,
      "ви": 209,
      "вы": 210,
      "ку": 211,
      "от": 212,
      "ме": 213,
      "ения": 214,
      "при": 215,
      "са": 216,
      "ду": 217,
      "ве": 218,
      "ть": 219,
      "ча": 220,
      "ин": 221,
      "ля": 222,
      "ных": 223,
      "ги": 224,
      "се": 225,
      "ры": 226,
      "ски": 227,
      "су": 228,
      "лу": 229,
      "ного": 230,
      "га": 231,
      "пе": 232,
      "нов": 233,
      "чи": 234,
      "ор": 235,
      "ите": 236,
      "ной": 237,
      "ение": 238,
      "сто": 239,
      "му": 240,
      "из": 241,
      "од": 242,
      "ты": 243,
      "мен": 244,
      "бо": 245,
      "ств": 246,
      "раз": 247,
      "ту": 248,
      "щи": 249,
      "ные": 250,
      "спо": 251,
      "ции": 252,
      "сси": 253,
      "ком": 254,
      "ров": 255,
      "ской": 256,
      "под": 257,
      "ют": 258,
      "ну": 259,
      "сть": 260,
      "ный": 261,
      "жа": 262,
      "ба": 263,
      "си": 264,
      "ков": 265,
      "ран": 266,
      "бе": 267,
      "ря": 268,
      "ши": 269,
      "жи": 270,
      "же": 271,
      "пред": 272,
      "пра": 273,
      "сь": 274,
      "ент": 275,
      "ше": 276,
      "пу": 277,
      "кра": 278,
      "лов": 279,
      "года": 280,
      "ще": 281,
      "росси": 282,
      "пи": 283,
      "ек": 284,
      "кон": 285,
      "итель": 286,
      "сов": 287,
      "став": 288,
      "ства": 289,
      "пер": 290,
      "тов": 291,
      "ск": 292,
      "ем": 293,
      "ния": 294,
      "ня": 295,
      "кото": 296,
      "бу": 297,
      "лет": 298,
      "ска": 299,
      "хо": 300,
      "рова": 301,
      "фи": 302,
      "вер": 303,
      "тер": 304,
      "лен": 305,
      "тель": 306,
      "зи": 307,
      "стра": 308,
      "ется": 309,
      "ным": 310,
      "руб": 311,
      "гра": 312,
      "лю": 313,
      "це": 314,
      "гу": 315,
      "ского": 316,
      "ща": 317,
      "он": 318,
      "ности": 319,
      "фе": 320,
      "ке": 321,
      "стро": 322,
      "дер": 323,
      "слу": 324,
      "воз": 325,
      "она": 326,
      "сооб": 327,
      "гла": 328,
      "мл": 329,
      "ное": 330,
      "лек": 331,
      "ном": 332,
      "ность": 333,
      "зна": 334,
      "сле": 335,
      "ствен": 336,
      "тив": 337,
      "ша": 338,
      "гов": 339,
      "ить": 340,
      "ние": 341,
      "ство": 342,
      "руб.": 343,
      "ых": 344,
      "род": 345,
      "обла": 346,
      "ден": 347,
      "сту": 348,
      "каза": 349,
      "мер": 350,
      "прав": 351,
      "ос": 352,
      "нии": 353,
      "ход": 354,
      "ная": 355,
      "лей": 356,
      "году": 357,
      "ан": 358,
      "яб": 359,
      "объ": 360,
      "чески": 361,
      "пла": 362,
      "ред": 363,
      "мет": 364,
      "реги": 365,
      "ления": 366,
      "так": 367,
      "ении": 368,
      "которы": 369,
      "ав": 370,
      "с.": 371,
      "спе": 372,
      "это": 373,
      "зо": 374,
      "ак": 375,
      "фор": 376,
      "ита": 377,
      "мы": 378,
      "тыс.": 379,
      "би": 380,
      "сте": 381,
      "ар": 382,
      "чен": 383,
      "дан": 384,
      "ция": 385,
      "тор": 386,
      "пере": 387,
      "тра": 388,
      "тре": 389,
      "ющи": 390,
      "год": 391,
      "ят": 392,
      "яв": 393,
      "мини": 394,
      "также": 395,
      "ений": 396,
      "области": 397,
      "ября": 398,
      "циа": 399,
      "св": 400,
      "уча": 401,
      "полу": 402,
      "ета": 403,
      "дол": 404,
      "пар": 405,
      "зы": 406,
      "жен": 407,
      "дом": 408,
      "компа": 409,
      "проек": 410,
      "сно": 411,
      "вод": 412,
      "спор": 413,
      "ском": 414,
      "сент": 415,
      "ром": 416,
      "дей": 417,
      "россии": 418,
      "соб": 419,
      "ский": 420,
      "россий": 421,
      "ству": 422,
      "бот": 423,
      "бли": 424,
      "стви": 425,
      "дар": 426,
      "ой": 427,
      "бы": 428,
      "жд": 429,
      "том": 430,
      "пров": 431,
      "ную": 432,
      "ными": 433,
      "зу": 434,
      "ний": 435,
      "орга": 436,
      "млн": 437,
      "ген": 438,
      "лся": 439,
      "рф": 440,
      "пол": 441,
      "поли": 442,
      "сентября": 443,
      "работ": 444,
      "держа": 445,
      "ей": 446,
      "мар": 447,
      "след": 448,
      "руп": 449,
      "станов": 450,
      "ца": 451,
      "цен": 452,
      "расс": 453,
      "руд": 454,
      "рабо": 455,
      "рии": 456,
      "ев": 457,
      "суд": 458,
      "региона": 459,
      "ление": 460,
      "рд": 461,
      "рас": 462,
      "нача": 463,
      "нима": 464,
      "логи": 465,
      "сво": 466,
      "ника": 467,
      "ити": 468,
      "служ": 469,
      "рен": 470,
      "чет": 471,
      "пов": 472,
      "сред": 473,
      "сообщи": 474,
      "сообща": 475,
      "зова": 476,
      "эк": 477,
      "ников": 478,
      "льного": 479,
      "обо": 480,
      "дин": 481,
      "мя": 482,
      "пы": 483,
      "сер": 484,
      "произ": 485,
      "сла": 486,
      "рай": 487,
      "ская": 488,
      "тро": 489,
      "ха": 490,
      "рей": 491,
      "лась": 492,
      "ву": 493,
      "вет": 494,
      "мест": 495,
      "вла": 496,
      "жения": 497,
      "сы": 498,
      "цент": 499,
      "цию": 500,
      "боль": 501,
      "дет": 502,
      "зда": 503,
      "ито": 504,
      "нее": 505,
      "дера": 506,
      "сан": 507,
      "кла": 508,
      "вил": 509,
      "свя": 510,
      "ению": 511,
      "лось": 512,
      "разв": 513,
      "млрд": 514,
      "пло": 515,
      "стран": 516,
      "ге": 517,
      "клю": 518,
      "госпо": 519,
      "цион": 520,
      "ских": 521,
      "ются": 522,
      "органи": 523,
      "шения": 524,
      "ый": 525,
      "ступ": 526,
      "яти": 527,
      "пор": 528,
      "пресс": 529,
      "дов": 530,
      "строитель": 531,
      "ник": 532,
      "форма": 533,
      "вре": 534,
      "кры": 535,
      "стов": 536,
      "ится": 537,
      "красно": 538,
      "нару": 539,
      "льных": 540,
      "ней": 541,
      "публи": 542,
      "развити": 543,
      "пресс-": 544,
      "кре": 545,
      "сни": 546,
      "нес": 547,
      "ответ": 548,
      "стоя": 549,
      "ис": 550,
      "вой": 551,
      "ок": 552,
      "ут": 553,
      "чение": 554,
      "прези": 555,
      "представ": 556,
      "ходи": 557,
      "федера": 558,
      "вши": 559,
      "ом": 560,
      "юще": 561,
      "лись": 562,
      "жно": 563,
      "труд": 564,
      "город": 565,
      "ники": 566,
      "ования": 567,
      "челов": 568,
      "испо": 569,
      "сит": 570,
      "горо": 571,
      "еров": 572,
      "льной": 573,
      "тора": 574,
      "бур": 575,
      "тери": 576,
      "рек": 577,
      "кой": 578,
      "кан": 579,
      "вать": 580,
      "стан": 581,
      "алек": 582,
      "чер": 583,
      "ые": 584,
      "стре": 585,
      "коно": 586,
      "обще": 587,
      "меж": 588,
      "дви": 589,
      "лова": 590,
      "рь": 591,
      "проку": 592,
      "говор": 593,
      "объек": 594,
      "работа": 595,
      "ды": 596,
      "уч": 597,
      "тех": 598,
      "само": 599,
      "ские": 600,
      "ана": 601,
      "ил": 602,
      "фо": 603,
      "реа": 604,
      "зации": 605,
      "таки": 606,
      "сотруд": 607,
      "отно": 608,
      "компании": 609,
      "дру": 610,
      "нова": 611,
      "народ": 612,
      "лы": 613,
      "спи": 614,
      "коло": 615,
      "льный": 616,
      "согла": 617,
      "вели": 618,
      "пресс-служ": 619,
      "-за": 620,
      "оби": 621,
      "вает": 622,
      "ческой": 623,
      "пас": 624,
      "ителей": 625,
      "ад": 626,
      "чения": 627,
      "шение": 628,
      "стру": 629,
      "дела": 630,
      "моск": 631,
      "комп": 632,
      "ствия": 633,
      "дж": 634,
      "зе": 635,
      "стве": 636,
      "ках": 637,
      "зая": 638,
      "лож": 639,
      "ман": 640,
      "куль": 641,
      "рован": 642,
      "над": 643,
      "прияти": 644,
      "дут": 645,
      "ведом": 646,
      "седа": 647,
      "министра": 648,
      "направ": 649,
      "мот": 650,
      "состав": 651,
      "ого": 652,
      "рес": 653,
      "ций": 654,
      "из-за": 655,
      "тури": 656,
      "грани": 657,
      "явля": 658,
      "между": 659,
      "исто": 660,
      "ян": 661,
      "созда": 662,
      "дирек": 663,
      "бан": 664,
      "которые": 665,
      "данным": 666,
      "треб": 667,
      "экс": 668,
      "тран": 669,
      "шен": 670,
      "щен": 671,
      "кол": 672,
      "тин": 673,
      "доро": 674,
      "ностью": 675,
      "ческих": 676,
      "комплек": 677,
      "международ": 678,
      "кова": 679,
      "нер": 680,
      "ук": 681,
      "хран": 682,
      "ье": 683,
      "помо": 684,
      "обви": 685,
      "информа": 686,
      "ителя": 687,
      "минист": 688,
      "долж": 689,
      "производ": 690,
      "струк": 691,
      "аэ": 692,
      "дра": 693,
      "дву": 694,
      "ека": 695,
      "слов": 696,
      "лич": 697,
      "которо": 698,
      "который": 699,
      "но-": 700,
      "матери": 701,
      "вила": 702,
      "сторо": 703,
      "писа": 704,
      "участ": 705,
      "сообщает": 706,
      "te": 707,
      "ску": 708,
      "установ": 709,
      "обра": 710,
      "задержа": 711,
      "лед": 712,
      "руков": 713,
      "лом": 714,
      "преде": 715,
      "специа": 716,
      "получи": 717,
      "площа": 718,
      "время": 719,
      "бор": 720,
      "вра": 721,
      "щения": 722,
      "ст.": 723,
      "кор": 724,
      "послед": 725,
      "обе": 726,
      "необ": 727,
      "туры": 728,
      "строй": 729,
      "основ": 730,
      "готов": 731,
      "льные": 732,
      "вар": 733,
      "прода": 734,
      "сколь": 735,
      "ческого": 736,
      "вед": 737,
      "пери": 738,
      "аэро": 739,
      "материа": 740,
      "зва": 741,
      "рито": 742,
      "цы": 743,
      "чита": 744,
      "образ": 745,
      "рий": 746,
      "мость": 747,
      "отмет": 748,
      "возмо": 749,
      "плани": 750,
      "ющих": 751,
      "господин": 752,
      "краснодар": 753,
      "руковод": 754,
      "вз": 755,
      "доб": 756,
      "им": 757,
      "кро": 758,
      "оне": 759,
      "оста": 760,
      "сро": 761,
      "това": 762,
      "управ": 763,
      "льно": 764,
      "льзова": 765,
      "точ": 766,
      "мости": 767,
      "соста": 768,
      "вили": 769,
      "мент": 770,
      "города": 771,
      "бю": 772,
      "бер": 773,
      "все": 774,
      "рам": 775,
      "воо": 776,
      "прош": 777,
      "тур": 778,
      "подро": 779,
      "безо": 780,
      "гово": 781,
      "автом": 782,
      "слав": 783,
      "други": 784,
      "автомоби": 785,
      "груп": 786,
      "уа": 787,
      "уни": 788,
      "ять": 789,
      "ранее": 790,
      "откры": 791,
      "ляет": 792,
      "пера": 793,
      "ших": 794,
      "шего": 795,
      "сказа": 796,
      "террито": 797,
      "сообщил": 798,
      "пресс-служба": 799,
      "необходи": 800,
      "безопас": 801,
      "ra": 802,
      "пет": 803,
      "цу": 804,
      "стя": 805,
      "реди": 806,
      "голов": 807,
      "поз": 808,
      "призна": 809,
      "ским": 810,
      "луч": 811,
      "проекта": 812,
      "полити": 813,
      "президен": 814,
      "жда": 815,
      "мь": 816,
      "ограни": 817,
      "сков": 818,
      "фак": 819,
      "чин": 820,
      "госу": 821,
      "льта": 822,
      "кар": 823,
      "него": 824,
      "дело": 825,
      "мон": 826,
      "ться": 827,
      "ющие": 828,
      "прокура": 829,
      "государ": 830,
      "вто": 831,
      "ию": 832,
      "слова": 833,
      "фран": 834,
      "дома": 835,
      "сса": 836,
      "анд": 837,
      "ждения": 838,
      "реали": 839,
      "аэропор": 840,
      "гру": 841,
      "жение": 842,
      "зов": 843,
      "сша": 844,
      "три": 845,
      "ую": 846,
      "шении": 847,
      "назна": 848,
      "личе": 849,
      "вали": 850,
      "глав": 851,
      "объе": 852,
      "бра": 853,
      "гро": 854,
      "круп": 855,
      "сп": 856,
      "ч.": 857,
      "элек": 858,
      "ремен": 859,
      "резу": 860,
      "ниче": 861,
      "вопро": 862,
      "мир": 863,
      "меся": 864,
      "ново": 865,
      "пута": 866,
      "совет": 867,
      "грам": 868,
      "авгу": 869,
      "прове": 870,
      "человек": 871,
      "республи": 872,
      "on": 873,
      "бин": 874,
      "ера": 875,
      "жден": 876,
      "фер": 877,
      "количе": 878,
      "нами": 879,
      "лия": 880,
      "дея": 881,
      "сочи": 882,
      "против": 883,
      "предприяти": 884,
      "зыва": 885,
      "компания": 886,
      "спорт": 887,
      "le": 888,
      "здо": 889,
      "ью": 890,
      "ети": 891,
      "ками": 892,
      "занима": 893,
      "тар": 894,
      "нем": 895,
      "циона": 896,
      "теля": 897,
      "инф": 898,
      "интер": 899,
      "сегод": 900,
      "рын": 901,
      "ители": 902,
      "сегодня": 903,
      "дент": 904,
      "кси": 905,
      "оо": 906,
      "оказа": 907,
      "опера": 908,
      "счита": 909,
      "уголов": 910,
      "щение": 911,
      "режи": 912,
      "заяв": 913,
      "вого": 914,
      "ких": 915,
      "програм": 916,
      "тии": 917,
      "сам": 918,
      "мента": 919,
      "тура": 920,
      "ряд": 921,
      "золо": 922,
      "влади": 923,
      "алексан": 924,
      "администра": 925,
      "является": 926,
      "площад": 927,
      "обеспе": 928,
      "деятель": 929,
      "др": 930,
      "кв": 931,
      "нк": 932,
      "тен": 933,
      "фа": 934,
      "эта": 935,
      "эти": 936,
      "ному": 937,
      "наход": 938,
      "показа": 939,
      "ербур": 940,
      "законо": 941,
      "рия": 942,
      "лот": 943,
      "соответ": 944,
      "ское": 945,
      "кур": 946,
      "щих": 947,
      "поддер": 948,
      "первы": 949,
      "форми": 950,
      "участи": 951,
      "центра": 952,
      "развития": 953,
      "ситуа": 954,
      "двух": 955,
      "бюдж": 956,
      "около": 957,
      "среди": 958,
      "шин": 959,
      "лем": 960,
      "мин": 961,
      "высо": 962,
      "суда": 963,
      "одна": 964,
      "следу": 965,
      "ческие": 966,
      "проект": 967,
      "специали": 968,
      "безопасности": 969,
      "результа": 970,
      "ал": 971,
      "или": 972,
      "исс": 973,
      "ули": 974,
      "увели": 975,
      "шений": 976,
      "энер": 977,
      "сты": 978,
      "лья": 979,
      "лага": 980,
      "дали": 981,
      "депута": 982,
      "тем": 983,
      "ование": 984,
      "пара": 985,
      "инте": 986,
      "боле": 987,
      "контро": 988,
      "фести": 989,
      "ступи": 990,
      "авто": 991,
      "заявил": 992,
      "рамках": 993,
      "оте": 994,
      "уд": 995,
      "укра": 996,
      "ъ-": 997,
      "рой": 998,
      "рор": 999,
      "рева": 1000,
      "подо": 1001,
      "руется": 1002,
      "мати": 1003,
      "мой": 1004,
      "проду": 1005,
      "приня": 1006,
      "сум": 1007,
      "стои": 1008,
      "мене": 1009,
      "будут": 1010,
      "лено": 1011,
      "гут": 1012,
      "день": 1013,
      "ступа": 1014,
      "которых": 1015,
      "здоров": 1016,
      "вне": 1017,
      "еди": 1018,
      "мэ": 1019,
      "смо": 1020,
      "хи": 1021,
      "хра": 1022,
      "чу": 1023,
      "чь": 1024,
      "ях": 1025,
      "ена": 1026,
      "кого": 1027,
      "наб": 1028,
      "закон": 1029,
      "воро": 1030,
      "там": 1031,
      "несколь": 1032,
      "лого": 1033,
      "деся": 1034,
      "отде": 1035,
      "председа": 1036,
      "ровать": 1037,
      "страны": 1038,
      "щая": 1039,
      "актив": 1040,
      "ятся": 1041,
      "спортив": 1042,
      "действия": 1043,
      "работы": 1044,
      "четы": 1045,
      "сообщили": 1046,
      "районе": 1047,
      "скую": 1048,
      "возмож": 1049,
      "территории": 1050,
      "словам": 1051,
      "андрей": 1052,
      "исслед": 1053,
      "фестива": 1054,
      "продук": 1055,
      "-то": 1056,
      "аль": 1057,
      "биз": 1058,
      "вклю": 1059,
      "имен": 1060,
      "т-": 1061,
      "уров": 1062,
      "фон": 1063,
      "нар": 1064,
      "нию": 1065,
      "вор": 1066,
      "воен": 1067,
      "топ": 1068,
      "рует": 1069,
      "мира": 1070,
      "недви": 1071,
      "продол": 1072,
      "скому": 1073,
      "выпу": 1074,
      "отме": 1075,
      "шей": 1076,
      "совер": 1077,
      "бук": 1078,
      "ходе": 1079,
      "фина": 1080,
      "возбу": 1081,
      "глава": 1082,
      "правитель": 1083,
      "спек": 1084,
      "стей": 1085,
      "рассказа": 1086,
      "использова": 1087,
      "алексе": 1088,
      "ведомства": 1089,
      "президента": 1090,
      "недвижи": 1091,
      "дых": 1092,
      "жу": 1093,
      "кну": 1094,
      "эконо": 1095,
      "нор": 1096,
      "пока": 1097,
      "зан": 1098,
      "иты": 1099,
      "ссов": 1100,
      "пример": 1101,
      "новых": 1102,
      "чис": 1103,
      "столи": 1104,
      "беспи": 1105,
      "предло": 1106,
      "страте": 1107,
      "мери": 1108,
      "организа": 1109,
      "подроб": 1110,
      "электро": 1111,
      "продолжа": 1112,
      "экономи": 1113,
      "беспилот": 1114,
      "in": 1115,
      "име": 1116,
      "нет": 1117,
      "услу": 1118,
      "эко": 1119,
      "посе": 1120,
      "лина": 1121,
      "кам": 1122,
      "каче": 1123,
      "вая": 1124,
      "дем": 1125,
      "стали": 1126,
      "ссы": 1127,
      "меди": 1128,
      "принима": 1129,
      "лябин": 1130,
      "суде": 1131,
      "ссии": 1132,
      "подчер": 1133,
      "края": 1134,
      "рублей": 1135,
      "спорта": 1136,
      "ствие": 1137,
      "испол": 1138,
      "согласно": 1139,
      "экспер": 1140,
      "петербур": 1141,
      "четыре": 1142,
      "стратеги": 1143,
      "-лет": 1144,
      "ат": 1145,
      "зем": 1146,
      "иск": 1147,
      "кли": 1148,
      "квар": 1149,
      "мит": 1150,
      "опреде": 1151,
      "тя": 1152,
      "уда": 1153,
      "услов": 1154,
      "ены": 1155,
      "пода": 1156,
      "постра": 1157,
      "лит": 1158,
      "льная": 1159,
      "датель": 1160,
      "лев": 1161,
      "социа": 1162,
      "доход": 1163,
      "превы": 1164,
      "выстав": 1165,
      "куп": 1166,
      "вести": 1167,
      "числе": 1168,
      "мур": 1169,
      "шие": 1170,
      "верси": 1171,
      "ственного": 1172,
      "оборуд": 1173,
      "президент": 1174,
      "директор": 1175,
      "отметил": 1176,
      "воору": 1177,
      "александр": 1178,
      "ао": 1179,
      "встре": 1180,
      "дро": 1181,
      "лении": 1182,
      "тить": 1183,
      "штра": 1184,
      "ым": 1185,
      "ясни": 1186,
      "стри": 1187,
      "рав": 1188,
      "рак": 1189,
      "ростов": 1190,
      "решение": 1191,
      "гор": 1192,
      "каз": 1193,
      "мом": 1194,
      "простран": 1195,
      "част": 1196,
      "провер": 1197,
      "пыт": 1198,
      "произо": 1199,
      "района": 1200,
      "ступления": 1201,
      "помощ": 1202,
      "обвиня": 1203,
      "кроме": 1204,
      "кв.": 1205,
      "стоимость": 1206,
      "амери": 1207,
      "вя": 1208,
      "жиз": 1209,
      "ино": 1210,
      "много": 1211,
      "сфе": 1212,
      "фу": 1213,
      "нали": 1214,
      "назва": 1215,
      "ним": 1216,
      "лан": 1217,
      "защ": 1218,
      "завер": 1219,
      "водо": 1220,
      "вают": 1221,
      "моло": 1222,
      "моде": 1223,
      "стаби": 1224,
      "место": 1225,
      "месте": 1226,
      "сай": 1227,
      "сез": 1228,
      "разме": 1229,
      "права": 1230,
      "губер": 1231,
      "случа": 1232,
      "мыш": 1233,
      "трам": 1234,
      "треть": 1235,
      "ющий": 1236,
      "проектов": 1237,
      "работу": 1238,
      "санк": 1239,
      "окт": 1240,
      "ющего": 1241,
      "таких": 1242,
      "москвы": 1243,
      "министер": 1244,
      "период": 1245,
      "сказал": 1246,
      "соответству": 1247,
      "поддерж": 1248,
      "однако": 1249,
      "подоз": 1250,
      "храни": 1251,
      "''": 1252,
      "``": 1253,
      "an": 1254,
      "бен": 1255,
      "жителей": 1256,
      "зор": 1257,
      "сет": 1258,
      "ути": 1259,
      "фут": 1260,
      "хов": 1261,
      "шки": 1262,
      "рос": 1263,
      "нал": 1264,
      "поль": 1265,
      "постав": 1266,
      "них": 1267,
      "запре": 1268,
      "заклю": 1269,
      "вое": 1270,
      "торов": 1271,
      "вал": 1272,
      "могут": 1273,
      "стал": 1274,
      "преду": 1275,
      "дина": 1276,
      "курор": 1277,
      "чает": 1278,
      "части": 1279,
      "часть": 1280,
      "рыв": 1281,
      "суще": 1282,
      "изо": 1283,
      "изъ": 1284,
      "туре": 1285,
      "туру": 1286,
      "крае": 1287,
      "ительно": 1288,
      "фигу": 1289,
      "терин": 1290,
      "лена": 1291,
      "цев": 1292,
      "основа": 1293,
      "объем": 1294,
      "торгов": 1295,
      "свои": 1296,
      "средства": 1297,
      "организации": 1298,
      "объектов": 1299,
      "сотрудниче": 1300,
      "информации": 1301,
      "министр": 1302,
      "которого": 1303,
      "участие": 1304,
      "букме": 1305,
      "губерна": 1306,
      "вд": 1307,
      "ез": 1308,
      "ждан": 1309,
      "зма": 1310,
      "ия": 1311,
      "ини": 1312,
      "кти": 1313,
      "мени": 1314,
      "мпи": 1315,
      "хва": 1316,
      "чной": 1317,
      "чить": 1318,
      "шли": 1319,
      "ья": 1320,
      "стер": 1321,
      "рев": 1322,
      "пора": 1323,
      "ниж": 1324,
      "замест": 1325,
      "вом": 1326,
      "ким": 1327,
      "руют": 1328,
      "деж": 1329,
      "дости": 1330,
      "доку": 1331,
      "отдых": 1332,
      "вест": 1333,
      "семь": 1334,
      "одно": 1335,
      "бел": 1336,
      "шел": 1337,
      "крас": 1338,
      "совета": 1339,
      "скла": 1340,
      "ческий": 1341,
      "получа": 1342,
      "парт": 1343,
      "собствен": 1344,
      "оборо": 1345,
      "центр": 1346,
      "вших": 1347,
      "других": 1348,
      "законодатель": 1349,
      "именно": 1350,
      "теринбур": 1351,
      "ar": 1352,
      "gra": 1353,
      "дмит": 1354,
      "йн": 1355,
      "лоб": 1356,
      "мно": 1357,
      "нения": 1358,
      "ус": 1359,
      "шко": 1360,
      "рая": 1361,
      "нологи": 1362,
      "нало": 1363,
      "гос": 1364,
      "нием": 1365,
      "лиц": 1366,
      "запа": 1367,
      "заседа": 1368,
      "рина": 1369,
      "кий": 1370,
      "важ": 1371,
      "тами": 1372,
      "неде": 1373,
      "недо": 1374,
      "дона": 1375,
      "достав": 1376,
      "стало": 1377,
      "тели": 1378,
      "вых": 1379,
      "тья": 1380,
      "газ": 1381,
      "стой": 1382,
      "щий": 1383,
      "бар": 1384,
      "беле": 1385,
      "ске": 1386,
      "емых": 1387,
      "граждан": 1388,
      "цей": 1389,
      "ходит": 1390,
      "полни": 1391,
      "связи": 1392,
      "организова": 1393,
      "нарушения": 1394,
      "креп": 1395,
      "человека": 1396,
      "составляет": 1397,
      "требова": 1398,
      "материале": 1399,
      "универ": 1400,
      "францу": 1401,
      "августе": 1402,
      "дембеле": 1403,
      "подчеркну": 1404,
      "иностран": 1405,
      "мышлен": 1406,
      "аре": 1407,
      "бла": 1408,
      "зя": 1409,
      "зер": 1410,
      "ива": 1411,
      "игра": 1412,
      "лли": 1413,
      "нных": 1414,
      "пита": 1415,
      "счет": 1416,
      "тру": 1417,
      "шта": 1418,
      "распо": 1419,
      "рослав": 1420,
      "коми": 1421,
      "пожа": 1422,
      "льным": 1423,
      "даль": 1424,
      "вол": 1425,
      "мая": 1426,
      "момент": 1427,
      "сом": 1428,
      "сор": 1429,
      "проце": 1430,
      "дида": 1431,
      "веро": 1432,
      "сут": 1433,
      "тыся": 1434,
      "способ": 1435,
      "нут": 1436,
      "жил": 1437,
      "персо": 1438,
      "которая": 1439,
      "фили": 1440,
      "особ": 1441,
      "генера": 1442,
      "полно": 1443,
      "цена": 1444,
      "регионального": 1445,
      "повы": 1446,
      "кандида": 1447,
      "технологи": 1448,
      "отношении": 1449,
      "надле": 1450,
      "бюджет": 1451,
      "судеб": 1452,
      "муртии": 1453,
      "штраф": 1454,
      "букмек": 1455,
      "er": 1456,
      "Ро": 1457,
      "вле": 1458,
      "глу": 1459,
      "лению": 1460,
      "мвд": 1461,
      "нен": 1462,
      "ог": 1463,
      "онов": 1464,
      "пять": 1465,
      "смен": 1466,
      "ура": 1467,
      "устрой": 1468,
      "ху": 1469,
      "чений": 1470,
      "юж": 1471,
      "регу": 1472,
      "иту": 1473,
      "итет": 1474,
      "мина": 1475,
      "цией": 1476,
      "состоя": 1477,
      "вик": 1478,
      "секре": 1479,
      "суб": 1480,
      "комму": 1481,
      "право": 1482,
      "практи": 1483,
      "совмест": 1484,
      "няя": 1485,
      "филь": 1486,
      "ленных": 1487,
      "возду": 1488,
      "арен": 1489,
      "чень": 1490,
      "ченко": 1491,
      "провод": 1492,
      "начала": 1493,
      "власти": 1494,
      "строительства": 1495,
      "иску": 1496,
      "федерации": 1497,
      "ваться": 1498,
      "последние": 1499,
      "управления": 1500,
      "прокуратура": 1501,
      "республики": 1502,
      "владимир": 1503,
      "несколько": 1504,
      "бизнес": 1505,
      "недвижимости": 1506,
      "американ": 1507,
      "сфере": 1508,
      "курорта": 1509,
      "университ": 1510,
      "re": 1511,
      "ап": 1512,
      "бло": 1513,
      "вшего": 1514,
      "кита": 1515,
      "мов": 1516,
      "оди": 1517,
      "оче": 1518,
      "офи": 1519,
      "пен": 1520,
      "сн": 1521,
      "смер": 1522,
      "тный": 1523,
      "укреп": 1524,
      "чно": 1525,
      "рах": 1526,
      "роприяти": 1527,
      "коро": 1528,
      "нато": 1529,
      "ниже": 1530,
      "лик": 1531,
      "льное": 1532,
      "обнов": 1533,
      "заня": 1534,
      "завод": 1535,
      "вос": 1536,
      "мощ": 1537,
      "сохран": 1538,
      "проис": 1539,
      "челябин": 1540,
      "выда": 1541,
      "выше": 1542,
      "кубан": 1543,
      "мероприяти": 1544,
      "причи": 1545,
      "сток": 1546,
      "менения": 1547,
      "бере": 1548,
      "шим": 1549,
      "шее": 1550,
      "иться": 1551,
      "область": 1552,
      "этому": 1553,
      "трех": 1554,
      "свет": 1555,
      "свое": 1556,
      "средств": 1557,
      "краснода": 1558,
      "окру": 1559,
      "ющей": 1560,
      "анали": 1561,
      "надзор": 1562,
      "истори": 1563,
      "янва": 1564,
      "екатеринбур": 1565,
      "писал": 1566,
      "tele": 1567,
      "рынке": 1568,
      "считает": 1569,
      "уголовное": 1570,
      "золото": 1571,
      "инициа": 1572,
      "gram": 1573,
      "telegram": 1574,
      "vi": 1575,
      "wa": 1576,
      "аути": 1577,
      "бит": 1578,
      "брен": 1579,
      "м.": 1580,
      "смот": 1581,
      "фф": 1582,
      "хе": 1583,
      "цита": 1584,
      "что": 1585,
      "чных": 1586,
      "шет": 1587,
      "раза": 1588,
      "нах": 1589,
      "гом": 1590,
      "пози": 1591,
      "нин": 1592,
      "еры": 1593,
      "обя": 1594,
      "зар": 1595,
      "зада": 1596,
      "зави": 1597,
      "дав": 1598,
      "рил": 1599,
      "рили": 1600,
      "лега": 1601,
      "ложен": 1602,
      "макси": 1603,
      "москов": 1604,
      "содержа": 1605,
      "проти": 1606,
      "догово": 1607,
      "стать": 1608,
      "дили": 1609,
      "виде": 1610,
      "принадле": 1611,
      "сара": 1612,
      "чай": 1613,
      "инди": 1614,
      "ляр": 1615,
      "ляют": 1616,
      "новый": 1617,
      "муще": 1618,
      "оды": 1619,
      "бой": 1620,
      "боро": 1621,
      "ствова": 1622,
      "жива": 1623,
      "предлож": 1624,
      "февра": 1625,
      "главы": 1626,
      "шая": 1627,
      "ством": 1628,
      "меры": 1629,
      "ябре": 1630,
      "чено": 1631,
      "зывает": 1632,
      "домов": 1633,
      "российского": 1634,
      "российских": 1635,
      "вший": 1636,
      "городе": 1637,
      "прокуро": 1638,
      "москве": 1639,
      "туристи": 1640,
      "источ": 1641,
      "транс": 1642,
      "стороны": 1643,
      "позво": 1644,
      "инфра": 1645,
      "улице": 1646,
      "включа": 1647,
      "кварти": 1648,
      "октября": 1649,
      "фигуран": 1650,
      "дмитрий": 1651,
      "полномо": 1652,
      "противо": 1653,
      "-ка": 1654,
      "ch": 1655,
      "fm": 1656,
      "бпла": 1657,
      "гли": 1658,
      "гри": 1659,
      "джа": 1660,
      "ипо": 1661,
      "иска": 1662,
      "имуще": 1663,
      "кет": 1664,
      "кред": 1665,
      "нению": 1666,
      "оль": 1667,
      "ожи": 1668,
      "сня": 1669,
      "сдела": 1670,
      "снаб": 1671,
      "твер": 1672,
      "цени": 1673,
      "чные": 1674,
      "шла": 1675,
      "ыти": 1676,
      "ента": 1677,
      "кос": 1678,
      "коти": 1679,
      "нам": 1680,
      "ната": 1681,
      "настоя": 1682,
      "науч": 1683,
      "национа": 1684,
      "пом": 1685,
      "кали": 1686,
      "кажд": 1687,
      "кие": 1688,
      "лег": 1689,
      "милли": 1690,
      "сокра": 1691,
      "проб": 1692,
      "течение": 1693,
      "чемпи": 1694,
      "пан": 1695,
      "выде": 1696,
      "отмен": 1697,
      "вече": 1698,
      "сель": 1699,
      "чил": 1700,
      "муж": 1701,
      "одного": 1702,
      "тых": 1703,
      "коммер": 1704,
      "сила": 1705,
      "ший": 1706,
      "жили": 1707,
      "предпо": 1708,
      "ентов": 1709,
      "современ": 1710,
      "емы": 1711,
      "хода": 1712,
      "ственных": 1713,
      "анна": 1714,
      "плат": 1715,
      "метал": 1716,
      "бир": 1717,
      "своб": 1718,
      "компаний": 1719,
      "действу": 1720,
      "собра": 1721,
      "событи": 1722,
      "евро": 1723,
      "лением": 1724,
      "логии": 1725,
      "больш": 1726,
      "ключе": 1727,
      "времен": 1728,
      "городской": 1729,
      "общего": 1730,
      "учре": 1731,
      "самолет": 1732,
      "транспорт": 1733,
      "коллек": 1734,
      "группы": 1735,
      "ограничений": 1736,
      "назначен": 1737,
      "тарста": 1738,
      "ооо": 1739,
      "первые": 1740,
      "деньги": 1741,
      "финан": 1742,
      "частности": 1743,
      "жизни": 1744,
      "сезон": 1745,
      "француз": 1746,
      "тысяч": 1747,
      "инфраструк": 1748,
      "ипоте": 1749,
      "-й": 1750,
      "ru": 1751,
      "ара": 1752,
      "вза": 1753,
      "дсн": 1754,
      "иго": 1755,
      "идет": 1756,
      "кци": 1757,
      "лений": 1758,
      "оп": 1759,
      "очень": 1760,
      "сб": 1761,
      "твор": 1762,
      "уточ": 1763,
      "чного": 1764,
      "щую": 1765,
      "ярослав": 1766,
      "роста": 1767,
      "реко": 1768,
      "насе": 1769,
      "находи": 1770,
      "например": 1771,
      "постро": 1772,
      "лиш": 1773,
      "каб": 1774,
      "каж": 1775,
      "обре": 1776,
      "зад": 1777,
      "торы": 1778,
      "тах": 1779,
      "миров": 1780,
      "незакон": 1781,
      "промышлен": 1782,
      "телей": 1783,
      "диа": 1784,
      "ссе": 1785,
      "виа": 1786,
      "привле": 1787,
      "музы": 1788,
      "извест": 1789,
      "разде": 1790,
      "сист": 1791,
      "ровал": 1792,
      "рования": 1793,
      "фика": 1794,
      "объя": 1795,
      "данные": 1796,
      "парта": 1797,
      "работе": 1798,
      "начале": 1799,
      "сообщал": 1800,
      "серви": 1801,
      "район": 1802,
      "строительство": 1803,
      "развитие": 1804,
      "снизи": 1805,
      "несмот": 1806,
      "утвер": 1807,
      "представитель": 1808,
      "говорится": 1809,
      "техни": 1810,
      "фоне": 1811,
      "культур": 1812,
      "хранения": 1813,
      "должность": 1814,
      "задержали": 1815,
      "получил": 1816,
      "основе": 1817,
      "ведения": 1818,
      "доба": 1819,
      "объедин": 1820,
      "вопрос": 1821,
      "ферен": 1822,
      "количество": 1823,
      "предприятия": 1824,
      "деятельности": 1825,
      "ситуации": 1826,
      "увеличи": 1827,
      "энерго": 1828,
      "вороне": 1829,
      "т-петербур": 1830,
      "совершен": 1831,
      "рассказал": 1832,
      "ростовской": 1833,
      "санкт-петербур": 1834,
      "многи": 1835,
      "telegram-ка": 1836,
      "ффек": 1837,
      "каждый": 1838,
      "дснв": 1839,
      "несмотря": 1840,
      "..": 1841,
      "co": 1842,
      "en": 1843,
      "la": 1844,
      "Мо": 1845,
      "ава": 1846,
      "ата": 1847,
      "внима": 1848,
      "дения": 1849,
      "кри": 1850,
      "нные": 1851,
      "оде": 1852,
      "останов": 1853,
      "пс": 1854,
      "слож": 1855,
      "удов": 1856,
      "физ": 1857,
      "эффек": 1858,
      "язы": 1859,
      "ено": 1860,
      "раст": 1861,
      "рок": 1862,
      "рез": 1863,
      "ремон": 1864,
      "кое": 1865,
      "напра": 1866,
      "обсу": 1867,
      "зам": 1868,
      "вок": 1869,
      "воч": 1870,
      "тон": 1871,
      "татья": 1872,
      "рус": 1873,
      "доказа": 1874,
      "доступ": 1875,
      "стала": 1876,
      "паци": 1877,
      "вые": 1878,
      "выпол": 1879,
      "мей": 1880,
      "думы": 1881,
      "вело": 1882,
      "инвали": 1883,
      "инвести": 1884,
      "рыно": 1885,
      "сур": 1886,
      "гам": 1887,
      "ением": 1888,
      "разу": 1889,
      "поддержа": 1890,
      "подтвер": 1891,
      "бани": 1892,
      "без": 1893,
      "жей": 1894,
      "шем": 1895,
      "контра": 1896,
      "конферен": 1897,
      "перм": 1898,
      "скры": 1899,
      "хозя": 1900,
      "фикси": 1901,
      "людей": 1902,
      "парла": 1903,
      "полицей": 1904,
      "следствен": 1905,
      "цены": 1906,
      "повре": 1907,
      "сообщила": 1908,
      "пыта": 1909,
      "священ": 1910,
      "сотрудники": 1911,
      "земе": 1912,
      "дорож": 1913,
      "международной": 1914,
      "возможно": 1915,
      "планируется": 1916,
      "краснодарского": 1917,
      "срок": 1918,
      "составила": 1919,
      "стями": 1920,
      "второй": 1921,
      "реализации": 1922,
      "рынка": 1923,
      "администрации": 1924,
      "удмуртии": 1925,
      "исследова": 1926,
      "правительства": 1927,
      "жур": 1928,
      "столицы": 1929,
      "подробнее": 1930,
      "беспилотников": 1931,
      "медици": 1932,
      "помощь": 1933,
      "отдыха": 1934,
      "официа": 1935,
      "смотрен": 1936,
      "цитата": 1937,
      "кредит": 1938,
      "ожида": 1939,
      "свободы": 1940,
      "00": 1941,
      "di": 1942,
      "il": 1943,
      "no": 1944,
      "st": 1945,
      "аг": 1946,
      "бран": 1947,
      "вов": 1948,
      "житель": 1949,
      "здра": 1950,
      "иг": 1951,
      "нь": 1952,
      "опубли": 1953,
      "пря": 1954,
      "син": 1955,
      "свер": 1956,
      "сизо": 1957,
      "тю": 1958,
      "тного": 1959,
      "упа": 1960,
      "цов": 1961,
      "чным": 1962,
      "ьев": 1963,
      "эн": 1964,
      "ово": 1965,
      "речи": 1966,
      "нале": 1967,
      "голо": 1968,
      "поме": 1969,
      "попу": 1970,
      "потер": 1971,
      "ником": 1972,
      "заме": 1973,
      "рин": 1974,
      "вакци": 1975,
      "тасс": 1976,
      "лой": 1977,
      "декаб": 1978,
      "док": 1979,
      "доста": 1980,
      "стар": 1981,
      "теле": 1982,
      "преступ": 1983,
      "предостав": 1984,
      "ческое": 1985,
      "пари": 1986,
      "выступа": 1987,
      "кую": 1988,
      "отра": 1989,
      "прибы": 1990,
      "лять": 1991,
      "нового": 1992,
      "меня": 1993,
      "менти": 1994,
      "ментов": 1995,
      "разработ": 1996,
      "нужно": 1997,
      "башки": 1998,
      "силия": 1999,
      "беремен": 2000,
      "шести": 2001,
      "россия": 2002,
      "конкур": 2003,
      "буду": 2004,
      "ровали": 2005,
      "тельных": 2006,
      "тельства": 2007,
      "возвра": 2008,
      "регистри": 2009,
      "переда": 2010,
      "трав": 2011,
      "должно": 2012,
      "ближа": 2013,
      "рассмот": 2014,
      "расши": 2015,
      "началь": 2016,
      "свой": 2017,
      "службы": 2018,
      "рейтин": 2019,
      "класса": 2020,
      "связ": 2021,
      "господина": 2022,
      "ответствен": 2023,
      "станет": 2024,
      "общей": 2025,
      "фору": 2026,
      "пресс-службе": 2027,
      "культуры": 2028,
      "направления": 2029,
      "участников": 2030,
      "корпора": 2031,
      "руководитель": 2032,
      "необходимо": 2033,
      "государствен": 2034,
      "груз": 2035,
      "этим": 2036,
      "находится": 2037,
      "следует": 2038,
      "украи": 2039,
      "менедж": 2040,
      "председателя": 2041,
      "отмечает": 2042,
      "алексей": 2043,
      "предусмотрен": 2044,
      "губернатор": 2045,
      "заседании": 2046,
      "инициати": 2047,
      "прокурора": 2048,
      "тарстане": 2049,
      "опубликова": 2050,
      "au": 2051,
      "ma": 2052,
      "ас": 2053,
      "апре": 2054,
      "жении": 2055,
      "ий": 2056,
      "пя": 2057,
      "рит": 2058,
      "рного": 2059,
      "сфер": 2060,
      "тной": 2061,
      "уз": 2062,
      "ун": 2063,
      "устой": 2064,
      "чит": 2065,
      "чный": 2066,
      "чном": 2067,
      "шу": 2068,
      "яр": 2069,
      "енно": 2070,
      "рост": 2071,
      "решения": 2072,
      "речь": 2073,
      "ребен": 2074,
      "нау": 2075,
      "гости": 2076,
      "пост": 2077,
      "побе": 2078,
      "поясни": 2079,
      "лидер": 2080,
      "лах": 2081,
      "кате": 2082,
      "обу": 2083,
      "обы": 2084,
      "обнару": 2085,
      "общая": 2086,
      "заво": 2087,
      "кин": 2088,
      "лота": 2089,
      "девоч": 2090,
      "мат": 2091,
      "маши": 2092,
      "матри": 2093,
      "прос": 2094,
      "тина": 2095,
      "дон": 2096,
      "доне": 2097,
      "ован": 2098,
      "пада": 2099,
      "вид": 2100,
      "куз": 2101,
      "купа": 2102,
      "места": 2103,
      "приобре": 2104,
      "приостанов": 2105,
      "сад": 2106,
      "сами": 2107,
      "самы": 2108,
      "самар": 2109,
      "гиб": 2110,
      "гим": 2111,
      "судей": 2112,
      "чили": 2113,
      "систе": 2114,
      "жиль": 2115,
      "пусти": 2116,
      "путин": 2117,
      "пунк": 2118,
      "край": 2119,
      "щей": 2120,
      "конструк": 2121,
      "ставки": 2122,
      "первого": 2123,
      "товской": 2124,
      "ровала": 2125,
      "лены": 2126,
      "тельные": 2127,
      "зирован": 2128,
      "графи": 2129,
      "люда": 2130,
      "целом": 2131,
      "ходов": 2132,
      "зоне": 2133,
      "арти": 2134,
      "годно": 2135,
      "ждение": 2136,
      "ждений": 2137,
      "прово": 2138,
      "маркет": 2139,
      "судов": 2140,
      "распреде": 2141,
      "никам": 2142,
      "пове": 2143,
      "серг": 2144,
      "итогам": 2145,
      "клад": 2146,
      "связан": 2147,
      "движения": 2148,
      "говорит": 2149,
      "требования": 2150,
      "экс-": 2151,
      "комплекса": 2152,
      "которое": 2153,
      "обрати": 2154,
      "образова": 2155,
      "другие": 2156,
      "прокуратуры": 2157,
      "государства": 2158,
      "спортсмен": 2159,
      "режима": 2160,
      "программа": 2161,
      "бюджета": 2162,
      "сумма": 2163,
      "уровня": 2164,
      "наркоти": 2165,
      "топ-": 2166,
      "топли": 2167,
      "норма": 2168,
      "оборудования": 2169,
      "вооружения": 2170,
      "функ": 2171,
      "случае": 2172,
      "футбо": 2173,
      "партнер": 2174,
      "подчеркнул": 2175,
      "расположен": 2176,
      "секрета": 2177,
      "восстанов": 2178,
      "системы": 2179,
      "псж": 2180,
      "татьяна": 2181,
      "хозяй": 2182,
      "устойчи": 2183,
      "-м": 2184,
      "-го": 2185,
      "гля": 2186,
      "дня": 2187,
      "еже": 2188,
      "ила": 2189,
      "игро": 2190,
      "км": 2191,
      "лер": 2192,
      "лкой": 2193,
      "срав": 2194,
      "свыше": 2195,
      "тных": 2196,
      "тные": 2197,
      "угро": 2198,
      "хот": 2199,
      "чета": 2200,
      "ститу": 2201,
      "намер": 2202,
      "напом": 2203,
      "потен": 2204,
      "поэтому": 2205,
      "лий": 2206,
      "льго": 2207,
      "льности": 2208,
      "капита": 2209,
      "зай": 2210,
      "закры": 2211,
      "деле": 2212,
      "деми": 2213,
      "май": 2214,
      "мас": 2215,
      "мана": 2216,
      "моты": 2217,
      "пром": 2218,
      "профе": 2219,
      "продолж": 2220,
      "тия": 2221,
      "дополни": 2222,
      "стату": 2223,
      "теку": 2224,
      "овали": 2225,
      "премь": 2226,
      "вице": 2227,
      "кубани": 2228,
      "отсут": 2229,
      "прием": 2230,
      "сах": 2231,
      "дутер": 2232,
      "вел": 2233,
      "веден": 2234,
      "инци": 2235,
      "сед": 2236,
      "село": 2237,
      "скими": 2238,
      "судо": 2239,
      "новой": 2240,
      "новые": 2241,
      "щие": 2242,
      "комитет": 2243,
      "подряд": 2244,
      "сил": 2245,
      "предвар": 2246,
      "предлага": 2247,
      "щего": 2248,
      "констан": 2249,
      "ровано": 2250,
      "верну": 2251,
      "анти": 2252,
      "спец": 2253,
      "требу": 2254,
      "должен": 2255,
      "сентябре": 2256,
      "российской": 2257,
      "российские": 2258,
      "полина": 2259,
      "расслед": 2260,
      "судь": 2261,
      "четвер": 2262,
      "экспо": 2263,
      "госпожа": 2264,
      "ответчи": 2265,
      "городов": 2266,
      "аналоги": 2267,
      "информация": 2268,
      "получили": 2269,
      "получила": 2270,
      "взрыв": 2271,
      "июле": 2272,
      "спита": 2273,
      "месяц": 2274,
      "месяца": 2275,
      "предприятий": 2276,
      "интерфак": 2277,
      "административ": 2278,
      "ситуация": 2279,
      "депутатов": 2280,
      "более": 2281,
      "предложения": 2282,
      "услуг": 2283,
      "услуги": 2284,
      "качестве": 2285,
      "пострада": 2286,
      "пострадали": 2287,
      "превыша": 2288,
      "пространство": 2289,
      "вяче": 2290,
      "защит": 2291,
      "трампа": 2292,
      "налогов": 2293,
      "дональ": 2294,
      "дальней": 2295,
      "особенно": 2296,
      "воздуш": 2297,
      "очеред": 2298,
      "аналити": 2299,
      "зависи": 2300,
      "наталья": 2301,
      "вечером": 2302,
      "европе": 2303,
      "большой": 2304,
      "удовлет": 2305,
      "эффектив": 2306,
      "контрак": 2307,
      "медицин": 2308,
      "ближай": 2309,
      "менеджеров": 2310,
      "катего": 2311,
      "потенциа": 2312,
      "вице-": 2313,
      "дутерте": 2314,
      "3p": 2315,
      "ik": 2316,
      "l-": 2317,
      "апарта": 2318,
      "вен": 2319,
      "вход": 2320,
      "вместе": 2321,
      "две": 2322,
      "дской": 2323,
      "длов": 2324,
      "ерева": 2325,
      "жо": 2326,
      "злев": 2327,
      "имо": 2328,
      "йти": 2329,
      "кру": 2330,
      "ону": 2331,
      "опас": 2332,
      "п.": 2333,
      "пин": 2334,
      "пля": 2335,
      "псу": 2336,
      "сен": 2337,
      "трен": 2338,
      "ущ": 2339,
      "указа": 2340,
      "фла": 2341,
      "чное": 2342,
      "ющая": 2343,
      "раж": 2344,
      "наи": 2345,
      "нала": 2346,
      "наде": 2347,
      "наказа": 2348,
      "назад": 2349,
      "госсов": 2350,
      "поя": 2351,
      "поста": 2352,
      "пользова": 2353,
      "попыт": 2354,
      "нито": 2355,
      "ници": 2356,
      "нице": 2357,
      "нитар": 2358,
      "лишения": 2359,
      "ныне": 2360,
      "льном": 2361,
      "льца": 2362,
      "кая": 2363,
      "катель": 2364,
      "зарегистри": 2365,
      "кино": 2366,
      "тай": 2367,
      "рубе": 2368,
      "дев": 2369,
      "мастер": 2370,
      "просто": 2371,
      "стати": 2372,
      "телем": 2373,
      "дий": 2374,
      "ческую": 2375,
      "винов": 2376,
      "вырос": 2377,
      "приро": 2378,
      "лял": 2379,
      "гии": 2380,
      "семей": 2381,
      "гами": 2382,
      "мус": 2383,
      "изуча": 2384,
      "изменения": 2385,
      "мень": 2386,
      "разных": 2387,
      "комменти": 2388,
      "широ": 2389,
      "шили": 2390,
      "предста": 2391,
      "предмет": 2392,
      "пик": 2393,
      "конце": 2394,
      "конца": 2395,
      "ственно": 2396,
      "ходы": 2397,
      "ческим": 2398,
      "платы": 2399,
      "регионе": 2400,
      "акции": 2401,
      "бира": 2402,
      "арбит": 2403,
      "чены": 2404,
      "ченных": 2405,
      "данных": 2406,
      "тради": 2407,
      "ющим": 2408,
      "партии": 2409,
      "российском": 2410,
      "полностью": 2411,
      "марте": 2412,
      "своей": 2413,
      "серье": 2414,
      "харак": 2415,
      "рейсов": 2416,
      "большин": 2417,
      "детей": 2418,
      "класси": 2419,
      "публика": 2420,
      "развитию": 2421,
      "снижения": 2422,
      "представители": 2423,
      "ющее": 2424,
      "движение": 2425,
      "самой": 2426,
      "относ": 2427,
      "ведомство": 2428,
      "создание": 2429,
      "директоров": 2430,
      "комплекс": 2431,
      "обвинения": 2432,
      "сторон": 2433,
      "последний": 2434,
      "имени": 2435,
      "составил": 2436,
      "прошлого": 2437,
      "аэропорту": 2438,
      "крупных": 2439,
      "совете": 2440,
      "инфля": 2441,
      "оказался": 2442,
      "самых": 2443,
      "этих": 2444,
      "находятся": 2445,
      "результате": 2446,
      "интере": 2447,
      "контроля": 2448,
      "отече": 2449,
      "украин": 2450,
      "менее": 2451,
      "мэр": 2452,
      "десят": 2453,
      "возможность": 2454,
      "фестиваля": 2455,
      "выпуск": 2456,
      "возбужден": 2457,
      "ссылкой": 2458,
      "стратегических": 2459,
      "тяже": 2460,
      "версии": 2461,
      "назвал": 2462,
      "молодеж": 2463,
      "подозрева": 2464,
      "заместителя": 2465,
      "арест": 2466,
      "благода": 2467,
      "кандидатуру": 2468,
      "краснодара": 2469,
      "принадлеж": 2470,
      "предложение": 2471,
      "включая": 2472,
      "взаимо": 2473,
      "многие": 2474,
      "рынок": 2475,
      "помещения": 2476,
      "башкирии": 2477,
      "гимна": 2478,
      "сергей": 2479,
      "мотызлев": 2480,
      "премьер": 2481,
      "константин": 2482,
      "3pl-": 2483,
      "арбитраж": 2484,
      "мотызлевская": 2485,
      "20": 2486,
      "he": 2487,
      "lo": 2488,
      "ro": 2489,
      "to": 2490,
      "На": 2491,
      "атаки": 2492,
      "всу": 2493,
      "гер": 2494,
      "гский": 2495,
      "глоб": 2496,
      "емой": 2497,
      "жителя": 2498,
      "зм": 2499,
      "ии": 2500,
      "иде": 2501,
      "клу": 2502,
      "кров": 2503,
      "клет": 2504,
      "мк": 2505,
      "мых": 2506,
      "ню": 2507,
      "нение": 2508,
      "оли": 2509,
      "ору": 2510,
      "очи": 2511,
      "оцени": 2512,
      "плей": 2513,
      "пяти": 2514,
      "рити": 2515,
      "рению": 2516,
      "сло": 2517,
      "сбор": 2518,
      "тся": 2519,
      "увер": 2520,
      "успе": 2521,
      "усилия": 2522,
      "фро": 2523,
      "цета": 2524,
      "читель": 2525,
      "чению": 2526,
      "шо": 2527,
      "шлось": 2528,
      "щин": 2529,
      "эмо": 2530,
      "юри": 2531,
      "ющую": 2532,
      "роз": 2533,
      "росла": 2534,
      "рее": 2535,
      "реки": 2536,
      "ресур": 2537,
      "нака": 2538,
      "нанес": 2539,
      "гостей": 2540,
      "поми": 2541,
      "полов": 2542,
      "посколь": 2543,
      "поступи": 2544,
      "покуп": 2545,
      "потребова": 2546,
      "посвящен": 2547,
      "ниц": 2548,
      "нили": 2549,
      "лить": 2550,
      "обл": 2551,
      "зацию": 2552,
      "дале": 2553,
      "вошли": 2554,
      "тором": 2555,
      "татарстане": 2556,
      "мину": 2557,
      "миха": 2558,
      "нев": 2559,
      "неф": 2560,
      "некоторых": 2561,
      "лон": 2562,
      "дел": 2563,
      "демон": 2564,
      "мае": 2565,
      "массов": 2566,
      "мол": 2567,
      "мор": 2568,
      "моно": 2569,
      "мотов": 2570,
      "мошен": 2571,
      "соц": 2572,
      "прод": 2573,
      "тий": 2574,
      "дой": 2575,
      "доля": 2576,
      "ско-": 2577,
      "прекра": 2578,
      "препара": 2579,
      "преступления": 2580,
      "дии": 2581,
      "чей": 2582,
      "ческом": 2583,
      "пасса": 2584,
      "павел": 2585,
      "вида": 2586,
      "вило": 2587,
      "види": 2588,
      "выс": 2589,
      "выяв": 2590,
      "выступ": 2591,
      "курь": 2592,
      "отрас": 2593,
      "отчис": 2594,
      "мера": 2595,
      "природ": 2596,
      "привод": 2597,
      "приговор": 2598,
      "причин": 2599,
      "весь": 2600,
      "ган": 2601,
      "новым": 2602,
      "чих": 2603,
      "стоит": 2604,
      "мум": 2605,
      "муници": 2606,
      "одним": 2607,
      "менты": 2608,
      "разви": 2609,
      "различ": 2610,
      "подъ": 2611,
      "подготов": 2612,
      "жила": 2613,
      "шед": 2614,
      "красо": 2615,
      "пишет": 2616,
      "консу": 2617,
      "конкре": 2618,
      "емые": 2619,
      "лета": 2620,
      "фици": 2621,
      "верхов": 2622,
      "тельно": 2623,
      "зии": 2624,
      "стране": 2625,
      "фей": 2626,
      "служа": 2627,
      "осна": 2628,
      "авт": 2629,
      "арм": 2630,
      "данный": 2631,
      "годов": 2632,
      "женщи": 2633,
      "действи": 2634,
      "действие": 2635,
      "бывший": 2636,
      "ждении": 2637,
      "марта": 2638,
      "следствие": 2639,
      "расска": 2640,
      "рабочих": 2641,
      "среднем": 2642,
      "ционного": 2643,
      "развитии": 2644,
      "федерация": 2645,
      "вшие": 2646,
      "объекта": 2647,
      "объекты": 2648,
      "такие": 2649,
      "отношений": 2650,
      "колонии": 2651,
      "составля": 2652,
      "туризма": 2653,
      "истории": 2654,
      "директора": 2655,
      "комплексов": 2656,
      "производства": 2657,
      "борь": 2658,
      "продаж": 2659,
      "взя": 2660,
      "чинов": 2661,
      "реализова": 2662,
      "месяцев": 2663,
      "новое": 2664,
      "проведен": 2665,
      "интернет": 2666,
      "первый": 2667,
      "специалистов": 2668,
      "ступил": 2669,
      "внеш": 2670,
      "наблюда": 2671,
      "десяти": 2672,
      "председатель": 2673,
      "активно": 2674,
      "исследования": 2675,
      "фонда": 2676,
      "подробности": 2677,
      "экологи": 2678,
      "четырех": 2679,
      "-летний": 2680,
      "доходов": 2681,
      "оборудование": 2682,
      "стоимостью": 2683,
      "модель": 2684,
      "министерства": 2685,
      "сетях": 2686,
      "существу": 2687,
      "своих": 2688,
      "барсело": 2689,
      "состоянии": 2690,
      "практически": 2691,
      "бизнес-": 2692,
      "университета": 2693,
      "челябинской": 2694,
      "своего": 2695,
      "екатеринбурга": 2696,
      "отменены": 2697,
      "учреждения": 2698,
      "рекорд": 2699,
      "воронеж": 2700,
      "Моск": 2701,
      "внимание": 2702,
      "ремонт": 2703,
      "инвалид": 2704,
      "журнали": 2705,
      "свердлов": 2706,
      "самарской": 2707,
      "вячеслав": 2708,
      "европей": 2709,
      "ikon": 2710,
      "ущер": 2711,
      "нынеш": 2712,
      "серьез": 2713,
      "помимо": 2714,
      "поскольку": 2715,
      "пассажи": 2716,
      "муниципа": 2717,
      "ex": 2718,
      "ti": 2719,
      "За": 2720,
      "ано": 2721,
      "алина": 2722,
      "боб": 2723,
      "вшей": 2724,
      "гран": 2725,
      "дю": 2726,
      "для": 2727,
      "дение": 2728,
      "ева": 2729,
      "един": 2730,
      "езда": 2731,
      "жители": 2732,
      "исте": 2733,
      "лени": 2734,
      "мля": 2735,
      "ое": 2736,
      "оно": 2737,
      "ока": 2738,
      "оско": 2739,
      "осу": 2740,
      "окон": 2741,
      "опер": 2742,
      "пру": 2743,
      "рения": 2744,
      "сми": 2745,
      "тр": 2746,
      "устра": 2747,
      "учен": 2748,
      "уполномо": 2749,
      "фю": 2750,
      "фсб": 2751,
      "чными": 2752,
      "шру": 2753,
      "ште": 2754,
      "шить": 2755,
      "щении": 2756,
      "ясь": 2757,
      "стка": 2758,
      "комо": 2759,
      "коман": 2760,
      "наши": 2761,
      "награ": 2762,
      "называ": 2763,
      "нашей": 2764,
      "поч": 2765,
      "последу": 2766,
      "низ": 2767,
      "нить": 2768,
      "ница": 2769,
      "ницу": 2770,
      "лита": 2771,
      "ери": 2772,
      "льзу": 2773,
      "лава": 2774,
      "каса": 2775,
      "карен": 2776,
      "обслу": 2777,
      "зака": 2778,
      "заплани": 2779,
      "закуп": 2780,
      "зафикси": 2781,
      "дат": 2782,
      "итета": 2783,
      "риа": 2784,
      "важно": 2785,
      "вающих": 2786,
      "тан": 2787,
      "мино": 2788,
      "лог": 2789,
      "дефи": 2790,
      "девело": 2791,
      "циф": 2792,
      "сою": 2793,
      "тие": 2794,
      "стам": 2795,
      "стана": 2796,
      "темати": 2797,
      "овать": 2798,
      "сян": 2799,
      "преж": 2800,
      "честь": 2801,
      "пао": 2802,
      "пала": 2803,
      "виду": 2804,
      "вым": 2805,
      "отли": 2806,
      "отказа": 2807,
      "прин": 2808,
      "дума": 2809,
      "веду": 2810,
      "часов": 2811,
      "чается": 2812,
      "ляется": 2813,
      "сек": 2814,
      "супру": 2815,
      "гах": 2816,
      "пел": 2817,
      "мут": 2818,
      "избра": 2819,
      "тый": 2820,
      "тыва": 2821,
      "бое": 2822,
      "подразде": 2823,
      "бала": 2824,
      "басс": 2825,
      "сим": 2826,
      "сибир": 2827,
      "бело": 2828,
      "шил": 2829,
      "жем": 2830,
      "жела": 2831,
      "жерок": 2832,
      "шему": 2833,
      "крат": 2834,
      "щее": 2835,
      "щем": 2836,
      "емый": 2837,
      "котором": 2838,
      "хоро": 2839,
      "ровай": 2840,
      "рованы": 2841,
      "рование": 2842,
      "люб": 2843,
      "онко": 2844,
      "строго": 2845,
      "слуша": 2846,
      "возглав": 2847,
      "возобнов": 2848,
      "значение": 2849,
      "шапсу": 2850,
      "анто": 2851,
      "мети": 2852,
      "регионов": 2853,
      "мые": 2854,
      "арх": 2855,
      "год.": 2856,
      "годы": 2857,
      "парка": 2858,
      "парфю": 2859,
      "женщин": 2860,
      "воды": 2861,
      "генпрокуратура": 2862,
      "маршру": 2863,
      "логисти": 2864,
      "своем": 2865,
      "серге": 2866,
      "связа": 2867,
      "ционных": 2868,
      "ционный": 2869,
      "федерального": 2870,
      "вшим": 2871,
      "использу": 2872,
      "стреб": 2873,
      "обществен": 2874,
      "работает": 2875,
      "отношения": 2876,
      "соглашения": 2877,
      "направлении": 2878,
      "составит": 2879,
      "банк": 2880,
      "транспорта": 2881,
      "дорого": 2882,
      "должности": 2883,
      "екатери": 2884,
      "участка": 2885,
      "корруп": 2886,
      "стройщи": 2887,
      "автомобили": 2888,
      "автомобиль": 2889,
      "автомобилей": 2890,
      "карто": 2891,
      "второ": 2892,
      "франции": 2893,
      "объема": 2894,
      "крупней": 2895,
      "элект": 2896,
      "августа": 2897,
      "уголовного": 2898,
      "режим": 2899,
      "программы": 2900,
      "обеспечения": 2901,
      "деятельность": 2902,
      "законопроект": 2903,
      "специалисты": 2904,
      "увеличение": 2905,
      "парацета": 2906,
      "интерес": 2907,
      "активов": 2908,
      "бизне": 2909,
      "выпуска": 2910,
      "использования": 2911,
      "столице": 2912,
      "ine": 2913,
      "имеет": 2914,
      "эксперты": 2915,
      "атмо": 2916,
      "стабили": 2917,
      "стабильности": 2918,
      "сайте": 2919,
      "поддержки": 2920,
      "хранили": 2921,
      "пользу": 2922,
      "изъя": 2923,
      "сотрудничество": 2924,
      "документа": 2925,
      "пожар": 2926,
      "вероят": 2927,
      "букмекеров": 2928,
      "фильма": 2929,
      "искус": 2930,
      "американской": 2931,
      "университет": 2932,
      "января": 2933,
      "обяза": 2934,
      "пробле": 2935,
      "инфраструктуры": 2936,
      "ипотеки": 2937,
      "населения": 2938,
      "музыка": 2939,
      "известно": 2940,
      "физи": 2941,
      "конференции": 2942,
      "парламента": 2943,
      "здравоо": 2944,
      "декабря": 2945,
      "пояснил": 2946,
      "секретарь": 2947,
      "ежегодно": 2948,
      "масшта": 2949,
      "предваритель": 2950,
      "госсовета": 2951,
      "благодаря": 2952,
      "уверен": 2953,
      "шапсугский": 2954,
      "al": 2955,
      "da": 2956,
      "ii": 2957,
      "mo": 2958,
      "mar": 2959,
      "the": 2960,
      "БП": 2961,
      "ЛА": 2962,
      "Че": 2963,
      "аген": 2964,
      "авиа": 2965,
      "бри": 2966,
      "вред": 2967,
      "влия": 2968,
      "впервые": 2969,
      "дров": 2970,
      "ег": 2971,
      "ел": 2972,
      "жной": 2973,
      "ик": 2974,
      "йдут": 2975,
      "ква": 2976,
      "крити": 2977,
      "мск": 2978,
      "ори": 2979,
      "опро": 2980,
      "оти": 2981,
      "оши": 2982,
      "остав": 2983,
      "одом": 2984,
      "охран": 2985,
      "оздоров": 2986,
      "опыт": 2987,
      "ожо": 2988,
      "сети": 2989,
      "сформи": 2990,
      "спрос": 2991,
      "тета": 2992,
      "хро": 2993,
      "цер": 2994,
      "член": 2995,
      "чная": 2996,
      "чении": 2997,
      "читы": 2998,
      "шло": 2999,
      "ыми": 3000,
      "ядер": 3001,
      "ень": 3002,
      "рори": 3003,
      "нос": 3004,
      "ноября": 3005,
      "нослужа": 3006,
      "ремет": 3007,
      "наших": 3008,
      "гон": 3009,
      "появ": 3010,
      "потреб": 3011,
      "покупа": 3012,
      "посад": 3013,
      "погиб": 3014,
      "лиги": 3015,
      "лидера": 3016,
      "линей": 3017,
      "лайн": 3018,
      "карь": 3019,
      "обмен": 3020,
      "запу": 3021,
      "застройщи": 3022,
      "вока": 3023,
      "той": 3024,
      "ток": 3025,
      "кирил": 3026,
      "лесов": 3027,
      "лечение": 3028,
      "дером": 3029,
      "мария": 3030,
      "мого": 3031,
      "момотов": 3032,
      "созыва": 3033,
      "прокомменти": 3034,
      "договор": 3035,
      "тео": 3036,
      "овая": 3037,
      "дил": 3038,
      "дия": 3039,
      "чеб": 3040,
      "видет": 3041,
      "выра": 3042,
      "выбо": 3043,
      "выбра": 3044,
      "кут": 3045,
      "мере": 3046,
      "пригла": 3047,
      "инспек": 3048,
      "сег": 3049,
      "гар": 3050,
      "гатель": 3051,
      "пекарен": 3052,
      "чина": 3053,
      "ителем": 3054,
      "музе": 3055,
      "одоб": 3056,
      "одной": 3057,
      "бон": 3058,
      "нуне": 3059,
      "силов": 3060,
      "ковые": 3061,
      "рядом": 3062,
      "живает": 3063,
      "жилья": 3064,
      "предпринима": 3065,
      "шев": 3066,
      "конку": 3067,
      "первое": 3068,
      "первом": 3069,
      "скр": 3070,
      "емся": 3071,
      "фир": 3072,
      "зиса": 3073,
      "гражда": 3074,
      "люди": 3075,
      "цель": 3076,
      "онлайн": 3077,
      "кей": 3078,
      "держ": 3079,
      "возра": 3080,
      "област": 3081,
      "особо": 3082,
      "зора": 3083,
      "био": 3084,
      "арте": 3085,
      "ющими": 3086,
      "участок": 3087,
      "получение": 3088,
      "долго": 3089,
      "проекты": 3090,
      "российский": 3091,
      "органы": 3092,
      "полиции": 3093,
      "цене": 3094,
      "евг": 3095,
      "начали": 3096,
      "никами": 3097,
      "сообщалось": 3098,
      "центров": 3099,
      "большая": 3100,
      "нарушение": 3101,
      "ющем": 3102,
      "станции": 3103,
      "учиты": 3104,
      "техники": 3105,
      "анато": 3106,
      "таким": 3107,
      "сотрудников": 3108,
      "соглас": 3109,
      "адвока": 3110,
      "заявили": 3111,
      "манжерок": 3112,
      "ведомстве": 3113,
      "являются": 3114,
      "банка": 3115,
      "щена": 3116,
      "дорожа": 3117,
      "международного": 3118,
      "ьево": 3119,
      "помога": 3120,
      "производство": 3121,
      "ter": 3122,
      "площади": 3123,
      "отметили": 3124,
      "краснодарском": 3125,
      "краснодарский": 3126,
      "товаров": 3127,
      "точно": 3128,
      "турни": 3129,
      "говорили": 3130,
      "группа": 3131,
      "стям": 3132,
      "позд": 3133,
      "лучших": 3134,
      "ограничения": 3135,
      "июне": 3136,
      "вопросы": 3137,
      "заявления": 3138,
      "владимира": 3139,
      "площадь": 3140,
      "показатель": 3141,
      "результаты": 3142,
      "принять": 3143,
      "сумму": 3144,
      "здоровья": 3145,
      "отделения": 3146,
      "фестиваль": 3147,
      "фонд": 3148,
      "военнослужа": 3149,
      "возбудили": 3150,
      "недвижимость": 3151,
      "число": 3152,
      "экономики": 3153,
      "посел": 3154,
      "эксперти": 3155,
      "-летнего": 3156,
      "клиентов": 3157,
      "кварта": 3158,
      "удалось": 3159,
      "выставка": 3160,
      "встречи": 3161,
      "проверки": 3162,
      "многокварти": 3163,
      "наличи": 3164,
      "модели": 3165,
      "трамп": 3166,
      "министерство": 3167,
      "подозрению": 3168,
      "изоля": 3169,
      "езд": 3170,
      "нижнего": 3171,
      "запад": 3172,
      "питания": 3173,
      "труда": 3174,
      "жилых": 3175,
      "филип": 3176,
      "урал": 3177,
      "регули": 3178,
      "суббот": 3179,
      "аренды": 3180,
      "res": 3181,
      "китай": 3182,
      "китая": 3183,
      "короле": 3184,
      "происходит": 3185,
      "мероприятия": 3186,
      "причиной": 3187,
      "надзорного": 3188,
      "давно": 3189,
      "максима": 3190,
      "видео": 3191,
      "индивиду": 3192,
      "бороны": 3193,
      "позволит": 3194,
      "снабжения": 3195,
      "космети": 3196,
      "чемпиона": 3197,
      "предполага": 3198,
      "финанси": 3199,
      "игоря": 3200,
      "уточня": 3201,
      "лишь": 3202,
      "каждо": 3203,
      "добавил": 3204,
      "объединен": 3205,
      "совершенно": 3206,
      "санкт-петербурга": 3207,
      "растет": 3208,
      "популяр": 3209,
      "замед": 3210,
      "апреле": 3211,
      "ребенка": 3212,
      "маркетплей": 3213,
      "вооружениями": 3214,
      "хозяйства": 3215,
      "професси": 3216,
      "круг": 3217,
      "наказание": 3218,
      "характер": 3219,
      "возбуждено": 3220,
      "3pl-опера": 3221,
      "арбитражный": 3222,
      "202": 3223,
      "фролов": 3224,
      "юриди": 3225,
      "накануне": 3226,
      "соцсетях": 3227,
      "отрасли": 3228,
      "верховного": 3229,
      "автобу": 3230,
      "принци": 3231,
      "здравоохранения": 3232,
      "БПЛА": 3233,
      "Челябин": 3234,
      "реметьево": 3235,
      ".—": 3236,
      "ber": 3237,
      "el": 3238,
      "fi": 3239,
      "ni": 3240,
      "si": 3241,
      "аро": 3242,
      "бро": 3243,
      "вспо": 3244,
      "внес": 3245,
      "гре": 3246,
      "дени": 3247,
      "джи": 3248,
      "жк": 3249,
      "жений": 3250,
      "зен": 3251,
      "зве": 3252,
      "ира": 3253,
      "ина": 3254,
      "илья": 3255,
      "мнению": 3256,
      "ммк": 3257,
      "нении": 3258,
      "неров": 3259,
      "нэнерго": 3260,
      "ощ": 3261,
      "опла": 3262,
      "охва": 3263,
      "пова": 3264,
      "провай": 3265,
      "рение": 3266,
      "смар": 3267,
      "слы": 3268,
      "сена": 3269,
      "схе": 3270,
      "сразу": 3271,
      "т.": 3272,
      "тная": 3273,
      "уро": 3274,
      "убе": 3275,
      "флота": 3276,
      "ьо": 3277,
      "яко": 3278,
      "еннале": 3279,
      "овой": 3280,
      "рами": 3281,
      "роди": 3282,
      "роспо": 3283,
      "роман": 3284,
      "номи": 3285,
      "ночь": 3286,
      "решений": 3287,
      "коап": 3288,
      "на-": 3289,
      "гори": 3290,
      "поки": 3291,
      "полет": 3292,
      "постанов": 3293,
      "постоя": 3294,
      "побра": 3295,
      "поряд": 3296,
      "нил": 3297,
      "нитель": 3298,
      "ницы": 3299,
      "линии": 3300,
      "лица": 3301,
      "льную": 3302,
      "лаза": 3303,
      "камер": 3304,
      "заболе": 3305,
      "дают": 3306,
      "воль": 3307,
      "рию": 3308,
      "тому": 3309,
      "ваются": 3310,
      "лез": 3311,
      "лечения": 3312,
      "руса": 3313,
      "нева": 3314,
      "цио": 3315,
      "маг": 3316,
      "мало": 3317,
      "манитар": 3318,
      "сол": 3319,
      "состо": 3320,
      "солов": 3321,
      "сохрани": 3322,
      "профи": 3323,
      "теа": 3324,
      "тести": 3325,
      "преми": 3326,
      "дила": 3327,
      "дипло": 3328,
      "динами": 3329,
      "чек": 3330,
      "ческая": 3331,
      "выя": 3332,
      "выраз": 3333,
      "вынес": 3334,
      "куб": 3335,
      "применения": 3336,
      "пришлось": 3337,
      "примут": 3338,
      "сар": 3339,
      "сама": 3340,
      "ведо": 3341,
      "чаще": 3342,
      "инду": 3343,
      "институ": 3344,
      "лях": 3345,
      "северо": 3346,
      "гастро": 3347,
      "перед": 3348,
      "чист": 3349,
      "стол": 3350,
      "менте": 3351,
      "бок": 3352,
      "бога": 3353,
      "щиков": 3354,
      "комитета": 3355,
      "подоб": 3356,
      "подве": 3357,
      "подписал": 3358,
      "балан": 3359,
      "сине": 3360,
      "шесть": 3361,
      "шереметьево": 3362,
      "россию": 3363,
      "россиян": 3364,
      "ительного": 3365,
      "совхо": 3366,
      "фило": 3367,
      "террори": 3368,
      "ленной": 3369,
      "градской": 3370,
      "гуманитар": 3371,
      "фель": 3372,
      "глад": 3373,
      "лекси": 3374,
      "знаком": 3375,
      "ственные": 3376,
      "ственное": 3377,
      "тивных": 3378,
      "шан": 3379,
      "денег": 3380,
      "ходя": 3381,
      "ческими": 3382,
      "методи": 3383,
      "регистра": 3384,
      "которым": 3385,
      "акти": 3386,
      "библи": 3387,
      "биеннале": 3388,
      "третий": 3389,
      "минимум": 3390,
      "участву": 3391,
      "получит": 3392,
      "парк": 3393,
      "ромоби": 3394,
      "действ": 3395,
      "собой": 3396,
      "российская": 3397,
      "марченко": 3398,
      "цам": 3399,
      "служба": 3400,
      "диньо": 3401,
      "рейса": 3402,
      "властями": 3403,
      "центре": 3404,
      "большие": 3405,
      "здания": 3406,
      "сант": 3407,
      "геро": 3408,
      "порта": 3409,
      "нарушений": 3410,
      "пресс-секретарь": 3411,
      "снижение": 3412,
      "челове": 3413,
      "стандар": 3414,
      "общества": 3415,
      "работать": 3416,
      "работают": 3417,
      "фото": 3418,
      "спик": 3419,
      "зелен": 3420,
      "заявила": 3421,
      "рованных": 3422,
      "банков": 3423,
      "должны": 3424,
      "обратить": 3425,
      "задержан": 3426,
      "задержанных": 3427,
      "корпу": 3428,
      "готовность": 3429,
      "продажи": 3430,
      "образом": 3431,
      "остается": 3432,
      "срока": 3433,
      "прошлом": 3434,
      "сказала": 3435,
      "стях": 3436,
      "признал": 3437,
      "политики": 3438,
      "политике": 3439,
      "президентом": 3440,
      "ждает": 3441,
      "государственного": 3442,
      "домаш": 3443,
      "спб": 3444,
      "ждены": 3445,
      "заявление": 3446,
      "золота": 3447,
      "александра": 3448,
      "площадью": 3449,
      "обеспечить": 3450,
      "деятельностью": 3451,
      "факуль": 3452,
      "депутаты": 3453,
      "внед": 3454,
      "хих": 3455,
      "продукции": 3456,
      "уровне": 3457,
      "организация": 3458,
      "исполня": 3459,
      "земли": 3460,
      "исклю": 3461,
      "условия": 3462,
      "произошел": 3463,
      "произошло": 3464,
      "водохранили": 3465,
      "сезона": 3466,
      "правам": 3467,
      "существ": 3468,
      "изъяти": 3469,
      "сотрудничества": 3470,
      "губернатора": 3471,
      "склад": 3472,
      "получат": 3473,
      "оборот": 3474,
      "законодательства": 3475,
      "барха": 3476,
      "генеральный": 3477,
      "букмекер": 3478,
      "России": 3479,
      "огром": 3480,
      "ураль": 3481,
      "субси": 3482,
      "коммуна": 3483,
      "коммунэнерго": 3484,
      "совместно": 3485,
      "смерти": 3486,
      "укрепление": 3487,
      "сохранение": 3488,
      "происше": 3489,
      "январе": 3490,
      "аутизма": 3491,
      "обязан": 3492,
      "саратовской": 3493,
      "феврале": 3494,
      "источник": 3495,
      "полномочи": 3496,
      "имущества": 3497,
      "сделать": 3498,
      "калинин": 3499,
      "действует": 3500,
      "событие": 3501,
      "финансов": 3502,
      "rus": 3503,
      "араб": 3504,
      "привлекатель": 3505,
      "снизилась": 3506,
      "telegram-канал": 3507,
      "...": 3508,
      "сложности": 3509,
      "инвестиций": 3510,
      "пермского": 3511,
      "ild": 3512,
      "вовсе": 3513,
      "игры": 3514,
      "голос": 3515,
      "потерпе": 3516,
      "украины": 3517,
      "инициатива": 3518,
      "ассоциа": 3519,
      "побед": 3520,
      "завода": 3521,
      "девочка": 3522,
      "продолжить": 3523,
      "подрядчи": 3524,
      "расследование": 3525,
      "экспози": 3526,
      "пострадавших": 3527,
      "превышает": 3528,
      "дональда": 3529,
      "категории": 3530,
      "появи": 3531,
      "мастер-": 3532,
      "глоба": 3533,
      "нюю": 3534,
      "демонстри": 3535,
      "консульта": 3536,
      "инвалидностью": 3537,
      "свердловской": 3538,
      "штейн": 3539,
      "минобороны": 3540,
      "белоштейн": 3541,
      "екатерина": 3542,
      "электромоби": 3543,
      "атмосфер": 3544,
      "онлайн-": 3545,
      "профессиона": 3546,
      "роспотреб": 3547,
      "побрати": 3548,
      "лазарев": 3549,
      "заболева": 3550,
      "библиоте": 3551,
      "-министр": 3552,
      ".ru": 3553,
      "100": 3554,
      "bu": 3555,
      "ce": 3556,
      "eon": 3557,
      "or": 3558,
      "vo": 3559,
      "yx": 3560,
      "yres": 3561,
      "«К": 3562,
      "Ко": 3563,
      "Кра": 3564,
      "Пет": 3565,
      "РФ": 3566,
      "Са": 3567,
      "Сочи": 3568,
      "агра": 3569,
      "апел": 3570,
      "бле": 3571,
      "вли": 3572,
      "вну": 3573,
      "внут": 3574,
      "введен": 3575,
      "гда": 3576,
      "гети": 3577,
      "дт": 3578,
      "дни": 3579,
      "елена": 3580,
      "жет": 3581,
      "зд": 3582,
      "йте": 3583,
      "йченко": 3584,
      "кни": 3585,
      "кло": 3586,
      "клер": 3587,
      "нда": 3588,
      "офор": 3589,
      "оцен": 3590,
      "осуществ": 3591,
      "пси": 3592,
      "сной": 3593,
      "ссор": 3594,
      "сцена": 3595,
      "тном": 3596,
      "ум": 3597,
      "уде": 3598,
      "уника": 3599,
      "учет": 3600,
      "устран": 3601,
      "улуч": 3602,
      "указ": 3603,
      "чт": 3604,
      "чную": 3605,
      "шению": 3606,
      "школ": 3607,
      "ювели": 3608,
      "яги": 3609,
      "стен": 3610,
      "енти": 3611,
      "ради": 3612,
      "роса": 3613,
      "ностей": 3614,
      "коле": 3615,
      "кома": 3616,
      "коор": 3617,
      "кому": 3618,
      "нави": 3619,
      "настав": 3620,
      "напря": 3621,
      "горов": 3622,
      "годом": 3623,
      "гоцен": 3624,
      "пору": 3625,
      "попро": 3626,
      "поня": 3627,
      "полага": 3628,
      "нислав": 3629,
      "ницей": 3630,
      "льными": 3631,
      "льник": 3632,
      "лькова": 3633,
      "кает": 3634,
      "капре": 3635,
      "какие": 3636,
      "кадров": 3637,
      "обстоя": 3638,
      "зао": 3639,
      "замет": 3640,
      "заявля": 3641,
      "захва": 3642,
      "дании": 3643,
      "вои": 3644,
      "восто": 3645,
      "воспита": 3646,
      "востреб": 3647,
      "вакан": 3648,
      "тамо": 3649,
      "русс": 3650,
      "нецен": 3651,
      "некоторые": 3652,
      "ложения": 3653,
      "делу": 3654,
      "делов": 3655,
      "маги": 3656,
      "моро": 3657,
      "сочин": 3658,
      "сорев": 3659,
      "проходи": 3660,
      "станислав": 3661,
      "тепло": 3662,
      "скоро": 3663,
      "пресе": 3664,
      "диверси": 3665,
      "дизай": 3666,
      "ссети": 3667,
      "чева": 3668,
      "ческому": 3669,
      "вымо": 3670,
      "вылет": 3671,
      "выясни": 3672,
      "отправ": 3673,
      "отчет": 3674,
      "прие": 3675,
      "придер": 3676,
      "призва": 3677,
      "сана": 3678,
      "садов": 3679,
      "века": 3680,
      "ведет": 3681,
      "часто": 3682,
      "чают": 3683,
      "инов": 3684,
      "гина": 3685,
      "селе": 3686,
      "север": 3687,
      "сессии": 3688,
      "лусине": 3689,
      "песков": 3690,
      "пекар": 3691,
      "итек": 3692,
      "мую": 3693,
      "избран": 3694,
      "одном": 3695,
      "тые": 3696,
      "мена": 3697,
      "разно": 3698,
      "щим": 3699,
      "подписа": 3700,
      "стью": 3701,
      "рять": 3702,
      "живать": 3703,
      "живаться": 3704,
      "правоо": 3705,
      "пути": 3706,
      "совфе": 3707,
      "перен": 3708,
      "летом": 3709,
      "скалькова": 3710,
      "хок": 3711,
      "холо": 3712,
      "ровании": 3713,
      "ленные": 3714,
      "ленный": 3715,
      "тельской": 3716,
      "люд": 3717,
      "щают": 3718,
      "щается": 3719,
      "строения": 3720,
      "возме": 3721,
      "мление": 3722,
      "шать": 3723,
      "шается": 3724,
      "говой": 3725,
      "нией": 3726,
      "казани": 3727,
      "ябрь": 3728,
      "автор": 3729,
      "зоны": 3730,
      "зорина": 3731,
      "акцион": 3732,
      "акций": 3733,
      "мыс": 3734,
      "артем": 3735,
      "циях": 3736,
      "перевоз": 3737,
      "перегово": 3738,
      "трат": 3739,
      "парке": 3740,
      "жена": 3741,
      "ствии": 3742,
      "зур": 3743,
      "гена": 3744,
      "генпрокуратуры": 3745,
      "полиция": 3746,
      "работников": 3747,
      "региональный": 3748,
      "средний": 3749,
      "мяг": 3750,
      "вую": 3751,
      "местных": 3752,
      "итоге": 3753,
      "ционное": 3754,
      "ционном": 3755,
      "строительной": 3756,
      "строительная": 3757,
      "строительству": 3758,
      "утром": 3759,
      "представителей": 3760,
      "представителя": 3761,
      "вшись": 3762,
      "торами": 3763,
      "работал": 3764,
      "самом": 3765,
      "самого": 3766,
      "самостоя": 3767,
      "лым": 3768,
      "адрес": 3769,
      "москву": 3770,
      "надзора": 3771,
      "туристов": 3772,
      "международный": 3773,
      "драгоцен": 3774,
      "двусторон": 3775,
      "которой": 3776,
      "которому": 3777,
      "основной": 3778,
      "готовы": 3779,
      "продажу": 3780,
      "периодом": 3781,
      "материалы": 3782,
      "образования": 3783,
      "ющихся": 3784,
      "руководителя": 3785,
      "взят": 3786,
      "добы": 3787,
      "остаются": 3788,
      "управля": 3789,
      "управление": 3790,
      "всероссийском": 3791,
      "необходимые": 3792,
      "безопасность": 3793,
      "политической": 3794,
      "аэропорты": 3795,
      "новости": 3796,
      "август": 3797,
      "республикан": 3798,
      "количества": 3799,
      "количественных": 3800,
      "предприятие": 3801,
      "занимает": 3802,
      "считали": 3803,
      "самбо": 3804,
      "администрация": 3805,
      "фас": 3806,
      "формиру": 3807,
      "центральных": 3808,
      "темпы": 3809,
      "контроли": 3810,
      "ъ-спб": 3811,
      "едино": 3812,
      "единой": 3813,
      "мэра": 3814,
      "чуйченко": 3815,
      "вороб": 3816,
      "нескольких": 3817,
      "спортивных": 3818,
      "фестивале": 3819,
      "спектак": 3820,
      "алексея": 3821,
      "алексеев": 3822,
      "предложил": 3823,
      "организацию": 3824,
      "организаций": 3825,
      "продолжает": 3826,
      "продолжают": 3827,
      "имеют": 3828,
      "принимать": 3829,
      "петербург": 3830,
      "стратегической": 3831,
      "услови": 3832,
      "социальной": 3833,
      "превысила": 3834,
      "произошла": 3835,
      "защиты": 3836,
      "размере": 3837,
      "размещения": 3838,
      "поддержку": 3839,
      "футболь": 3840,
      "запрет": 3841,
      "краевой": 3842,
      "заместитель": 3843,
      "достиг": 3844,
      "белгороде": 3845,
      "краснова": 3846,
      "складов": 3847,
      "усман": 3848,
      "иностранных": 3849,
      "благо": 3850,
      "иванова": 3851,
      "комиссии": 3852,
      "дальше": 3853,
      "волж": 3854,
      "волго": 3855,
      "персона": 3856,
      "генерального": 3857,
      "повышение": 3858,
      "технологического": 3859,
      "штрафовали": 3860,
      "устройства": 3861,
      "регуляр": 3862,
      "виктор": 3863,
      "проводится": 3864,
      "пенга": 3865,
      "нижегородской": 3866,
      "шетников": 3867,
      "февраля": 3868,
      "фигурант": 3869,
      "ольга": 3870,
      "научно-": 3871,
      "миллион": 3872,
      "сельхо": 3873,
      "коллектив": 3874,
      "построить": 3875,
      "telegram-канале": 3876,
      "кризиса": 3877,
      "направили": 3878,
      "пациента": 3879,
      "полицейские": 3880,
      "агент": 3881,
      "прибыль": 3882,
      "беременности": 3883,
      "должност": 3884,
      "предусмотрены": 3885,
      "aurus": 3886,
      "донец": 3887,
      "самым": 3888,
      "конструкции": 3889,
      "артисты": 3890,
      "повест": 3891,
      "функциона": 3892,
      "сравнению": 3893,
      "напомним": 3894,
      "статус": 3895,
      "инциден": 3896,
      "аналогичным": 3897,
      "интерфакс": 3898,
      "удовлетво": 3899,
      "ближайшее": 3900,
      "флаг": 3901,
      "нитогор": 3902,
      "рубеж": 3903,
      "девять": 3904,
      "большинство": 3905,
      "публикации": 3906,
      "принадлежит": 3907,
      "премьер-министр": 3908,
      "оружи": 3909,
      "михаил": 3910,
      "отчисления": 3911,
      "армении": 3912,
      "рассказывает": 3913,
      "составляла": 3914,
      "десятилет": 3915,
      "ущерб": 3916,
      "ленин": 3917,
      "уполномоченных": 3918,
      "дефиц": 3919,
      "цифров": 3920,
      "союз": 3921,
      "баласян": 3922,
      "архитек": 3923,
      "кирилл": 3924,
      "музея": 3925,
      "возрасте": 3926,
      "евгений": 3927,
      "анатолий": 3928,
      "ters": 3929,
      "военнослужащих": 3930,
      "поселке": 3931,
      "постоян": 3932,
      "соловьев": 3933,
      "индуст": 3934,
      "филосо": 3935,
      "террористи": 3936,
      "действительно": 3937,
      "субсидий": 3938,
      "обязанности": 3939,
      "Петербур": 3940,
      "апелля": 3941,
      "внутрен": 3942,
      "учетом": 3943,
      "капремон": 3944,
      "правоохрани": 3945,
      "-ли": 3946,
      "-ан": 3947,
      "-на-": 3948,
      "1,": 3949,
      "bm": 3950,
      "bs": 3951,
      "ca": 3952,
      "de": 3953,
      "pro": 3954,
      "ton": 3955,
      "tyres": 3956,
      "uters": 3957,
      "xvi": 3958,
      "Ба": 3959,
      "Ку": 3960,
      "Ново": 3961,
      "Пе": 3962,
      "Уд": 3963,
      "аф": 3964,
      "ака": 3965,
      "атак": 3966,
      "аук": 3967,
      "азар": 3968,
      "бр": 3969,
      "вс": 3970,
      "вку": 3971,
      "вобо": 3972,
      "вкла": 3973,
      "введ": 3974,
      "всп": 3975,
      "входит": 3976,
      "введения": 3977,
      "гто": 3978,
      "грод": 3979,
      "дри": 3980,
      "жер": 3981,
      "зво": 3982,
      "зму": 3983,
      "и.": 3984,
      "ир": 3985,
      "ищ": 3986,
      "ило": 3987,
      "ирина": 3988,
      "йской": 3989,
      "йдет": 3990,
      "кс": 3991,
      "кто": 3992,
      "кви": 3993,
      "кем": 3994,
      "л.": 3995,
      "лых": 3996,
      "лый": 3997,
      "мр": 3998,
      "мят": 3999,
      "нования": 4000,
      "оз": 4001,
      "ост": 4002,
      "озна": 4003,
      "опы": 4004,
      "охра": 4005,
      "олег": 4006,
      "оштрафовали": 4007,
      "праз": 4008,
      "рт": 4009,
      "сре": 4010,
      "спа": 4011,
      "сме": 4012,
      "све": 4013,
      "сской": 4014,
      "спра": 4015,
      "спу": 4016,
      "сматри": 4017,
      "уг": 4018,
      "уго": 4019,
      "ума": 4020,
      "уди": 4021,
      "удар": 4022,
      "улич": 4023,
      "умышлен": 4024,
      "фин": 4025,
      "фан": 4026,
      "хан": 4027,
      "цар": 4028,
      "чс": 4029,
      "чко": 4030,
      "шве": 4031,
      "ыду": 4032,
      "рато": 4033,
      "раба": 4034,
      "раскры": 4035,
      "роли": 4036,
      "роль": 4037,
      "рождения": 4038,
      "ронал": 4039,
      "ресто": 4040,
      "коре": 4041,
      "коль": 4042,
      "кола": 4043,
      "когда": 4044,
      "копенга": 4045,
      "нач": 4046,
      "наш": 4047,
      "насле": 4048,
      "написа": 4049,
      "наступа": 4050,
      "надеж": 4051,
      "найти": 4052,
      "начина": 4053,
      "гой": 4054,
      "гора": 4055,
      "горя": 4056,
      "госпита": 4057,
      "поде": 4058,
      "поче": 4059,
      "попа": 4060,
      "после": 4061,
      "потра": 4062,
      "полож": 4063,
      "поступления": 4064,
      "посет": 4065,
      "помина": 4066,
      "нина": 4067,
      "лист": 4068,
      "лизова": 4069,
      "ерия": 4070,
      "лазер": 4071,
      "кав": 4072,
      "каких": 4073,
      "общий": 4074,
      "зах": 4075,
      "запи": 4076,
      "заслу": 4077,
      "дал": 4078,
      "дам": 4079,
      "дает": 4080,
      "воли": 4081,
      "вода": 4082,
      "восемь": 4083,
      "риго": 4084,
      "риск": 4085,
      "торе": 4086,
      "того": 4087,
      "тока": 4088,
      "вается": 4089,
      "лест": 4090,
      "руч": 4091,
      "рую": 4092,
      "мире": 4093,
      "минут": 4094,
      "нец": 4095,
      "нега": 4096,
      "неодно": 4097,
      "невероят": 4098,
      "недавно": 4099,
      "декла": 4100,
      "делия": 4101,
      "цимля": 4102,
      "маль": 4103,
      "мага": 4104,
      "мален": 4105,
      "марии": 4106,
      "магаз": 4107,
      "мола": 4108,
      "моста": 4109,
      "моду": 4110,
      "соз": 4111,
      "сок": 4112,
      "проез": 4113,
      "типа": 4114,
      "допу": 4115,
      "долю": 4116,
      "допусти": 4117,
      "тек": 4118,
      "тера": 4119,
      "тела": 4120,
      "тему": 4121,
      "ова-на-": 4122,
      "скон": 4123,
      "превра": 4124,
      "диску": 4125,
      "стили": 4126,
      "стики": 4127,
      "пав": 4128,
      "пане": 4129,
      "виз": 4130,
      "выми": 4131,
      "выну": 4132,
      "выступления": 4133,
      "выполни": 4134,
      "выигра": 4135,
      "выгля": 4136,
      "выросла": 4137,
      "выруч": 4138,
      "кура": 4139,
      "кутю": 4140,
      "отда": 4141,
      "отве": 4142,
      "мега": 4143,
      "привы": 4144,
      "приор": 4145,
      "примен": 4146,
      "присут": 4147,
      "думе": 4148,
      "веще": 4149,
      "чали": 4150,
      "чать": 4151,
      "инстру": 4152,
      "инвест": 4153,
      "сема": 4154,
      "серед": 4155,
      "педа": 4156,
      "пеше": 4157,
      "стом": 4158,
      "столь": 4159,
      "столич": 4160,
      "изда": 4161,
      "изготов": 4162,
      "изделия": 4163,
      "одну": 4164,
      "ментом": 4165,
      "боли": 4166,
      "размер": 4167,
      "туа": 4168,
      "туан": 4169,
      "турой": 4170,
      "ссив": 4171,
      "ссий": 4172,
      "комна": 4173,
      "комби": 4174,
      "ровки": 4175,
      "подзем": 4176,
      "подсчитали": 4177,
      "нул": 4178,
      "жать": 4179,
      "жалоб": 4180,
      "бал": 4181,
      "бабы": 4182,
      "басса": 4183,
      "сия": 4184,
      "силу": 4185,
      "ково": 4186,
      "ранения": 4187,
      "бель": 4188,
      "жилого": 4189,
      "живают": 4190,
      "жилой": 4191,
      "предназначен": 4192,
      "предыду": 4193,
      "правила": 4194,
      "путем": 4195,
      "путина": 4196,
      "краю": 4197,
      "краси": 4198,
      "щему": 4199,
      "ительных": 4200,
      "сове": 4201,
      "первой": 4202,
      "первая": 4203,
      "ниями": 4204,
      "которую": 4205,
      "летних": 4206,
      "хол": 4207,
      "рована": 4208,
      "фим": 4209,
      "ленджи": 4210,
      "тельной": 4211,
      "тельный": 4212,
      "страна": 4213,
      "цева": 4214,
      "целе": 4215,
      "деров": 4216,
      "возгла": 4217,
      "сообщение": 4218,
      "ственной": 4219,
      "ственная": 4220,
      "родриго": 4221,
      "осло": 4222,
      "освобо": 4223,
      "метро": 4224,
      "метров": 4225,
      "регион": 4226,
      "региону": 4227,
      "форму": 4228,
      "билита": 4229,
      "арми": 4230,
      "арген": 4231,
      "участвова": 4232,
      "полуго": 4233,
      "получен": 4234,
      "водность": 4235,
      "действова": 4236,
      "собе": 4237,
      "собира": 4238,
      "российске": 4239,
      "близ": 4240,
      "бывшего": 4241,
      "жды": 4242,
      "органов": 4243,
      "генети": 4244,
      "следствия": 4245,
      "рассматри": 4246,
      "рассчиты": 4247,
      "региональной": 4248,
      "расходов": 4249,
      "никаких": 4250,
      "пово": 4251,
      "среднего": 4252,
      "трой": 4253,
      "хани": 4254,
      "хали": 4255,
      "рейсы": 4256,
      "деть": 4257,
      "дово": 4258,
      "нарушении": 4259,
      "креа": 4260,
      "крем": 4261,
      "испан": 4262,
      "войных": 4263,
      "черно": 4264,
      "стрел": 4265,
      "говоря": 4266,
      "объектам": 4267,
      "реаги": 4268,
      "соглашение": 4269,
      "москва": 4270,
      "культуре": 4271,
      "рованный": 4272,
      "мотова": 4273,
      "создания": 4274,
      "дороги": 4275,
      "комплексы": 4276,
      "хранение": 4277,
      "помог": 4278,
      "информацию": 4279,
      "должна": 4280,
      "двум": 4281,
      "сторона": 4282,
      "tex": 4283,
      "последствия": 4284,
      "основном": 4285,
      "планируют": 4286,
      "руководителей": 4287,
      "товары": 4288,
      "составили": 4289,
      "составило": 4290,
      "бюро": 4291,
      "всем": 4292,
      "всему": 4293,
      "прошуни": 4294,
      "подросток": 4295,
      "подростка": 4296,
      "группе": 4297,
      "уничто": 4298,
      "территорий": 4299,
      "ждают": 4300,
      "ограничи": 4301,
      "факту": 4302,
      "июль": 4303,
      "реализу": 4304,
      "реализацию": 4305,
      "аэропорта": 4306,
      "груза": 4307,
      "грузов": 4308,
      "назначил": 4309,
      "объеди": 4310,
      "новосибир": 4311,
      "республика": 4312,
      "зывают": 4313,
      "телями": 4314,
      "инфек": 4315,
      "оператив": 4316,
      "считают": 4317,
      "режисс": 4318,
      "заявки": 4319,
      "площадка": 4320,
      "площадки": 4321,
      "этаж": 4322,
      "показатели": 4323,
      "щихся": 4324,
      "специалиста": 4325,
      "энергии": 4326,
      "энергети": 4327,
      "контроль": 4328,
      "ступила": 4329,
      "отелей": 4330,
      "принято": 4331,
      "стоимости": 4332,
      "единиц": 4333,
      "мэрии": 4334,
      "смог": 4335,
      "десять": 4336,
      "спортивные": 4337,
      "возможности": 4338,
      "продуктов": 4339,
      "продукцию": 4340,
      "альян": 4341,
      "уровень": 4342,
      "военной": 4343,
      "правительство": 4344,
      "правительстве": 4345,
      "рассказали": 4346,
      "норве": 4347,
      "нормы": 4348,
      "примерно": 4349,
      "экономического": 4350,
      "беспилотника": 4351,
      "эконом": 4352,
      "экологии": 4353,
      "качество": 4354,
      "подчерки": 4355,
      "выставке": 4356,
      "вооружен": 4357,
      "вооружений": 4358,
      "дронов": 4359,
      "дронами": 4360,
      "ракет": 4361,
      "обвиняемых": 4362,
      "случаев": 4363,
      "третье": 4364,
      "ющегося": 4365,
      "поставки": 4366,
      "предупре": 4367,
      "динационном": 4368,
      "частью": 4369,
      "изъять": 4370,
      "турец": 4371,
      "основана": 4372,
      "торговых": 4373,
      "белгород": 4374,
      "законодательству": 4375,
      "усмана": 4376,
      "неделю": 4377,
      "газпром": 4378,
      "нарушениями": 4379,
      "требований": 4380,
      "подчеркнули": 4381,
      "иностранным": 4382,
      "способству": 4383,
      "персонал": 4384,
      "технологий": 4385,
      "глубо": 4386,
      "устройств": 4387,
      "устройство": 4388,
      "южной": 4389,
      "виктора": 4390,
      "аппара": 4391,
      "ликвида": 4392,
      "мощностью": 4393,
      "кубань": 4394,
      "кубанского": 4395,
      "краснодаре": 4396,
      "екатеринбург": 4397,
      "аутизм": 4398,
      "что-то": 4399,
      "позиция": 4400,
      "зарплаты": 4401,
      "максим": 4402,
      "договору": 4403,
      "статье": 4404,
      "принадлежа": 4405,
      "живание": 4406,
      "трансформа": 4407,
      "фигуранты": 4408,
      "имущество": 4409,
      "косми": 4410,
      "научных": 4411,
      "национальной": 4412,
      "сократи": 4413,
      "чемпионов": 4414,
      "сельского": 4415,
      "мужчи": 4416,
      "собрания": 4417,
      "самолетов": 4418,
      "игорь": 4419,
      "рекомен": 4420,
      "фикацию": 4421,
      "объявила": 4422,
      "технику": 4423,
      "объединения": 4424,
      "com": 4425,
      "язык": 4426,
      "доказатель": 4427,
      "разуме": 4428,
      "поддержал": 4429,
      "кредитов": 4430,
      "ожидается": 4431,
      "агре": 4432,
      "популя": 4433,
      "доктор": 4434,
      "достаточно": 4435,
      "париже": 4436,
      "отража": 4437,
      "передачи": 4438,
      "начальника": 4439,
      "начальник": 4440,
      "рейтинг": 4441,
      "связь": 4442,
      "ответственность": 4443,
      "форум": 4444,
      "направлениям": 4445,
      "корпорация": 4446,
      "украине": 4447,
      "науки": 4448,
      "обнаружен": 4449,
      "машины": 4450,
      "приостановили": 4451,
      "система": 4452,
      "жилье": 4453,
      "обратился": 4454,
      "наркотиков": 4455,
      "топлива": 4456,
      "отсутствие": 4457,
      "инцидент": 4458,
      "взрывных": 4459,
      "интерфаксу": 4460,
      "очередь": 4461,
      "аналитиков": 4462,
      "зависимости": 4463,
      "удовлетвор": 4464,
      "контракта": 4465,
      "потенциала": 4466,
      "апартаментов": 4467,
      "надеемся": 4468,
      "виновными": 4469,
      "выросли": 4470,
      "меньше": 4471,
      "относительно": 4472,
      "взаимодействие": 4473,
      "олимпи": 4474,
      "успеш": 4475,
      "ресурсов": 4476,
      "покупку": 4477,
      "облкоммунэнерго": 4478,
      "мошенниче": 4479,
      "препаратов": 4480,
      "преступлениях": 4481,
      "курьеров": 4482,
      "приводит": 4483,
      "подъезда": 4484,
      "Москве": 4485,
      "пассажир": 4486,
      "анон": 4487,
      "осужден": 4488,
      "оконча": 4489,
      "ученые": 4490,
      "подразделения": 4491,
      "строгого": 4492,
      "сергея": 4493,
      "бизнеса": 4494,
      "изъяли": 4495,
      "физической": 4496,
      "агентом": 4497,
      "ошиб": 4498,
      "ожогов": 4499,
      "хромо": 4500,
      "теории": 4501,
      "видете": 4502,
      "сегменте": 4503,
      "конкурен": 4504,
      "позднее": 4505,
      "многоквартир": 4506,
      "филиппин": 4507,
      "королевы": 4508,
      "каждого": 4509,
      "nis": 4510,
      "слыша": 4511,
      "якобы": 4512,
      "полетов": 4513,
      "порядка": 4514,
      "магнитогор": 4515,
      "театра": 4516,
      "совхоза": 4517,
      "гладков": 4518,
      "обратиться": 4519,
      "бархатный": 4520,
      "происшествия": 4521,
      "eonyx": 4522,
      "Красно": 4523,
      "дтп": 4524,
      "психо": 4525,
      "росавиа": 4526,
      "координационном": 4527,
      "обстоятельства": 4528,
      "нецензур": 4529,
      "соревнования": 4530,
      "придерживаться": 4531,
      "разнообраз": 4532,
      "условиях": 4533,
      "должностных": 4534,
      "-либо": 4535,
      "-антуан": 4536,
      "Удмуртии": 4537,
      "академи": 4538,
      "кемеров": 4539,
      "празд": 4540,
      "роналдиньо": 4541,
      "рестора": 4542,
      "наступательных": 4543,
      "цимлян": 4544,
      "магази": 4545,
      "малень": 4546,
      "веществ": 4547,
      "середю": 4548,
      "-антуанет": 4549,
      "-побрати": 4550,
      "ds": 4551,
      "du": 4552,
      "ee": 4553,
      "it": 4554,
      "line": 4555,
      "ms": 4556,
      "sh": 4557,
      "tch": 4558,
      "ul": 4559,
      "ubs": 4560,
      "Бел": 4561,
      "ВС": 4562,
      "Во": 4563,
      "Да": 4564,
      "Ека": 4565,
      "СШ": 4566,
      "Та": 4567,
      "Ярослав": 4568,
      "аб": 4569,
      "агро": 4570,
      "ауд": 4571,
      "браз": 4572,
      "вт": 4573,
      "вро": 4574,
      "вру": 4575,
      "внов": 4576,
      "вита": 4577,
      "втор": 4578,
      "ввод": 4579,
      "ввести": 4580,
      "вклад": 4581,
      "г.": 4582,
      "гно": 4583,
      "гин": 4584,
      "дво": 4585,
      "драй": 4586,
      "джей": 4587,
      "днев": 4588,
      "жова": 4589,
      "зло": 4590,
      "зрева": 4591,
      "ид": 4592,
      "ие": 4593,
      "ики": 4594,
      "ими": 4595,
      "ине": 4596,
      "имя": 4597,
      "истов": 4598,
      "кб": 4599,
      "квали": 4600,
      "лков": 4601,
      "мп": 4602,
      "мма": 4603,
      "мнение": 4604,
      "мчс": 4605,
      "нного": 4606,
      "нений": 4607,
      "оэ": 4608,
      "оны": 4609,
      "оси": 4610,
      "оск": 4611,
      "огра": 4612,
      "оон": 4613,
      "осторо": 4614,
      "пли": 4615,
      "пени": 4616,
      "пво": 4617,
      "пле": 4618,
      "плу": 4619,
      "рб": 4620,
      "рите": 4621,
      "съ": 4622,
      "сбы": 4623,
      "сведения": 4624,
      "счета": 4625,
      "сцене": 4626,
      "смяг": 4627,
      "свидете": 4628,
      "тка": 4629,
      "твое": 4630,
      "устро": 4631,
      "уби": 4632,
      "умень": 4633,
      "учеб": 4634,
      "ф-": 4635,
      "фы": 4636,
      "фона": 4637,
      "фено": 4638,
      "хули": 4639,
      "цком": 4640,
      "чности": 4641,
      "чч.": 4642,
      "шь": 4643,
      "шую": 4644,
      "шт.": 4645,
      "щений": 4646,
      "ъек": 4647,
      "южно": 4648,
      "яна": 4649,
      "ями": 4650,
      "ясно": 4651,
      "ящие": 4652,
      "стю": 4653,
      "стит": 4654,
      "стить": 4655,
      "енных": 4656,
      "рации": 4657,
      "рот": 4658,
      "рем": 4659,
      "рет": 4660,
      "ремо": 4661,
      "резер": 4662,
      "реакции": 4663,
      "решетников": 4664,
      "кора": 4665,
      "костю": 4666,
      "най": 4667,
      "нации": 4668,
      "наше": 4669,
      "насы": 4670,
      "набере": 4671,
      "голь": 4672,
      "госа": 4673,
      "голу": 4674,
      "госте": 4675,
      "готова": 4676,
      "по-": 4677,
      "поро": 4678,
      "поко": 4679,
      "посте": 4680,
      "покры": 4681,
      "понеде": 4682,
      "подорожа": 4683,
      "нив": 4684,
      "нила": 4685,
      "ними": 4686,
      "ничных": 4687,
      "лил": 4688,
      "лиф": 4689,
      "лиза": 4690,
      "лизации": 4691,
      "лидером": 4692,
      "ете": 4693,
      "еть": 4694,
      "еру": 4695,
      "льность": 4696,
      "лару": 4697,
      "кай": 4698,
      "кари": 4699,
      "кату": 4700,
      "оба": 4701,
      "обуч": 4702,
      "зале": 4703,
      "заку": 4704,
      "замы": 4705,
      "затро": 4706,
      "затем": 4707,
      "заказ": 4708,
      "дах": 4709,
      "води": 4710,
      "вось": 4711,
      "риру": 4712,
      "риан": 4713,
      "тол": 4714,
      "вам": 4715,
      "ван": 4716,
      "вашин": 4717,
      "леду": 4718,
      "лежа": 4719,
      "тации": 4720,
      "таба": 4721,
      "такого": 4722,
      "такую": 4723,
      "рупи": 4724,
      "миру": 4725,
      "независи": 4726,
      "лок": 4727,
      "локали": 4728,
      "деше": 4729,
      "департа": 4730,
      "мара": 4731,
      "мать": 4732,
      "манов": 4733,
      "мок": 4734,
      "модер": 4735,
      "моды": 4736,
      "монито": 4737,
      "москалькова": 4738,
      "момотова": 4739,
      "сора": 4740,
      "созна": 4741,
      "сопрово": 4742,
      "прось": 4743,
      "пролет": 4744,
      "протя": 4745,
      "прошел": 4746,
      "проходит": 4747,
      "пройдет": 4748,
      "прогно": 4749,
      "тива": 4750,
      "тирует": 4751,
      "дону": 4752,
      "дочер": 4753,
      "домом": 4754,
      "овал": 4755,
      "преда": 4756,
      "претен": 4757,
      "препода": 4758,
      "дис": 4759,
      "стиль": 4760,
      "чев": 4761,
      "чест": 4762,
      "пах": 4763,
      "пашин": 4764,
      "падение": 4765,
      "памят": 4766,
      "вив": 4767,
      "выста": 4768,
      "выска": 4769,
      "выпла": 4770,
      "выбор": 4771,
      "вызва": 4772,
      "вызывает": 4773,
      "выбира": 4774,
      "кула": 4775,
      "куму": 4776,
      "отдела": 4777,
      "отмени": 4778,
      "меду": 4779,
      "причастности": 4780,
      "приговорили": 4781,
      "приволж": 4782,
      "салава": 4783,
      "ведут": 4784,
      "чанов": 4785,
      "чатых": 4786,
      "индоне": 4787,
      "гия": 4788,
      "сей": 4789,
      "сева": 4790,
      "газо": 4791,
      "газов": 4792,
      "галина": 4793,
      "печа": 4794,
      "новгорода": 4795,
      "числа": 4796,
      "орке": 4797,
      "мун": 4798,
      "мура": 4799,
      "бори": 4800,
      "разрезу": 4801,
      "разрешение": 4802,
      "спон": 4803,
      "ссия": 4804,
      "комфор": 4805,
      "подрыв": 4806,
      "нула": 4807,
      "нуть": 4808,
      "жан": 4809,
      "жар": 4810,
      "жалова": 4811,
      "базе": 4812,
      "базов": 4813,
      "сиг": 4814,
      "сий": 4815,
      "сих": 4816,
      "бес": 4817,
      "жев": 4818,
      "жество": 4819,
      "желез": 4820,
      "годам": 4821,
      "контак": 4822,
      "концу": 4823,
      "конститу": 4824,
      "концер": 4825,
      "ительное": 4826,
      "первую": 4827,
      "товой": 4828,
      "нян": 4829,
      "лете": 4830,
      "летней": 4831,
      "ходом": 4832,
      "верх": 4833,
      "ленное": 4834,
      "ленном": 4835,
      "ленная": 4836,
      "зией": 4837,
      "странами": 4838,
      "любо": 4839,
      "люби": 4840,
      "церемо": 4841,
      "возгора": 4842,
      "сообще": 4843,
      "знак": 4844,
      "значи": 4845,
      "значения": 4846,
      "знакомо": 4847,
      "ственный": 4848,
      "ственным": 4849,
      "тиву": 4850,
      "тивной": 4851,
      "шают": 4852,
      "студен": 4853,
      "казах": 4854,
      "осве": 4855,
      "объяв": 4856,
      "объясни": 4857,
      "плане": 4858,
      "пласти": 4859,
      "меть": 4860,
      "которыми": 4861,
      "зонов": 4862,
      "актов": 4863,
      "аккуму": 4864,
      "форсай": 4865,
      "ченный": 4866,
      "циями": 4867,
      "переговор": 4868,
      "перечис": 4869,
      "получения": 4870,
      "получить": 4871,
      "парков": 4872,
      "проекте": 4873,
      "евского": 4874,
      "региональное": 4875,
      "распростран": 4876,
      "расходы": 4877,
      "начал": 4878,
      "началось": 4879,
      "начально": 4880,
      "начальная": 4881,
      "своим": 4882,
      "сообщали": 4883,
      "сообщается": 4884,
      "обозрева": 4885,
      "мян": 4886,
      "серии": 4887,
      "трое": 4888,
      "рейс": 4889,
      "владе": 4890,
      "сын": 4891,
      "больнице": 4892,
      "больницу": 4893,
      "здание": 4894,
      "зданий": 4895,
      "классы": 4896,
      "млрд.": 4897,
      "геленджи": 4898,
      "порт": 4899,
      "строительных": 4900,
      "времени": 4901,
      "крым": 4902,
      "стовер": 4903,
      "нейтра": 4904,
      "федеральной": 4905,
      "федеральный": 4906,
      "омской": 4907,
      "ющему": 4908,
      "общественного": 4909,
      "прокурор": 4910,
      "объект": 4911,
      "самое": 4912,
      "анапы": 4913,
      "реабилита": 4914,
      "сотрудника": 4915,
      "сотрудник": 4916,
      "новая": 4917,
      "спике": 4918,
      "адре": 4919,
      "делам": 4920,
      "делать": 4921,
      "компен": 4922,
      "ложить": 4923,
      "направленных": 4924,
      "направлений": 4925,
      "туристы": 4926,
      "создании": 4927,
      "эксплу": 4928,
      "шено": 4929,
      "щено": 4930,
      "международная": 4931,
      "ьера": 4932,
      "ьева": 4933,
      "помощи": 4934,
      "производству": 4935,
      "структуры": 4936,
      "слово": 4937,
      "сторону": 4938,
      "писатель": 4939,
      "участникам": 4940,
      "установил": 4941,
      "установила": 4942,
      "установило": 4943,
      "основные": 4944,
      "продавать": 4945,
      "сколько": 4946,
      "материалов": 4947,
      "читайте": 4948,
      "краснодарскому": 4949,
      "им.": 4950,
      "товар": 4951,
      "бермон": 4952,
      "прошли": 4953,
      "автомобиля": 4954,
      "группу": 4955,
      "открыл": 4956,
      "сказать": 4957,
      "необходимость": 4958,
      "необходимости": 4959,
      "необходимых": 4960,
      "позже": 4961,
      "лучший": 4962,
      "ждая": 4963,
      "чину": 4964,
      "прокуратуре": 4965,
      "втори": 4966,
      "втором": 4967,
      "андре": 4968,
      "аэропорт": 4969,
      "гроз": 4970,
      "крупные": 4971,
      "проведения": 4972,
      "республике": 4973,
      "занимал": 4974,
      "телям": 4975,
      "сегодняш": 4976,
      "операции": 4977,
      "программ": 4978,
      "обеспечи": 4979,
      "находя": 4980,
      "показало": 4981,
      "соответственно": 4982,
      "минздра": 4983,
      "высоко": 4984,
      "специализирован": 4985,
      "результатам": 4986,
      "алла": 4987,
      "авторы": 4988,
      "ъ-кубань": 4989,
      "здоровью": 4990,
      "единая": 4991,
      "смогут": 4992,
      "председателем": 4993,
      "спортивного": 4994,
      "возможным": 4995,
      "исследование": 4996,
      "продукты": 4997,
      "военного": 4998,
      "возбудила": 4999,
      "рассказала": 5000,
      "использовать": 5001,
      "использование": 5002,
      "электрока": 5003,
      "беспилотники": 5004,
      "indi": 5005,
      "медики": 5006,
      "исполни": 5007,
      "атлет": 5008,
      "иске": 5009,
      "условий": 5010,
      "лится": 5011,
      "социальные": 5012,
      "выставки": 5013,
      "встреча": 5014,
      "штрафа": 5015,
      "пространства": 5016,
      "проверя": 5017,
      "проверка": 5018,
      "районах": 5019,
      "завершить": 5020,
      "соответствующее": 5021,
      "сеть": 5022,
      "основан": 5023,
      "езде": 5024,
      "поражения": 5025,
      "нижне": 5026,
      "заместителем": 5027,
      "документ": 5028,
      "документов": 5029,
      "получают": 5030,
      "партнеров": 5031,
      "собственности": 5032,
      "школь": 5033,
      "школы": 5034,
      "важных": 5035,
      "важность": 5036,
      "недели": 5037,
      "неделе": 5038,
      "организовать": 5039,
      "арестан": 5040,
      "иванов": 5041,
      "распоря": 5042,
      "процесс": 5043,
      "процеду": 5044,
      "персонала": 5045,
      "филиа": 5046,
      "особую": 5047,
      "судебных": 5048,
      "судебные": 5049,
      "глухих": 5050,
      "худо": 5051,
      "регуля": 5052,
      "коммуника": 5053,
      "правозащит": 5054,
      "фильм": 5055,
      "аренду": 5056,
      "reuters": 5057,
      "вшегося": 5058,
      "одил": 5059,
      "коронави": 5060,
      "ликвиди": 5061,
      "мероприятий": 5062,
      "округе": 5063,
      "золотой": 5064,
      "watch": 5065,
      "брендов": 5066,
      "позиции": 5067,
      "зарпла": 5068,
      "задачи": 5069,
      "зависит": 5070,
      "содержания": 5071,
      "содержание": 5072,
      "бороться": 5073,
      "предложений": 5074,
      "противоречи": 5075,
      "chno": 5076,
      "гриб": 5077,
      "сняет": 5078,
      "снабжение": 5079,
      "настоящее": 5080,
      "национальных": 5081,
      "миллиар": 5082,
      "выделя": 5083,
      "отменен": 5084,
      "вечера": 5085,
      "современные": 5086,
      "событий": 5087,
      "ключевой": 5088,
      "транспортной": 5089,
      "ипотечных": 5090,
      "опти": 5091,
      "творческих": 5092,
      "находился": 5093,
      "мировых": 5094,
      "незаконный": 5095,
      "промышленности": 5096,
      "диапа": 5097,
      "фикации": 5098,
      "сервиса": 5099,
      "районного": 5100,
      "культурно-": 5101,
      "атаку": 5102,
      "направил": 5103,
      "обсужда": 5104,
      "русского": 5105,
      "пациентов": 5106,
      "выполня": 5107,
      "поддержали": 5108,
      "пермский": 5109,
      "следственные": 5110,
      "дорожного": 5111,
      "упал": 5112,
      "голослов": 5113,
      "предоставить": 5114,
      "выступает": 5115,
      "шестимиллион": 5116,
      "травмы": 5117,
      "рассмотрит": 5118,
      "рассмотрение": 5119,
      "рейтинга": 5120,
      "связей": 5121,
      "государственной": 5122,
      "инициативы": 5123,
      "апреля": 5124,
      "унцию": 5125,
      "ростова-на-": 5126,
      "ребенок": 5127,
      "лидеров": 5128,
      "девочки": 5129,
      "кузбасса": 5130,
      "жильцов": 5131,
      "пункт": 5132,
      "программам": 5133,
      "топливом": 5134,
      "вооружениях": 5135,
      "устойчивого": 5136,
      "хотя": 5137,
      "майя": 5138,
      "дополнитель": 5139,
      "текущего": 5140,
      "предлагают": 5141,
      "антикорруп": 5142,
      "требуется": 5143,
      "судьи": 5144,
      "взрывчатых": 5145,
      "административные": 5146,
      "дональд": 5147,
      "апартаменты": 5148,
      "входят": 5149,
      "ереване": 5150,
      "наиболь": 5151,
      "попытки": 5152,
      "попытку": 5153,
      "зарегистрировано": 5154,
      "широкий": 5155,
      "представил": 5156,
      "предметы": 5157,
      "инфляции": 5158,
      "десятка": 5159,
      "молодежной": 5160,
      "подозреваемых": 5161,
      "взаимодействия": 5162,
      "клуб": 5163,
      "клетки": 5164,
      "шоу": 5165,
      "эмоциона": 5166,
      "розни": 5167,
      "поступили": 5168,
      "поступило": 5169,
      "потребовала": 5170,
      "далее": 5171,
      "морского": 5172,
      "видим": 5173,
      "различных": 5174,
      "различные": 5175,
      "шедших": 5176,
      "действий": 5177,
      "федерациям": 5178,
      "взяток": 5179,
      "интернете": 5180,
      "воронежской": 5181,
      "журналистам": 5182,
      "муниципалит": 5183,
      "боброва": 5184,
      "дюй": 5185,
      "осколо": 5186,
      "оперы": 5187,
      "команды": 5188,
      "касается": 5189,
      "бассразрезу": 5190,
      "кратно": 5191,
      "любов": 5192,
      "возглавля": 5193,
      "картофель": 5194,
      "второе": 5195,
      "второго": 5196,
      "парацетамола": 5197,
      "стабилизи": 5198,
      "искусства": 5199,
      "проблема": 5200,
      "квадра": 5201,
      "ориенти": 5202,
      "ядерных": 5203,
      "выборах": 5204,
      "областной": 5205,
      "особое": 5206,
      "долгосро": 5207,
      "учитывая": 5208,
      "адвокат": 5209,
      "индивидуаль": 5210,
      "чемпионата": 5211,
      "уточняется": 5212,
      "замедление": 5213,
      "гречко": 5214,
      "смарт": 5215,
      "горичева": 5216,
      "северодонец": 5217,
      "гастрономи": 5218,
      "столкну": 5219,
      "подобные": 5220,
      "человечности": 5221,
      "спикеров": 5222,
      "факультета": 5223,
      "внедрять": 5224,
      "полномочий": 5225,
      "экспозиция": 5226,
      "мастер-классы": 5227,
      "атмосферу": 5228,
      "лазаревский": 5229,
      "заболеваний": 5230,
      "внутри": 5231,
      "востребован": 5232,
      "деловой": 5233,
      "вымогатель": 5234,
      "призвал": 5235,
      "северной": 5236,
      "совфеда": 5237,
      "хоккей": 5238,
      "акционеров": 5239,
      "переговоры": 5240,
      "самостоятельно": 5241,
      "единобор": 5242,
      "воробьева": 5243,
      "террористической": 5244,
      "Песков": 5245,
      "афри": 5246,
      "аукциона": 5247,
      "гродно": 5248,
      "звон": 5249,
      "иркут": 5250,
      "кто-то": 5251,
      "опытом": 5252,
      "спустя": 5253,
      "рабатыва": 5254,
      "почему": 5255,
      "неоднократно": 5256,
      "создан": 5257,
      "преврати": 5258,
      "приоритет": 5259,
      "присутствия": 5260,
      "педаго": 5261,
      "возглавил": 5262,
      "довольно": 5263,
      "прошунин": 5264,
      "разумеется": 5265,
      "анонси": 5266,
      "Краснода": 5267,
      "соревнованиях": 5268,
      "США": 5269,
      "аудито": 5270,
      "вновь": 5271,
      "оэз": 5272,
      "осторож": 5273,
      "ритей": 5274,
      "хулиган": 5275,
      "понедельник": 5276,
      "вашингто": 5277,
      "модерни": 5278,
      "мониторин": 5279,
      "протяжении": 5280,
      "высказыва": 5281,
      "переговоров": 5282,
      "inditex": 5283,
      "ростова-на-дону": 5284,
      "бассразрезуголь": 5285,
      "-х": 5286,
      "-хромо": 5287,
      "-рот": 5288,
      "/ч": 5289,
      "11": 5290,
      "15": 5291,
      "19": 5292,
      "27": 5293,
      "32": 5294,
      "af": 5295,
      "av": 5296,
      "ara": 5297,
      "by": 5298,
      "blo": 5299,
      "dan": 5300,
      "der": 5301,
      "fa": 5302,
      "gen": 5303,
      "ie": 5304,
      "ka": 5305,
      "ks": 5306,
      "lks": 5307,
      "me": 5308,
      "men": 5309,
      "mber": 5310,
      "nex": 5311,
      "os": 5312,
      "omber": 5313,
      "ry": 5314,
      "sry": 5315,
      "up": 5316,
      "win": 5317,
      "xi": 5318,
      "«Г": 5319,
      "«М": 5320,
      "«О": 5321,
      "Аэ": 5322,
      "Глава": 5323,
      "ДС": 5324,
      "Де": 5325,
      "Жителя": 5326,
      "Ин": 5327,
      "Ка": 5328,
      "Крас": 5329,
      "НВ": 5330,
      "Про": 5331,
      "При": 5332,
      "СВ": 5333,
      "СИ": 5334,
      "Сов": 5335,
      "Сара": 5336,
      "аз": 5337,
      "ам": 5338,
      "али": 5339,
      "ами": 5340,
      "апар": 5341,
      "альных": 5342,
      "аут": 5343,
      "асса": 5344,
      "азов": 5345,
      "аспек": 5346,
      "бре": 5347,
      "взы": 5348,
      "вступления": 5349,
      "вшем": 5350,
      "вступил": 5351,
      "гры": 5352,
      "гром": 5353,
      "д.": 5354,
      "дь": 5355,
      "дит": 5356,
      "два": 5357,
      "дне": 5358,
      "дные": 5359,
      "джен": 5360,
      "двор": 5361,
      "ддерж": 5362,
      "ево": 5363,
      "еви": 5364,
      "емая": 5365,
      "емого": 5366,
      "жков": 5367,
      "жная": 5368,
      "зра": 5369,
      "зла": 5370,
      "зон": 5371,
      "зента": 5372,
      "зрения": 5373,
      "ист": 5374,
      "ипа": 5375,
      "иметь": 5376,
      "кг": 5377,
      "кп": 5378,
      "кх": 5379,
      "кса": 5380,
      "ктора": 5381,
      "книж": 5382,
      "лн": 5383,
      "лэ": 5384,
      "леров": 5385,
      "лые": 5386,
      "мла": 5387,
      "мской": 5388,
      "мбер": 5389,
      "мбле": 5390,
      "нс": 5391,
      "нпо": 5392,
      "нта": 5393,
      "нми": 5394,
      "нной": 5395,
      "нный": 5396,
      "нская": 5397,
      "нью": 5398,
      "о-": 5399,
      "оле": 5400,
      "одо": 5401,
      "оча": 5402,
      "оги": 5403,
      "опу": 5404,
      "оке": 5405,
      "оном": 5406,
      "опере": 5407,
      "оформи": 5408,
      "одеж": 5409,
      "олега": 5410,
      "пти": 5411,
      "пят": 5412,
      "пмент": 5413,
      "птен": 5414,
      "рс": 5415,
      "ргов": 5416,
      "сх": 5417,
      "сли": 5418,
      "сда": 5419,
      "спро": 5420,
      "сбо": 5421,
      "сные": 5422,
      "смыс": 5423,
      "тв": 5424,
      "труб": 5425,
      "труп": 5426,
      "титу": 5427,
      "ука": 5428,
      "учи": 5429,
      "устав": 5430,
      "улет": 5431,
      "умер": 5432,
      "удоб": 5433,
      "уведо": 5434,
      "уфим": 5435,
      "уфы": 5436,
      "фля": 5437,
      "флик": 5438,
      "хет": 5439,
      "цз": 5440,
      "чре": 5441,
      "чность": 5442,
      "чью": 5443,
      "шит": 5444,
      "шут": 5445,
      "школо": 5446,
      "ыгры": 5447,
      "эт": 5448,
      "эпо": 5449,
      "эле": 5450,
      "эпи": 5451,
      "эстро": 5452,
      "юби": 5453,
      "ял": 5454,
      "енный": 5455,
      "ранов": 5456,
      "расту": 5457,
      "роуз": 5458,
      "россети": 5459,
      "нодорож": 5460,
      "ночью": 5461,
      "рели": 5462,
      "реда": 5463,
      "репута": 5464,
      "религи": 5465,
      "реконструкции": 5466,
      "ко-": 5467,
      "код": 5468,
      "копи": 5469,
      "кольца": 5470,
      "нац": 5471,
      "нара": 5472,
      "наме": 5473,
      "налого": 5474,
      "нашли": 5475,
      "нашим": 5476,
      "нагруз": 5477,
      "напада": 5478,
      "горе": 5479,
      "гостям": 5480,
      "пок": 5481,
      "пон": 5482,
      "поги": 5483,
      "похо": 5484,
      "полю": 5485,
      "посту": 5486,
      "понима": 5487,
      "поступ": 5488,
      "поступа": 5489,
      "пошли": 5490,
      "поиска": 5491,
      "попроб": 5492,
      "пойдут": 5493,
      "лиди": 5494,
      "лион": 5495,
      "литера": 5496,
      "льском": 5497,
      "льщиков": 5498,
      "лам": 5499,
      "лабо": 5500,
      "как": 5501,
      "кафе": 5502,
      "каждая": 5503,
      "енитета": 5504,
      "обуча": 5505,
      "обстанов": 5506,
      "обсуд": 5507,
      "зак": 5508,
      "замен": 5509,
      "заря": 5510,
      "зайн": 5511,
      "зацией": 5512,
      "заинтерес": 5513,
      "зарубеж": 5514,
      "даге": 5515,
      "далова": 5516,
      "воспо": 5517,
      "рица": 5518,
      "рировать": 5519,
      "рировала": 5520,
      "тору": 5521,
      "кине": 5522,
      "вала": 5523,
      "ваку": 5524,
      "вание": 5525,
      "вался": 5526,
      "лера": 5527,
      "лева": 5528,
      "лекар": 5529,
      "тая": 5530,
      "тара": 5531,
      "тать": 5532,
      "талан": 5533,
      "табло": 5534,
      "такая": 5535,
      "мий": 5536,
      "милов": 5537,
      "микро": 5538,
      "мишу": 5539,
      "непо": 5540,
      "неме": 5541,
      "неве": 5542,
      "нему": 5543,
      "нечто": 5544,
      "нелега": 5545,
      "невозможно": 5546,
      "несовершенно": 5547,
      "небольшие": 5548,
      "локомо": 5549,
      "дебю": 5550,
      "дерев": 5551,
      "делега": 5552,
      "дефля": 5553,
      "ману": 5554,
      "масла": 5555,
      "машин": 5556,
      "маэстро": 5557,
      "мое": 5558,
      "мост": 5559,
      "мото": 5560,
      "мостов": 5561,
      "могли": 5562,
      "сой": 5563,
      "соч": 5564,
      "сопер": 5565,
      "созы": 5566,
      "соору": 5567,
      "соедин": 5568,
      "прома": 5569,
      "пробе": 5570,
      "проход": 5571,
      "просит": 5572,
      "проспек": 5573,
      "проживает": 5574,
      "тир": 5575,
      "тию": 5576,
      "тили": 5577,
      "доли": 5578,
      "допере": 5579,
      "доступа": 5580,
      "дохода": 5581,
      "достовер": 5582,
      "теп": 5583,
      "теат": 5584,
      "ователи": 5585,
      "скор": 5586,
      "скорее": 5587,
      "сятся": 5588,
      "прем": 5589,
      "преем": 5590,
      "предела": 5591,
      "презента": 5592,
      "дие": 5593,
      "дивер": 5594,
      "дизе": 5595,
      "дисп": 5596,
      "диверсии": 5597,
      "дизайн": 5598,
      "стиля": 5599,
      "чем": 5600,
      "чего": 5601,
      "чеба": 5602,
      "чество": 5603,
      "пати": 5604,
      "пании": 5605,
      "патри": 5606,
      "видов": 5607,
      "выплаты": 5608,
      "кули": 5609,
      "купе": 5610,
      "отпу": 5611,
      "прилет": 5612,
      "прият": 5613,
      "привели": 5614,
      "применя": 5615,
      "примера": 5616,
      "саду": 5617,
      "санитар": 5618,
      "сажать": 5619,
      "дулов": 5620,
      "вез": 5621,
      "вела": 5622,
      "вещей": 5623,
      "тьев": 5624,
      "часа": 5625,
      "чался": 5626,
      "часы": 5627,
      "инжен": 5628,
      "иннова": 5629,
      "инстит": 5630,
      "ляли": 5631,
      "гией": 5632,
      "сев": 5633,
      "сел": 5634,
      "сера": 5635,
      "сере": 5636,
      "семи": 5637,
      "семина": 5638,
      "сезоне": 5639,
      "семян": 5640,
      "рых": 5641,
      "рынин": 5642,
      "суа": 5643,
      "суди": 5644,
      "сухо": 5645,
      "сувер": 5646,
      "луи": 5647,
      "лур": 5648,
      "новом": 5649,
      "чик": 5650,
      "чика": 5651,
      "числу": 5652,
      "чижова": 5653,
      "оров": 5654,
      "мусора": 5655,
      "изот": 5656,
      "измен": 5657,
      "избе": 5658,
      "измени": 5659,
      "изначально": 5660,
      "тым": 5661,
      "меню": 5662,
      "менту": 5663,
      "бочно": 5664,
      "разре": 5665,
      "разру": 5666,
      "разного": 5667,
      "разные": 5668,
      "разработа": 5669,
      "щик": 5670,
      "щики": 5671,
      "ссию": 5672,
      "композ": 5673,
      "подня": 5674,
      "подконтро": 5675,
      "подмосков": 5676,
      "подстанции": 5677,
      "подкупе": 5678,
      "стья": 5679,
      "жающей": 5680,
      "бай": 5681,
      "баш": 5682,
      "бакали": 5683,
      "баранов": 5684,
      "сив": 5685,
      "сиби": 5686,
      "силий": 5687,
      "ковых": 5688,
      "ковой": 5689,
      "ранены": 5690,
      "бег": 5691,
      "бера": 5692,
      "бели": 5693,
      "бева": 5694,
      "рян": 5695,
      "ряют": 5696,
      "шина": 5697,
      "шими": 5698,
      "живо": 5699,
      "жесто": 5700,
      "предъ": 5701,
      "праши": 5702,
      "правили": 5703,
      "шеф-": 5704,
      "годах": 5705,
      "россией": 5706,
      "пика": 5707,
      "пичу": 5708,
      "конвойных": 5709,
      "конфлик": 5710,
      "ительные": 5711,
      "ставка": 5712,
      "перво": 5713,
      "перми": 5714,
      "скова": 5715,
      "нят": 5716,
      "нями": 5717,
      "которгов": 5718,
      "буи": 5719,
      "летний": 5720,
      "верто": 5721,
      "верди": 5722,
      "терна": 5723,
      "ленко": 5724,
      "ленным": 5725,
      "тельными": 5726,
      "града": 5727,
      "градо": 5728,
      "грачев": 5729,
      "любой": 5730,
      "цеп": 5731,
      "цели": 5732,
      "гура": 5733,
      "щали": 5734,
      "феля": 5735,
      "строя": 5736,
      "строение": 5737,
      "дерипа": 5738,
      "случи": 5739,
      "слуху": 5740,
      "возле": 5741,
      "возника": 5742,
      "возвед": 5743,
      "сообщении": 5744,
      "номер": 5745,
      "знака": 5746,
      "знаний": 5747,
      "значитель": 5748,
      "ственную": 5749,
      "тивный": 5750,
      "тивную": 5751,
      "шат": 5752,
      "шамбер": 5753,
      "родов": 5754,
      "облада": 5755,
      "областей": 5756,
      "правда": 5757,
      "осен": 5758,
      "осети": 5759,
      "ходных": 5760,
      "планах": 5761,
      "автова": 5762,
      "спере": 5763,
      "зой": 5764,
      "зону": 5765,
      "стеро": 5766,
      "стере": 5767,
      "степени": 5768,
      "чена": 5769,
      "перево": 5770,
      "переработ": 5771,
      "передали": 5772,
      "перечень": 5773,
      "тремя": 5774,
      "явно": 5775,
      "минима": 5776,
      "полутина": 5777,
      "жено": 5778,
      "женности": 5779,
      "проекти": 5780,
      "водителя": 5781,
      "спорте": 5782,
      "спорту": 5783,
      "спорные": 5784,
      "спорить": 5785,
      "спортом": 5786,
      "сентябрь": 5787,
      "российскими": 5788,
      "российско-": 5789,
      "ствий": 5790,
      "гендиректора": 5791,
      "полпреда": 5792,
      "держав": 5793,
      "марк": 5794,
      "марко": 5795,
      "следователи": 5796,
      "расписа": 5797,
      "нимать": 5798,
      "итив": 5799,
      "повлия": 5800,
      "экстре": 5801,
      "мяч": 5802,
      "сери": 5803,
      "слава": 5804,
      "слабо": 5805,
      "хал": 5806,
      "ханян": 5807,
      "местные": 5808,
      "больше": 5809,
      "дети": 5810,
      "детских": 5811,
      "итом": 5812,
      "санта": 5813,
      "кладов": 5814,
      "связя": 5815,
      "развле": 5816,
      "гель": 5817,
      "господдерж": 5818,
      "ционно": 5819,
      "ционной": 5820,
      "ционная": 5821,
      "доволь": 5822,
      "доверия": 5823,
      "строительные": 5824,
      "краснокниж": 5825,
      "нарушил": 5826,
      "кремля": 5827,
      "исков": 5828,
      "искра": 5829,
      "войны": 5830,
      "оксана": 5831,
      "федеральных": 5832,
      "федераций": 5833,
      "федеральная": 5834,
      "бург": 5835,
      "станция": 5836,
      "стреле": 5837,
      "стремление": 5838,
      "двига": 5839,
      "объектах": 5840,
      "учени": 5841,
      "учителей": 5842,
      "анаста": 5843,
      "форос": 5844,
      "такими": 5845,
      "отношение": 5846,
      "относятся": 5847,
      "друго": 5848,
      "народных": 5849,
      "заявок": 5850,
      "манда": 5851,
      "мандат": 5852,
      "культуру": 5853,
      "рованные": 5854,
      "направление": 5855,
      "турист": 5856,
      "границ": 5857,
      "границы": 5858,
      "история": 5859,
      "создали": 5860,
      "создать": 5861,
      "экспери": 5862,
      "шены": 5863,
      "коллег": 5864,
      "международных": 5865,
      "международном": 5866,
      "производить": 5867,
      "производителей": 5868,
      "структуру": 5869,
      "двумя": 5870,
      "личные": 5871,
      "участке": 5872,
      "techno": 5873,
      "установлено": 5874,
      "обратном": 5875,
      "задержаны": 5876,
      "задержанные": 5877,
      "борту": 5878,
      "основных": 5879,
      "готовности": 5880,
      "ведли": 5881,
      "ведется": 5882,
      "периоде": 5883,
      "аэрофлота": 5884,
      "материал": 5885,
      "материалах": 5886,
      "планиру": 5887,
      "планирует": 5888,
      "руководству": 5889,
      "взры": 5890,
      "взгля": 5891,
      "добро": 5892,
      "добров": 5893,
      "добрынин": 5894,
      "импров": 5895,
      "остальных": 5896,
      "сроки": 5897,
      "точки": 5898,
      "составе": 5899,
      "городах": 5900,
      "всей": 5901,
      "всероссийского": 5902,
      "прошла": 5903,
      "прошлой": 5904,
      "подрост": 5905,
      "другим": 5906,
      "другими": 5907,
      "группи": 5908,
      "унифици": 5909,
      "открыто": 5910,
      "открытом": 5911,
      "открылся": 5912,
      "открывает": 5913,
      "позитив": 5914,
      "признались": 5915,
      "лучшего": 5916,
      "лучшие": 5917,
      "лучшим": 5918,
      "проектам": 5919,
      "проектах": 5920,
      "политику": 5921,
      "политических": 5922,
      "президенту": 5923,
      "факти": 5924,
      "факторов": 5925,
      "июля": 5926,
      "июня": 5927,
      "франсуа": 5928,
      "домах": 5929,
      "аэропортов": 5930,
      "аэропортах": 5931,
      "назначили": 5932,
      "главный": 5933,
      "главная": 5934,
      "объемом": 5935,
      "браков": 5936,
      "вопроса": 5937,
      "вопросу": 5938,
      "мирный": 5939,
      "провед": 5940,
      "провели": 5941,
      "количеству": 5942,
      "занимается": 5943,
      "оказалась": 5944,
      "оказалось": 5945,
      "оказались": 5946,
      "операций": 5947,
      "режиме": 5948,
      "заявку": 5949,
      "программу": 5950,
      "золотых": 5951,
      "площадке": 5952,
      "обеспечение": 5953,
      "др.": 5954,
      "поддерживать": 5955,
      "первых": 5956,
      "участии": 5957,
      "ситуацию": 5958,
      "высокой": 5959,
      "высоких": 5960,
      "следующем": 5961,
      "алкого": 5962,
      "депутат": 5963,
      "депутата": 5964,
      "интегра": 5965,
      "болез": 5966,
      "автопарка": 5967,
      "ъ-урал": 5968,
      "матиа": 5969,
      "приняли": 5970,
      "суммы": 5971,
      "смотре": 5972,
      "смогли": 5973,
      "чулков": 5974,
      "чья": 5975,
      "нескольким": 5976,
      "отделением": 5977,
      "спортивной": 5978,
      "спортивный": 5979,
      "альтерна": 5980,
      "наркоторгов": 5981,
      "отмечается": 5982,
      "совершили": 5983,
      "финале": 5984,
      "спектр": 5985,
      "использованием": 5986,
      "предложила": 5987,
      "продолжается": 5988,
      "экономике": 5989,
      "посещения": 5990,
      "ссыла": 5991,
      "принимают": 5992,
      "искрен": 5993,
      "подал": 5994,
      "подать": 5995,
      "социальных": 5996,
      "превышении": 5997,
      "дрона": 5998,
      "равно": 5999,
      "горном": 6000,
      "казни": 6001,
      "пространстве": 6002,
      "проверку": 6003,
      "пытки": 6004,
      "произошед": 6005,
      "помощью": 6006,
      "помощником": 6007,
      "обвиняется": 6008,
      "обвиняемые": 6009,
      "обвиняемый": 6010,
      "вяз": 6011,
      "многом": 6012,
      "фунда": 6013,
      "нализирован": 6014,
      "назвали": 6015,
      "водоснабжения": 6016,
      "водоснабжение": 6017,
      "молодых": 6018,
      "моделей": 6019,
      "третьей": 6020,
      "санкций": 6021,
      "соответствует": 6022,
      "соответствующий": 6023,
      "соответствующая": 6024,
      "бене": 6025,
      "футболе": 6026,
      "шкин": 6027,
      "запрещен": 6028,
      "предусматри": 6029,
      "частично": 6030,
      "торговли": 6031,
      "сотрудничеству": 6032,
      "хвата": 6033,
      "достига": 6034,
      "документы": 6035,
      "склады": 6036,
      "партне": 6037,
      "собственность": 6038,
      "оборота": 6039,
      "законодательство": 6040,
      "множество": 6041,
      "школьного": 6042,
      "налог": 6043,
      "госдумы": 6044,
      "лицо": 6045,
      "заседание": 6046,
      "недополучит": 6047,
      "тьям": 6048,
      "иностранными": 6049,
      "иван": 6050,
      "комиссию": 6051,
      "процессы": 6052,
      "персонализирован": 6053,
      "филинов": 6054,
      "технологии": 6055,
      "букмекеры": 6056,
      "южном": 6057,
      "субъек": 6058,
      "воздухе": 6059,
      "проводит": 6060,
      "проводятся": 6061,
      "блока": 6062,
      "очевид": 6063,
      "пензен": 6064,
      "укреплению": 6065,
      "занял": 6066,
      "мощности": 6067,
      "челябинска": 6068,
      "выдач": 6069,
      "причинив": 6070,
      "береговой": 6071,
      "светла": 6072,
      "анализа": 6073,
      "надзорное": 6074,
      "исторические": 6075,
      "исторический": 6076,
      "vit": 6077,
      "wagen": 6078,
      "аутиз": 6079,
      "позицию": 6080,
      "московская": 6081,
      "договора": 6082,
      "саратова": 6083,
      "февраль": 6084,
      "позволяет": 6085,
      "противостоя": 6086,
      "противопожар": 6087,
      "грип": 6088,
      "джазов": 6089,
      "настоящий": 6090,
      "настоящему": 6091,
      "проблем": 6092,
      "пандеми": 6093,
      "коммерсант": 6094,
      "силами": 6095,
      "жилищ": 6096,
      "предпочита": 6097,
      "современного": 6098,
      "платфор": 6099,
      "металла": 6100,
      "металлур": 6101,
      "бирже": 6102,
      "действующих": 6103,
      "события": 6104,
      "временных": 6105,
      "транспортных": 6106,
      "коллекти": 6107,
      "французского": 6108,
      "уточнили": 6109,
      "ярославля": 6110,
      "находились": 6111,
      "незаконно": 6112,
      "незаконном": 6113,
      "промышленного": 6114,
      "музыки": 6115,
      "объявил": 6116,
      "сервис": 6117,
      "районный": 6118,
      "утверждает": 6119,
      "добавили": 6120,
      "совершенных": 6121,
      "санкт-петербурге": 6122,
      "lada": 6123,
      "аварии": 6124,
      "аварий": 6125,
      "авария": 6126,
      "одежды": 6127,
      "языка": 6128,
      "направила": 6129,
      "обсуждения": 6130,
      "замминистра": 6131,
      "выполнения": 6132,
      "сурдопере": 6133,
      "конференция": 6134,
      "фиксируется": 6135,
      "парламент": 6136,
      "полицейским": 6137,
      "следственный": 6138,
      "повреждения": 6139,
      "пытался": 6140,
      "земельного": 6141,
      "земельных": 6142,
      "земельный": 6143,
      "исследователь": 6144,
      "исследований": 6145,
      "официально": 6146,
      "stra": 6147,
      "синклер": 6148,
      "тюрь": 6149,
      "упала": 6150,
      "вакцина": 6151,
      "декабре": 6152,
      "старше": 6153,
      "париж": 6154,
      "разработки": 6155,
      "конкурс": 6156,
      "будущее": 6157,
      "возвращения": 6158,
      "травму": 6159,
      "классам": 6160,
      "ответственности": 6161,
      "форума": 6162,
      "форуме": 6163,
      "корпорации": 6164,
      "пятер": 6165,
      "наумов": 6166,
      "заводе": 6167,
      "машина": 6168,
      "кузнец": 6169,
      "кузбассразрезуголь": 6170,
      "приостановил": 6171,
      "систему": 6172,
      "крайне": 6173,
      "распределения": 6174,
      "поведения": 6175,
      "связанных": 6176,
      "обратил": 6177,
      "спортсмены": 6178,
      "наркотиками": 6179,
      "функции": 6180,
      "расположены": 6181,
      "восстановлению": 6182,
      "устойчивом": 6183,
      "игрок": 6184,
      "км/ч": 6185,
      "угрозу": 6186,
      "хотят": 6187,
      "намерена": 6188,
      "льготной": 6189,
      "льготных": 6190,
      "закрыли": 6191,
      "делец": 6192,
      "статуса": 6193,
      "текущей": 6194,
      "судостроения": 6195,
      "вернулась": 6196,
      "антимоно": 6197,
      "расследования": 6198,
      "судьбу": 6199,
      "ответчик": 6200,
      "аналогичный": 6201,
      "дальнейшем": 6202,
      "воздушное": 6203,
      "очередной": 6204,
      "эффективность": 6205,
      "контракту": 6206,
      "ереван": 6207,
      "пляж": 6208,
      "флако": 6209,
      "наиболее": 6210,
      "поставил": 6211,
      "поставок": 6212,
      "природе": 6213,
      "традиционно": 6214,
      "относится": 6215,
      "интересам": 6216,
      "гимназией": 6217,
      "lovit": 6218,
      "жителям": 6219,
      "идею": 6220,
      "клуба": 6221,
      "сложно": 6222,
      "шоссе": 6223,
      "половине": 6224,
      "нефте": 6225,
      "нефть": 6226,
      "массового": 6227,
      "препараты": 6228,
      "природных": 6229,
      "развива": 6230,
      "красоты": 6231,
      "красоту": 6232,
      "конкретный": 6233,
      "конкретного": 6234,
      "оснащен": 6235,
      "армения": 6236,
      "действии": 6237,
      "борьбы": 6238,
      "чиновник": 6239,
      "проведены": 6240,
      "экологического": 6241,
      "барселоне": 6242,
      "ущерба": 6243,
      "нынешнего": 6244,
      "пассажиров": 6245,
      "Задержа": 6246,
      "дюса": 6247,
      "истекает": 6248,
      "трлн": 6249,
      "нашими": 6250,
      "называется": 6251,
      "обслуживание": 6252,
      "прежде": 6253,
      "отличи": 6254,
      "отказал": 6255,
      "думать": 6256,
      "символи": 6257,
      "антонов": 6258,
      "парфюмери": 6259,
      "используется": 6260,
      "крупнейших": 6261,
      "парацетамол": 6262,
      "пользуются": 6263,
      "обязательства": 6264,
      "масштаб": 6265,
      "предварительным": 6266,
      "marton": 6267,
      "опрошен": 6268,
      "сформированы": 6269,
      "носить": 6270,
      "застройщика": 6271,
      "прокомментировал": 6272,
      "выбрал": 6273,
      "бонде": 6274,
      "предпринимательской": 6275,
      "фирмен": 6276,
      "гражданам": 6277,
      "артема": 6278,
      "артемий": 6279,
      "экспертизы": 6280,
      "квартала": 6281,
      "наличии": 6282,
      "изолятора": 6283,
      "регулиру": 6284,
      "максимальная": 6285,
      "популярных": 6286,
      "2025": 6287,
      "автобусом": 6288,
      "жкх": 6289,
      "звездо": 6290,
      "ощу": 6291,
      "провайдеров": 6292,
      "схему": 6293,
      "циони": 6294,
      "состоится": 6295,
      "премию": 6296,
      "выразил": 6297,
      "сарханян": 6298,
      "баланси": 6299,
      "гуманитарного": 6300,
      "гуманитарный": 6301,
      "лексики": 6302,
      "регистрации": 6303,
      "регистрацию": 6304,
      "активы": 6305,
      "фотографи": 6306,
      "водохранилище": 6307,
      "изъятии": 6308,
      "голосования": 6309,
      "ассоциация": 6310,
      "появилась": 6311,
      "онлайн-табло": 6312,
      "роспотребнадзор": 6313,
      "build": 6314,
      "volks": 6315,
      "аграрного": 6316,
      "введены": 6317,
      "книг": 6318,
      "оформ": 6319,
      "чтение": 6320,
      "ювелир": 6321,
      "горови": 6322,
      "вакансий": 6323,
      "теплоснаб": 6324,
      "пресечения": 6325,
      "отправку": 6326,
      "холоди": 6327,
      "представителями": 6328,
      "формирующих": 6329,
      "сельхоз": 6330,
      "агентства": 6331,
      "оружия": 6332,
      "дефицитом": 6333,
      "цифровых": 6334,
      "постоянно": 6335,
      "философ": 6336,
      "капремонта": 6337,
      "bmw": 6338,
      "ca-": 6339,
      "xviii": 6340,
      "справедли": 6341,
      "швей": 6342,
      "кореи": 6343,
      "когда-то": 6344,
      "копенгагена": 6345,
      "госпитали": 6346,
      "попал": 6347,
      "негатив": 6348,
      "марии-антуанет": 6349,
      "дискуссии": 6350,
      "вынуждены": 6351,
      "выручка": 6352,
      "кутюр": 6353,
      "изготовление": 6354,
      "предназначены": 6355,
      "предыдущем": 6356,
      "красивых": 6357,
      "совеща": 6358,
      "аргентин": 6359,
      "полученные": 6360,
      "собесед": 6361,
      "тройку": 6362,
      "кремлев": 6363,
      "стрелкова": 6364,
      "новосибирск": 6365,
      "норвегии": 6366,
      "ликвидации": 6367,
      "популяри": 6368,
      "олимпий": 6369,
      "мошенничестве": 6370,
      "многоквартирных": 6371,
      "психологи": 6372,
      "росавиации": 6373,
      "середюк": 6374,
      "it-": 6375,
      "Белгород": 6376,
      "Екатеринбур": 6377,
      "Татарстане": 6378,
      "брази": 6379,
      "втб": 6380,
      "сбыта": 6381,
      "смягчения": 6382,
      "убий": 6383,
      "феномен": 6384,
      "резерв": 6385,
      "голубева": 6386,
      "кайдалова": 6387,
      "кариоти": 6388,
      "обучения": 6389,
      "закупок": 6390,
      "преподава": 6391,
      "честно": 6392,
      "медучре": 6393,
      "борис": 6394,
      "железнодорож": 6395,
      "знакомому": 6396,
      "обозреватель": 6397,
      "геленджика": 6398,
      "реабилитации": 6399,
      "эксплуата": 6400,
      "нижнекам": 6401,
      "худож": 6402,
      "противоречий": 6403,
      "дюймов": 6404,
      "северодонецка": 6405,
      "единоборств": 6406,
      "модернизации": 6407,
      "-хромосо": 6408,
      "bloomber": 6409,
      "ment": 6410,
      "next": 6411,
      "winline": 6412,
      "Аэро": 6413,
      "ДСНВ": 6414,
      "апарт-": 6415,
      "ассамбле": 6416,
      "кхл": 6417,
      "нмиц": 6418,
      "рсф": 6419,
      "школой": 6420,
      "роуз-рот": 6421,
      "попробовать": 6422,
      "литератур": 6423,
      "обсудят": 6424,
      "воспользова": 6425,
      "мишусти": 6426,
      "дефляция": 6427,
      "патриоти": 6428,
      "институт": 6429,
      "суверенитета": 6430,
      "пичурина": 6431,
      "шамберина": 6432,
      "осетии": 6433,
      "связям": 6434,
      "technobuild": 6435,
      "коммерсантъ": 6436,
      "кузнецова": 6437,
      "сарханянц": 6438,
      "volkswagen": 6439,
      "марии-антуанетты": 6440,
      "bloomberg": 6441,
      "ассамблеи": 6442,
      "-таки": 6443,
      "-вакци": 6444,
      "-кола": 6445,
      "-партнеров": 6446,
      "/или": 6447,
      "0%": 6448,
      "12": 6449,
      "14": 6450,
      "18": 6451,
      "3%": 6452,
      "ap": 6453,
      "ba": 6454,
      "be": 6455,
      "bi": 6456,
      "d-": 6457,
      "era": 6458,
      "fil": 6459,
      "for": 6460,
      "gro": 6461,
      "iba": 6462,
      "ne": 6463,
      "ph": 6464,
      "ple": 6465,
      "pav": 6466,
      "ri": 6467,
      "tte": 6468,
      "us": 6469,
      "ura": 6470,
      "we": 6471,
      "wild": 6472,
      "xy": 6473,
      "yle": 6474,
      "y-хромосо": 6475,
      "zon": 6476,
      "zara": 6477,
      "«Е": 6478,
      "«Ро": 6479,
      "АО": 6480,
      "ДТ": 6481,
      "Дону": 6482,
      "ЗО": 6483,
      "Куз": 6484,
      "Мин": 6485,
      "От": 6486,
      "ПИ": 6487,
      "Пу": 6488,
      "Пред": 6489,
      "Ре": 6490,
      "Трам": 6491,
      "Укра": 6492,
      "а.": 6493,
      "аш": 6494,
      "ада": 6495,
      "аку": 6496,
      "астра": 6497,
      "алю": 6498,
      "алена": 6499,
      "ауди": 6500,
      "бет": 6501,
      "бру": 6502,
      "бить": 6503,
      "бэк": 6504,
      "брит": 6505,
      "в.": 6506,
      "вв": 6507,
      "вит": 6508,
      "ври": 6509,
      "вско": 6510,
      "вся": 6511,
      "вче": 6512,
      "вряд": 6513,
      "вшая": 6514,
      "вшему": 6515,
      "впеча": 6516,
      "вносить": 6517,
      "г-": 6518,
      "гк": 6519,
      "гр": 6520,
      "гку": 6521,
      "гек": 6522,
      "гбу": 6523,
      "гвар": 6524,
      "дн": 6525,
      "дли": 6526,
      "дитель": 6527,
      "дить": 6528,
      "дней": 6529,
      "доби": 6530,
      "днк": 6531,
      "длина": 6532,
      "двое": 6533,
      "дственная": 6534,
      "ере": 6535,
      "ела": 6536,
      "еги": 6537,
      "евой": 6538,
      "емости": 6539,
      "емом": 6540,
      "ешь": 6541,
      "жени": 6542,
      "жит": 6543,
      "жси": 6544,
      "жуа": 6545,
      "зр": 6546,
      "зт": 6547,
      "зю": 6548,
      "зран": 6549,
      "зить": 6550,
      "зей": 6551,
      "зфо": 6552,
      "зболи": 6553,
      "ив": 6554,
      "ио": 6555,
      "их": 6556,
      "иско": 6557,
      "исе": 6558,
      "ились": 6559,
      "изации": 6560,
      "игру": 6561,
      "истреб": 6562,
      "и/или": 6563,
      "йбы": 6564,
      "кк": 6565,
      "крит": 6566,
      "кстати": 6567,
      "кжси": 6568,
      "л»": 6569,
      "лки": 6570,
      "лстрой": 6571,
      "лками": 6572,
      "мм": 6573,
      "мс": 6574,
      "мся": 6575,
      "мсе": 6576,
      "мба": 6577,
      "мится": 6578,
      "нд": 6579,
      "нт": 6580,
      "нском": 6581,
      "нский": 6582,
      "нена": 6583,
      "нены": 6584,
      "нрав": 6585,
      "о.": 6586,
      "око": 6587,
      "они": 6588,
      "ото": 6589,
      "опор": 6590,
      "отоп": 6591,
      "окуп": 6592,
      "опровер": 6593,
      "ологии": 6594,
      "ографи": 6595,
      "пр": 6596,
      "ппе": 6597,
      "плен": 6598,
      "плю": 6599,
      "прито": 6600,
      "пена": 6601,
      "ркк": 6602,
      "с-": 6603,
      "сю": 6604,
      "сва": 6605,
      "схо": 6606,
      "сное": 6607,
      "сная": 6608,
      "сби": 6609,
      "свод": 6610,
      "смир": 6611,
      "сюж": 6612,
      "сбере": 6613,
      "спада": 6614,
      "сдел": 6615,
      "снадзора": 6616,
      "сбаланси": 6617,
      "тное": 6618,
      "тят": 6619,
      "тную": 6620,
      "ува": 6621,
      "уме": 6622,
      "уин": 6623,
      "узна": 6624,
      "убы": 6625,
      "узу": 6626,
      "уха": 6627,
      "удали": 6628,
      "уступа": 6629,
      "ухов": 6630,
      "углу": 6631,
      "урус": 6632,
      "угля": 6633,
      "уфсб": 6634,
      "ующими": 6635,
      "удорожа": 6636,
      "ул.": 6637,
      "упомина": 6638,
      "ушедших": 6639,
      "фре": 6640,
      "фью": 6641,
      "хин": 6642,
      "хак": 6643,
      "цо": 6644,
      "цем": 6645,
      "цан": 6646,
      "цом": 6647,
      "цбург": 6648,
      "чки": 6649,
      "чится": 6650,
      "чительно": 6651,
      "члена": 6652,
      "шов": 6653,
      "шку": 6654,
      "щу": 6655,
      "ьше": 6656,
      "ьеров": 6657,
      "ьян": 6658,
      "эр": 6659,
      "эли": 6660,
      "эсто": 6661,
      "юг": 6662,
      "юн": 6663,
      "юр": 6664,
      "юу": 6665,
      "юста": 6666,
      "юрий": 6667,
      "юссе": 6668,
      "ям": 6669,
      "ящих": 6670,
      "—августе": 6671,
      "стр": 6672,
      "стс": 6673,
      "стров": 6674,
      "стек": 6675,
      "стые": 6676,
      "стены": 6677,
      "енного": 6678,
      "еных": 6679,
      "ентам": 6680,
      "овз": 6681,
      "овых": 6682,
      "овым": 6683,
      "радо": 6684,
      "расти": 6685,
      "раун": 6686,
      "радулов": 6687,
      "ро-": 6688,
      "рода": 6689,
      "рополь": 6690,
      "рождение": 6691,
      "нок": 6692,
      "ночи": 6693,
      "ноябре": 6694,
      "носкова": 6695,
      "реку": 6696,
      "рези": 6697,
      "регла": 6698,
      "рекла": 6699,
      "рекор": 6700,
      "коп": 6701,
      "кона": 6702,
      "кода": 6703,
      "коче": 6704,
      "кону": 6705,
      "кожа": 6706,
      "косы": 6707,
      "кольной": 6708,
      "косро": 6709,
      "костью": 6710,
      "кобр": 6711,
      "нане": 6712,
      "навы": 6713,
      "нары": 6714,
      "натов": 6715,
      "навер": 6716,
      "наце": 6717,
      "наша": 6718,
      "насла": 6719,
      "нальной": 6720,
      "нашего": 6721,
      "напротив": 6722,
      "натура": 6723,
      "насилия": 6724,
      "госком": 6725,
      "горь": 6726,
      "госор": 6727,
      "пони": 6728,
      "поля": 6729,
      "покон": 6730,
      "подар": 6731,
      "посла": 6732,
      "потери": 6733,
      "покол": 6734,
      "полом": 6735,
      "появляется": 6736,
      "покров": 6737,
      "поезд": 6738,
      "полез": 6739,
      "положения": 6740,
      "потока": 6741,
      "нит": 6742,
      "ниу": 6743,
      "нику": 6744,
      "нилов": 6745,
      "нических": 6746,
      "никому": 6747,
      "никола": 6748,
      "листа": 6749,
      "еты": 6750,
      "етов": 6751,
      "ерий": 6752,
      "ль-": 6753,
      "льно-": 6754,
      "льским": 6755,
      "лаби": 6756,
      "кана": 6757,
      "камь": 6758,
      "камеры": 6759,
      "какое": 6760,
      "обработ": 6761,
      "обсер": 6762,
      "обложения": 6763,
      "заг": 6764,
      "зал": 6765,
      "запро": 6766,
      "заста": 6767,
      "затра": 6768,
      "забы": 6769,
      "запас": 6770,
      "заций": 6771,
      "закро": 6772,
      "заранее": 6773,
      "заполни": 6774,
      "загруз": 6775,
      "закупа": 6776,
      "заклад": 6777,
      "заведу": 6778,
      "затрат": 6779,
      "дами": 6780,
      "даров": 6781,
      "ит-": 6782,
      "вошел": 6783,
      "рила": 6784,
      "ридо": 6785,
      "риски": 6786,
      "рике": 6787,
      "тое": 6788,
      "тоу": 6789,
      "токи": 6790,
      "тории": 6791,
      "кина": 6792,
      "кири": 6793,
      "кило": 6794,
      "кирее": 6795,
      "килстрой": 6796,
      "вае": 6797,
      "вало": 6798,
      "вати": 6799,
      "вания": 6800,
      "валось": 6801,
      "вались": 6802,
      "вариан": 6803,
      "лепро": 6804,
      "леку": 6805,
      "лечению": 6806,
      "лечеб": 6807,
      "таж": 6808,
      "таре": 6809,
      "татарста": 6810,
      "табуи": 6811,
      "руки": 6812,
      "руфи": 6813,
      "русла": 6814,
      "рующие": 6815,
      "миро": 6816,
      "мила": 6817,
      "мисси": 6818,
      "микла": 6819,
      "мигран": 6820,
      "неж": 6821,
      "непро": 6822,
      "неор": 6823,
      "нераз": 6824,
      "непод": 6825,
      "негод": 6826,
      "неуда": 6827,
      "неправо": 6828,
      "неосторож": 6829,
      "лоо": 6830,
      "лока": 6831,
      "лодо": 6832,
      "лога": 6833,
      "лотов": 6834,
      "логу": 6835,
      "лоша": 6836,
      "логов": 6837,
      "ложил": 6838,
      "деб": 6839,
      "дег": 6840,
      "демо": 6841,
      "цик": 6842,
      "цифи": 6843,
      "цивили": 6844,
      "мах": 6845,
      "маш": 6846,
      "мани": 6847,
      "мами": 6848,
      "макро": 6849,
      "марина": 6850,
      "мос": 6851,
      "море": 6852,
      "монов": 6853,
      "мотор": 6854,
      "мотора": 6855,
      "можем": 6856,
      "морато": 6857,
      "моменту": 6858,
      "моисе": 6859,
      "молеку": 6860,
      "сон": 6861,
      "соро": 6862,
      "соли": 6863,
      "сожа": 6864,
      "соиска": 6865,
      "сочета": 6866,
      "сосед": 6867,
      "соотече": 6868,
      "содействии": 6869,
      "проми": 6870,
      "пропа": 6871,
      "прохо": 6872,
      "просвет": 6873,
      "пройти": 6874,
      "продвижение": 6875,
      "пролон": 6876,
      "протести": 6877,
      "тину": 6878,
      "тихо": 6879,
      "тировать": 6880,
      "тируют": 6881,
      "доме": 6882,
      "досту": 6883,
      "домой": 6884,
      "достой": 6885,
      "стами": 6886,
      "ставок": 6887,
      "стадии": 6888,
      "статьям": 6889,
      "тей": 6890,
      "тел": 6891,
      "тест": 6892,
      "теки": 6893,
      "тесто": 6894,
      "телю": 6895,
      "темой": 6896,
      "терак": 6897,
      "теевского": 6898,
      "ованы": 6899,
      "ованием": 6900,
      "ованных": 6901,
      "скорой": 6902,
      "скохозяй": 6903,
      "сят": 6904,
      "прести": 6905,
      "прекрасно": 6906,
      "предоста": 6907,
      "прессор": 6908,
      "препят": 6909,
      "див": 6910,
      "диз": 6911,
      "диных": 6912,
      "дицион": 6913,
      "динар": 6914,
      "стике": 6915,
      "чез": 6916,
      "чел": 6917,
      "пад": 6918,
      "паний": 6919,
      "паузу": 6920,
      "вим": 6921,
      "вия": 6922,
      "виль": 6923,
      "вига": 6924,
      "визу": 6925,
      "выб": 6926,
      "выстре": 6927,
      "выходе": 6928,
      "выхода": 6929,
      "выплат": 6930,
      "выступил": 6931,
      "вырастет": 6932,
      "выступила": 6933,
      "кух": 6934,
      "оту": 6935,
      "отск": 6936,
      "отвер": 6937,
      "отлич": 6938,
      "отрав": 6939,
      "отчета": 6940,
      "отреаги": 6941,
      "отрица": 6942,
      "отправили": 6943,
      "меда": 6944,
      "месси": 6945,
      "механи": 6946,
      "ениях": 6947,
      "приста": 6948,
      "приход": 6949,
      "принес": 6950,
      "приготов": 6951,
      "пригово": 6952,
      "примени": 6953,
      "приступил": 6954,
      "призра": 6955,
      "привати": 6956,
      "санато": 6957,
      "сазонов": 6958,
      "думу": 6959,
      "думан": 6960,
      "дуцз": 6961,
      "вец": 6962,
      "веста": 6963,
      "веса": 6964,
      "веков": 6965,
      "вечер": 6966,
      "чалов": 6967,
      "инг": 6968,
      "иня": 6969,
      "инции": 6970,
      "инской": 6971,
      "инструк": 6972,
      "инсай": 6973,
      "инвеста": 6974,
      "ляя": 6975,
      "ляева": 6976,
      "гипер": 6977,
      "гибели": 6978,
      "села": 6979,
      "рыжков": 6980,
      "суду": 6981,
      "лут": 6982,
      "гал": 6983,
      "гау": 6984,
      "гали": 6985,
      "гаран": 6986,
      "педи": 6987,
      "новин": 6988,
      "новую": 6989,
      "новремен": 6990,
      "новгороде": 6991,
      "новыми": 6992,
      "чим": 6993,
      "чики": 6994,
      "чиком": 6995,
      "чивал": 6996,
      "оргов": 6997,
      "орфей": 6998,
      "ителю": 6999,
      "стого": 7000,
      "столе": 7001,
      "муп": 7002,
      "мусор": 7003,
      "изу": 7004,
      "изобра": 7005,
      "измене": 7006,
      "одни": 7007,
      "одновремен": 7008,
      "тывает": 7009,
      "бону": 7010,
      "разъ": 7011,
      "развед": 7012,
      "разрешения": 7013,
      "разыгры": 7014,
      "туро": 7015,
      "туаль": 7016,
      "щими": 7017,
      "компрессор": 7018,
      "подпи": 7019,
      "подвер": 7020,
      "поднима": 7021,
      "подбор": 7022,
      "подходы": 7023,
      "подлежа": 7024,
      "подлете": 7025,
      "нулась": 7026,
      "нусанта": 7027,
      "жал": 7028,
      "жам": 7029,
      "жах": 7030,
      "жая": 7031,
      "жается": 7032,
      "бабу": 7033,
      "барь": 7034,
      "силы": 7035,
      "ковыми": 7036,
      "ранение": 7037,
      "раньше": 7038,
      "раненых": 7039,
      "беза": 7040,
      "беки": 7041,
      "бесс": 7042,
      "безу": 7043,
      "белару": 7044,
      "бедственная": 7045,
      "рязан": 7046,
      "шиц": 7047,
      "шила": 7048,
      "жего": 7049,
      "предска": 7050,
      "предстоя": 7051,
      "правил": 7052,
      "шек": 7053,
      "шестого": 7054,
      "путь": 7055,
      "лове": 7056,
      "пинах": 7057,
      "концентра": 7058,
      "констати": 7059,
      "конвои": 7060,
      "кондицион": 7061,
      "ительном": 7062,
      "совокуп": 7063,
      "совбеза": 7064,
      "ставку": 7065,
      "ставрополь": 7066,
      "перви": 7067,
      "перена": 7068,
      "перено": 7069,
      "товые": 7070,
      "сквер": 7071,
      "скром": 7072,
      "ниям": 7073,
      "будем": 7074,
      "летняя": 7075,
      "сказ": 7076,
      "скают": 7077,
      "сказо": 7078,
      "сканда": 7079,
      "хоре": 7080,
      "ровая": 7081,
      "ровалась": 7082,
      "ровалось": 7083,
      "ровались": 7084,
      "роваться": 7085,
      "фии": 7086,
      "фициа": 7087,
      "фикса": 7088,
      "верующими": 7089,
      "тельности": 7090,
      "зив": 7091,
      "зим": 7092,
      "зирует": 7093,
      "страт": 7094,
      "стражи": 7095,
      "рубин": 7096,
      "град": 7097,
      "грабе": 7098,
      "любы": 7099,
      "людения": 7100,
      "целей": 7101,
      "гунов": 7102,
      "гуца": 7103,
      "щаются": 7104,
      "он.—": 7105,
      "фефи": 7106,
      "дерик": 7107,
      "возник": 7108,
      "онации": 7109,
      "сообщения": 7110,
      "глаз": 7111,
      "мления": 7112,
      "лекции": 7113,
      "зная": 7114,
      "знать": 7115,
      "знамени": 7116,
      "тивов": 7117,
      "шаг": 7118,
      "шает": 7119,
      "шагом": 7120,
      "родро": 7121,
      "родствен": 7122,
      "родителей": 7123,
      "облага": 7124,
      "меров": 7125,
      "мервае": 7126,
      "правления": 7127,
      "правовой": 7128,
      "осмыс": 7129,
      "ходные": 7130,
      "ходят": 7131,
      "анта": 7132,
      "анской": 7133,
      "андра": 7134,
      "англи": 7135,
      "антон": 7136,
      "план": 7137,
      "плака": 7138,
      "плате": 7139,
      "метри": 7140,
      "метте": 7141,
      "метьев": 7142,
      "лениях": 7143,
      "специфи": 7144,
      "аква": 7145,
      "актер": 7146,
      "актри": 7147,
      "аксай": 7148,
      "аксен": 7149,
      "актуа": 7150,
      "форвар": 7151,
      "мый": 7152,
      "мым": 7153,
      "бил": 7154,
      "стефан": 7155,
      "арное": 7156,
      "армей": 7157,
      "арсена": 7158,
      "артамо": 7159,
      "данное": 7160,
      "торг": 7161,
      "торной": 7162,
      "перепи": 7163,
      "перекры": 7164,
      "трем": 7165,
      "ятской": 7166,
      "явление": 7167,
      "миниму": 7168,
      "свр": 7169,
      "партий": 7170,
      "зывы": 7171,
      "зывать": 7172,
      "женного": 7173,
      "женный": 7174,
      "компанией": 7175,
      "собран": 7176,
      "российским": 7177,
      "российское": 7178,
      "ствием": 7179,
      "бывших": 7180,
      "провинции": 7181,
      "органах": 7182,
      "органной": 7183,
      "гене": 7184,
      "гендиректор": 7185,
      "рфс": 7186,
      "полной": 7187,
      "полгода": 7188,
      "марской": 7189,
      "следования": 7190,
      "следственного": 7191,
      "следствием": 7192,
      "становится": 7193,
      "становятся": 7194,
      "цах": 7195,
      "цену": 7196,
      "ценно": 7197,
      "рассе": 7198,
      "рассмо": 7199,
      "расскаж": 7200,
      "расследу": 7201,
      "евском": 7202,
      "евремен": 7203,
      "судна": 7204,
      "судья": 7205,
      "региональных": 7206,
      "региональном": 7207,
      "региональными": 7208,
      "расп": 7209,
      "расша": 7210,
      "расход": 7211,
      "начало": 7212,
      "логического": 7213,
      "своевремен": 7214,
      "никах": 7215,
      "службой": 7216,
      "ренных": 7217,
      "четверо": 7218,
      "повер": 7219,
      "повтор": 7220,
      "повсед": 7221,
      "среды": 7222,
      "средним": 7223,
      "средняя": 7224,
      "средством": 7225,
      "обошлось": 7226,
      "дингу": 7227,
      "серб": 7228,
      "серти": 7229,
      "серги": 7230,
      "серий": 7231,
      "произведения": 7232,
      "району": 7233,
      "вуза": 7234,
      "ветера": 7235,
      "ветери": 7236,
      "местного": 7237,
      "местной": 7238,
      "местными": 7239,
      "местному": 7240,
      "владелец": 7241,
      "сызран": 7242,
      "центры": 7243,
      "центром": 7244,
      "детонации": 7245,
      "кластер": 7246,
      "кластере": 7247,
      "плоть": 7248,
      "странснадзора": 7249,
      "геор": 7250,
      "ционные": 7251,
      "ционно-": 7252,
      "ционному": 7253,
      "прессы": 7254,
      "строительстве": 7255,
      "никита": 7256,
      "вреда": 7257,
      "крыма": 7258,
      "стовский": 7259,
      "наруш": 7260,
      "нейро": 7261,
      "публику": 7262,
      "пресс-конференции": 7263,
      "снижении": 7264,
      "снизить": 7265,
      "несет": 7266,
      "испы": 7267,
      "испыта": 7268,
      "исковые": 7269,
      "исчез": 7270,
      "войск": 7271,
      "войдет": 7272,
      "окна": 7273,
      "утся": 7274,
      "чением": 7275,
      "представления": 7276,
      "представление": 7277,
      "представляет": 7278,
      "представляют": 7279,
      "представлены": 7280,
      "ходило": 7281,
      "федеральные": 7282,
      "федеральном": 7283,
      "городская": 7284,
      "городтранс": 7285,
      "городу": 7286,
      "черных": 7287,
      "черников": 7288,
      "чернен": 7289,
      "стремится": 7290,
      "общество": 7291,
      "ловая": 7292,
      "говорят": 7293,
      "учета": 7294,
      "техниче": 7295,
      "анапе": 7296,
      "аналог": 7297,
      "фоном": 7298,
      "реальные": 7299,
      "друже": 7300,
      "спиной": 7301,
      "колон": 7302,
      "согласи": 7303,
      "соглашений": 7304,
      "величи": 7305,
      "великобр": 7306,
      "москвой": 7307,
      "зепати": 7308,
      "заявив": 7309,
      "ложной": 7310,
      "манга": 7311,
      "рованными": 7312,
      "надца": 7313,
      "направят": 7314,
      "направлено": 7315,
      "направленное": 7316,
      "составят": 7317,
      "составляют": 7318,
      "туриста": 7319,
      "турище": 7320,
      "янъ": 7321,
      "создал": 7322,
      "создает": 7323,
      "директору": 7324,
      "шенными": 7325,
      "щенятской": 7326,
      "колоб": 7327,
      "коллед": 7328,
      "колченко": 7329,
      "коллега": 7330,
      "дороже": 7331,
      "дороге": 7332,
      "дорогах": 7333,
      "обвинили": 7334,
      "обвинитель": 7335,
      "обвинений": 7336,
      "ителям": 7337,
      "ителями": 7338,
      "министров": 7339,
      "структура": 7340,
      "аэродро": 7341,
      "драки": 7342,
      "словно": 7343,
      "лично": 7344,
      "личных": 7345,
      "личная": 7346,
      "но-техни": 7347,
      "но-медицин": 7348,
      "стороной": 7349,
      "участки": 7350,
      "участника": 7351,
      "участники": 7352,
      "установлен": 7353,
      "установления": 7354,
      "установили": 7355,
      "установлена": 7356,
      "установлены": 7357,
      "обращения": 7358,
      "обращение": 7359,
      "задержания": 7360,
      "руководил": 7361,
      "предельно": 7362,
      "специальные": 7363,
      "специально": 7364,
      "специальное": 7365,
      "получило": 7366,
      "обезболи": 7367,
      "необы": 7368,
      "стройках": 7369,
      "основная": 7370,
      "основой": 7371,
      "продав": 7372,
      "ведений": 7373,
      "образование": 7374,
      "мостью": 7375,
      "отметила": 7376,
      "планирования": 7377,
      "планировалось": 7378,
      "руководства": 7379,
      "руководители": 7380,
      "добав": 7381,
      "импор": 7382,
      "кроссов": 7383,
      "осталась": 7384,
      "осталось": 7385,
      "остались": 7386,
      "оставаться": 7387,
      "сроков": 7388,
      "товая": 7389,
      "товара": 7390,
      "товарного": 7391,
      "управлением": 7392,
      "управлял": 7393,
      "точное": 7394,
      "точкой": 7395,
      "состава": 7396,
      "городами": 7397,
      "всероссийских": 7398,
      "все-таки": 7399,
      "прошлым": 7400,
      "турпотока": 7401,
      "открылась": 7402,
      "открылось": 7403,
      "территорию": 7404,
      "петров": 7405,
      "петухов": 7406,
      "признан": 7407,
      "признано": 7408,
      "признали": 7409,
      "признаны": 7410,
      "признании": 7411,
      "политическое": 7412,
      "сковых": 7413,
      "факт": 7414,
      "чинской": 7415,
      "государственных": 7416,
      "июнь": 7417,
      "груди": 7418,
      "жением": 7419,
      "зовы": 7420,
      "назначения": 7421,
      "назначении": 7422,
      "главного": 7423,
      "главной": 7424,
      "главное": 7425,
      "главными": 7426,
      "брани": 7427,
      "крупный": 7428,
      "крупном": 7429,
      "ничества": 7430,
      "мирных": 7431,
      "новороссий": 7432,
      "новороссийске": 7433,
      "новостройках": 7434,
      "советом": 7435,
      "провел": 7436,
      "провести": 7437,
      "ждена": 7438,
      "жденных": 7439,
      "зывала": 7440,
      "компаниям": 7441,
      "let": 7442,
      "занимают": 7443,
      "занимающихся": 7444,
      "интерьеров": 7445,
      "дентов": 7446,
      "оказали": 7447,
      "самово": 7448,
      "площадках": 7449,
      "обеспечили": 7450,
      "тенден": 7451,
      "этажа": 7452,
      "курент": 7453,
      "первым": 7454,
      "формируется": 7455,
      "формировать": 7456,
      "участию": 7457,
      "участия": 7458,
      "шинный": 7459,
      "минэконом": 7460,
      "высоте": 7461,
      "высокого": 7462,
      "высокий": 7463,
      "высокую": 7464,
      "судах": 7465,
      "результат": 7466,
      "энергией": 7467,
      "ступили": 7468,
      "автомати": 7469,
      "отец": 7470,
      "украшений": 7471,
      "ъ-ростов": 7472,
      "ъ-черно": 7473,
      "ъ-приволж": 7474,
      "матических": 7475,
      "матические": 7476,
      "принят": 7477,
      "приняты": 7478,
      "мэром": 7479,
      "смотреть": 7480,
      "сможет": 7481,
      "хищ": 7482,
      "хина": 7483,
      "хими": 7484,
      "чув": 7485,
      "законную": 7486,
      "ворота": 7487,
      "логом": 7488,
      "отдел": 7489,
      "отделом": 7490,
      "активного": 7491,
      "активности": 7492,
      "действиях": 7493,
      "возможных": 7494,
      "возможностью": 7495,
      "альная": 7496,
      "альметьев": 7497,
      "включает": 7498,
      "включено": 7499,
      "нарной": 7500,
      "наркома": 7501,
      "военных": 7502,
      "военный": 7503,
      "выпустили": 7504,
      "отмечено": 7505,
      "отмечают": 7506,
      "соверша": 7507,
      "совершении": 7508,
      "нормати": 7509,
      "показывают": 7510,
      "числен": 7511,
      "предложили": 7512,
      "организаторы": 7513,
      "электроэнергии": 7514,
      "электроэнергией": 7515,
      "продолжат": 7516,
      "продолжать": 7517,
      "экономической": 7518,
      "неторгов": 7519,
      "поселок": 7520,
      "кампании": 7521,
      "качества": 7522,
      "исполнен": 7523,
      "исполнение": 7524,
      "исполнитель": 7525,
      "петербурга": 7526,
      "стратегия": 7527,
      "-летнюю": 7528,
      "земье": 7529,
      "клиента": 7530,
      "митро": 7531,
      "определяется": 7532,
      "тяж": 7533,
      "удара": 7534,
      "условно": 7535,
      "подала": 7536,
      "доходы": 7537,
      "выставят": 7538,
      "шиеся": 7539,
      "аозт": 7540,
      "дроны": 7541,
      "ростовская": 7542,
      "гордумы": 7543,
      "частного": 7544,
      "помощника": 7545,
      "обвиняют": 7546,
      "жизне": 7547,
      "жизнен": 7548,
      "многофункциона": 7549,
      "сферах": 7550,
      "ланье": 7551,
      "завершения": 7552,
      "завершил": 7553,
      "молодо": 7554,
      "молодой": 7555,
      "размещена": 7556,
      "случай": 7557,
      "трамвая": 7558,
      "санкции": 7559,
      "октябре": 7560,
      "октябрь": 7561,
      "соответствующие": 7562,
      "поддержке": 7563,
      "поддержкой": 7564,
      "ang": 7565,
      "anto": 7566,
      "anel": 7567,
      "ховска": 7568,
      "шкирии": 7569,
      "польном": 7570,
      "поставщиков": 7571,
      "запрета": 7572,
      "запрете": 7573,
      "заключил": 7574,
      "заключили": 7575,
      "валент": 7576,
      "валерий": 7577,
      "существенно": 7578,
      "краевого": 7579,
      "основатель": 7580,
      "сотрудничестве": 7581,
      "букмеке": 7582,
      "иниции": 7583,
      "нижнем": 7584,
      "достигла": 7585,
      "семьи": 7586,
      "белый": 7587,
      "белгородской": 7588,
      "красной": 7589,
      "красную": 7590,
      "складской": 7591,
      "обороте": 7592,
      "законодательного": 7593,
      "ari": 7594,
      "graph": 7595,
      "дмитрия": 7596,
      "госстроительству": 7597,
      "госзакупок": 7598,
      "западе": 7599,
      "запасов": 7600,
      "заседания": 7601,
      "важным": 7602,
      "недоста": 7603,
      "газета": 7604,
      "газпрома": 7605,
      "щийся": 7606,
      "гражданского": 7607,
      "гражданских": 7608,
      "организовал": 7609,
      "организована": 7610,
      "нарушениях": 7611,
      "требованием": 7612,
      "французы": 7613,
      "зерка": 7614,
      "играх": 7615,
      "счетом": 7616,
      "трудо": 7617,
      "пожара": 7618,
      "волк": 7619,
      "процессе": 7620,
      "сутки": 7621,
      "тысячи": 7622,
      "способен": 7623,
      "способности": 7624,
      "особой": 7625,
      "генераторы": 7626,
      "повышать": 7627,
      "кандидатов": 7628,
      "надлежа": 7629,
      "судебно-медицин": 7630,
      "штрафы": 7631,
      "Россий": 7632,
      "огне": 7633,
      "смены": 7634,
      "южного": 7635,
      "южный": 7636,
      "правонарушении": 7637,
      "правопреем": 7638,
      "совместных": 7639,
      "воздух": 7640,
      "аренд": 7641,
      "проводить": 7642,
      "бизнесмена": 7643,
      "блок": 7644,
      "снг": 7645,
      "смерть": 7646,
      "смертной": 7647,
      "укрепления": 7648,
      "занятия": 7649,
      "мощность": 7650,
      "мощностей": 7651,
      "сохраня": 7652,
      "сохранения": 7653,
      "сохранять": 7654,
      "челябинского": 7655,
      "выдачи": 7656,
      "кубанской": 7657,
      "мероприятие": 7658,
      "причина": 7659,
      "округа": 7660,
      "окружа": 7661,
      "окружной": 7662,
      "исторического": 7663,
      "золотого": 7664,
      "инициативу": 7665,
      "бренд": 7666,
      "бренда": 7667,
      "бренды": 7668,
      "задач": 7669,
      "задача": 7670,
      "максимум": 7671,
      "московской": 7672,
      "московском": 7673,
      "содержанию": 7674,
      "содержащихся": 7675,
      "договоры": 7676,
      "статьи": 7677,
      "индии": 7678,
      "индика": 7679,
      "живания": 7680,
      "туристической": 7681,
      "туристических": 7682,
      "туристического": 7683,
      "источника": 7684,
      "источников": 7685,
      "позволи": 7686,
      "включать": 7687,
      "квартирах": 7688,
      "chanel": 7689,
      "григо": 7690,
      "джан": 7691,
      "сняют": 7692,
      "сделали": 7693,
      "научные": 7694,
      "национального": 7695,
      "легко": 7696,
      "миллионов": 7697,
      "сокращение": 7698,
      "сократить": 7699,
      "выделить": 7700,
      "сельскохозяй": 7701,
      "мужчина": 7702,
      "мужчину": 7703,
      "коммерческие": 7704,
      "металл": 7705,
      "большое": 7706,
      "ключевым": 7707,
      "учреждений": 7708,
      "самолеты": 7709,
      "французской": 7710,
      "инфраструктуре": 7711,
      "инфраструктуру": 7712,
      "ипотечного": 7713,
      "взаим": 7714,
      "опг": 7715,
      "опьян": 7716,
      "ярославль": 7717,
      "находилась": 7718,
      "построили": 7719,
      "лишиться": 7720,
      "мировой": 7721,
      "привлека": 7722,
      "систем": 7723,
      "объясня": 7724,
      "сервисы": 7725,
      "утверждения": 7726,
      "увеличилось": 7727,
      "воронежа": 7728,
      "санкт-петербург": 7729,
      "многих": 7730,
      "covi": 7731,
      "cola": 7732,
      "coca-": 7733,
      "внимания": 7734,
      "одесской": 7735,
      "сложной": 7736,
      "обсудили": 7737,
      "замглавы": 7738,
      "тонн": 7739,
      "доказательства": 7740,
      "доступны": 7741,
      "пациент": 7742,
      "инвалидов": 7743,
      "рыночной": 7744,
      "подтвердил": 7745,
      "безвозме": 7746,
      "пермской": 7747,
      "полицейских": 7748,
      "следственную": 7749,
      "повреждении": 7750,
      "повреждены": 7751,
      "пытаются": 7752,
      "возможностей": 7753,
      "возможностями": 7754,
      "официальных": 7755,
      "официальный": 7756,
      "кредитования": 7757,
      "ожидаем": 7758,
      "dis": 7759,
      "nor": 7760,
      "style": 7761,
      "игно": 7762,
      "энрике": 7763,
      "овощи": 7764,
      "потерял": 7765,
      "вакцин": 7766,
      "телефон": 7767,
      "телесные": 7768,
      "преступной": 7769,
      "предоставит": 7770,
      "парижа": 7771,
      "отрасле": 7772,
      "разработка": 7773,
      "разработке": 7774,
      "беременных": 7775,
      "беременными": 7776,
      "будущих": 7777,
      "регистрируется": 7778,
      "передал": 7779,
      "рассмотрения": 7780,
      "расширение": 7781,
      "связке": 7782,
      "государственную": 7783,
      "предусмотрена": 7784,
      "предусмотрено": 7785,
      "опубликовал": 7786,
      "опубликован": 7787,
      "опубликована": 7788,
      "aura": 7789,
      "auto": 7790,
      "сферы": 7791,
      "узбеки": 7792,
      "ярховска": 7793,
      "научи": 7794,
      "обычно": 7795,
      "обнаружили": 7796,
      "матче": 7797,
      "донска": 7798,
      "доннару": 7799,
      "падает": 7800,
      "видят": 7801,
      "приобрел": 7802,
      "самим": 7803,
      "самый": 7804,
      "пункты": 7805,
      "крайней": 7806,
      "кладби": 7807,
      "связанные": 7808,
      "требованиям": 7809,
      "экс-президента": 7810,
      "обратилась": 7811,
      "образованием": 7812,
      "образовательных": 7813,
      "спортсменка": 7814,
      "программах": 7815,
      "топ-менеджеров": 7816,
      "нормализова": 7817,
      "футбол": 7818,
      "футбола": 7819,
      "футболист": 7820,
      "партнеры": 7821,
      "партнерской": 7822,
      "восстановления": 7823,
      "устойчивые": 7824,
      "сравнении": 7825,
      "угрозы": 7826,
      "напомнил": 7827,
      "капитала": 7828,
      "займет": 7829,
      "промторг": 7830,
      "профессор": 7831,
      "дополнительных": 7832,
      "дополнительные": 7833,
      "отсутствия": 7834,
      "комитете": 7835,
      "предварительно": 7836,
      "вернуть": 7837,
      "вернуться": 7838,
      "четверых": 7839,
      "ответчики": 7840,
      "ответчиков": 7841,
      "административном": 7842,
      "дальнейшего": 7843,
      "дальнейшее": 7844,
      "воздушного": 7845,
      "эффективно": 7846,
      "ближайшие": 7847,
      "вице-премьер": 7848,
      "вице-мэра": 7849,
      "еревана": 7850,
      "опасности": 7851,
      "плякова": 7852,
      "тренд": 7853,
      "тренды": 7854,
      "указал": 7855,
      "поясняет": 7856,
      "пользования": 7857,
      "пользователи": 7858,
      "зарегистрирован": 7859,
      "тайник": 7860,
      "статисти": 7861,
      "статистики": 7862,
      "виновным": 7863,
      "природу": 7864,
      "приросту": 7865,
      "представили": 7866,
      "концеп": 7867,
      "бирать": 7868,
      "классический": 7869,
      "публикацию": 7870,
      "инфляция": 7871,
      "интересно": 7872,
      "отечественных": 7873,
      "украинских": 7874,
      "украинские": 7875,
      "украинским": 7876,
      "десятку": 7877,
      "тяжелом": 7878,
      "подозреваемый": 7879,
      "помещениях": 7880,
      "гимнаст": 7881,
      "идеи": 7882,
      "крови": 7883,
      "клеток": 7884,
      "оценить": 7885,
      "оценивают": 7886,
      "сборной": 7887,
      "эмоций": 7888,
      "рославия": 7889,
      "нанесли": 7890,
      "покупки": 7891,
      "посвященном": 7892,
      "далеко": 7893,
      "минуте": 7894,
      "демонстра": 7895,
      "массовый": 7896,
      "молчанов": 7897,
      "монолит": 7898,
      "прекращение": 7899,
      "высший": 7900,
      "выступят": 7901,
      "выступление": 7902,
      "курьера": 7903,
      "отчислений": 7904,
      "природы": 7905,
      "причинение": 7906,
      "весьма": 7907,
      "подготовке": 7908,
      "консуль": 7909,
      "оснащение": 7910,
      "женщина": 7911,
      "женщины": 7912,
      "рассказывала": 7913,
      "среднемного": 7914,
      "вшиеся": 7915,
      "борьбе": 7916,
      "взяла": 7917,
      "чиновников": 7918,
      "реализовано": 7919,
      "интернет-": 7920,
      "интернету": 7921,
      "внешней": 7922,
      "наблюдать": 7923,
      "экологической": 7924,
      "существуют": 7925,
      "существующие": 7926,
      "инвалидность": 7927,
      "журналиста": 7928,
      "европейской": 7929,
      "европейские": 7930,
      "серьезно": 7931,
      "серьезной": 7932,
      "муниципального": 7933,
      "tion": 7934,
      "бобров": 7935,
      "истечения": 7936,
      "оскорб": 7937,
      "осудили": 7938,
      "окончил": 7939,
      "награды": 7940,
      "награждения": 7941,
      "называют": 7942,
      "почти": 7943,
      "последующие": 7944,
      "последующем": 7945,
      "заказов": 7946,
      "запланирован": 7947,
      "закупки": 7948,
      "закупку": 7949,
      "зафиксирована": 7950,
      "танцева": 7951,
      "дефицита": 7952,
      "девелопер": 7953,
      "девелопера": 7954,
      "девелопмент": 7955,
      "союза": 7956,
      "тематический": 7957,
      "палаты": 7958,
      "отличается": 7959,
      "отказался": 7960,
      "думаю": 7961,
      "секторе": 7962,
      "супруги": 7963,
      "супругой": 7964,
      "боевых": 7965,
      "подразделений": 7966,
      "сибирской": 7967,
      "краткосро": 7968,
      "онкологи": 7969,
      "онкодис": 7970,
      "возглавлял": 7971,
      "парфюмер": 7972,
      "маршруты": 7973,
      "логистических": 7974,
      "сергею": 7975,
      "связано": 7976,
      "связаны": 7977,
      "отношениях": 7978,
      "дорогое": 7979,
      "дорогой": 7980,
      "картофеля": 7981,
      "inette": 7982,
      "стабилизации": 7983,
      "пользуется": 7984,
      "изъяты": 7985,
      "документации": 7986,
      "вероятно": 7987,
      "проблемы": 7988,
      "масштаба": 7989,
      "marie": 7990,
      "агента": 7991,
      "авиакомпании": 7992,
      "брифин": 7993,
      "влияет": 7994,
      "влияние": 7995,
      "оригина": 7996,
      "опроса": 7997,
      "ошибочно": 7998,
      "оставить": 7999,
      "оставшиеся": 8000,
      "церкви": 8001,
      "ядерными": 8002,
      "появление": 8003,
      "потребитель": 8004,
      "погибших": 8005,
      "лидерами": 8006,
      "линейка": 8007,
      "карьеры": 8008,
      "карьеру": 8009,
      "застройщик": 8010,
      "теодо": 8011,
      "видеть": 8012,
      "выращи": 8013,
      "кутляева": 8014,
      "приглаша": 8015,
      "сегмента": 8016,
      "одобрил": 8017,
      "одобрили": 8018,
      "шевская": 8019,
      "конкурировать": 8020,
      "скр.": 8021,
      "граждане": 8022,
      "целью": 8023,
      "кейсы": 8024,
      "областную": 8025,
      "помогают": 8026,
      "турниров": 8027,
      "экспертиза": 8028,
      "многоквартирного": 8029,
      "наличие": 8030,
      "западных": 8031,
      "филиппинах": 8032,
      "субботник": 8033,
      "индивидуа": 8034,
      "чемпионат": 8035,
      "финансирование": 8036,
      "объединенной": 8037,
      "объединенная": 8038,
      "замедления": 8039,
      "маркетплейсов": 8040,
      "3pl-оператора": 8041,
      "2024": 8042,
      "автобуса": 8043,
      "принципи": 8044,
      "Челябинской": 8045,
      "Челябинске": 8046,
      "bersh": 8047,
      "fig": 8048,
      "fifa": 8049,
      "sider": 8050,
      "арома": 8051,
      "звезд": 8052,
      "провайдера": 8053,
      "смарт-": 8054,
      "родился": 8055,
      "родилась": 8056,
      "романти": 8057,
      "русала": 8058,
      "сохранить": 8059,
      "динамика": 8060,
      "выявила": 8061,
      "ведомости": 8062,
      "институте": 8063,
      "бокса": 8064,
      "богаты": 8065,
      "подвеска": 8066,
      "шансы": 8067,
      "методику": 8068,
      "активи": 8069,
      "участвует": 8070,
      "участвуют": 8071,
      "героиня": 8072,
      "портале": 8073,
      "спикер": 8074,
      "корпус": 8075,
      "домашних": 8076,
      "факульт": 8077,
      "водохранилища": 8078,
      "букмекерских": 8079,
      "букмекерские": 8080,
      "огромное": 8081,
      "уральской": 8082,
      "коммунальных": 8083,
      "январе—августе": 8084,
      "калининградской": 8085,
      "финансовой": 8086,
      "привлекательность": 8087,
      "голосовали": 8088,
      "потерпевших": 8089,
      "ассоциации": 8090,
      "экспозиции": 8091,
      "появились": 8092,
      "глобальной": 8093,
      "демонстрирует": 8094,
      "электромобили": 8095,
      "атмосферы": 8096,
      "роспотребнадзора": 8097,
      "побратим": 8098,
      "библиотек": 8099,
      "библиотеки": 8100,
      "Самарской": 8101,
      "оценке": 8102,
      "осуществляется": 8103,
      "сценари": 8104,
      "устранение": 8105,
      "чтения": 8106,
      "колеба": 8107,
      "наставничества": 8108,
      "напрямую": 8109,
      "напряженности": 8110,
      "поручил": 8111,
      "попросил": 8112,
      "воспитания": 8113,
      "русский": 8114,
      "магистра": 8115,
      "морозова": 8116,
      "теплоснабжения": 8117,
      "скорости": 8118,
      "скорость": 8119,
      "дизайне": 8120,
      "подписали": 8121,
      "подписаны": 8122,
      "перене": 8123,
      "перенос": 8124,
      "людмила": 8125,
      "тратят": 8126,
      "драгоценного": 8127,
      "двустороннего": 8128,
      "взятки": 8129,
      "добывающих": 8130,
      "республиканского": 8131,
      "республиканских": 8132,
      "спектакль": 8133,
      "футбольной": 8134,
      "регулярно": 8135,
      "удовлетворил": 8136,
      "флагман": 8137,
      "оружием": 8138,
      "десятилетия": 8139,
      "дефицит": 8140,
      "архитектура": 8141,
      "индустрии": 8142,
      "индустрий": 8143,
      "Петербурга": 8144,
      "Петербурге": 8145,
      "внутренние": 8146,
      "правоохранители": 8147,
      "правоохранительные": 8148,
      "Башкирии": 8149,
      "Кубани": 8150,
      "Новороссийске": 8151,
      "брюссе": 8152,
      "вкус": 8153,
      "введении": 8154,
      "вспле": 8155,
      "вспых": 8156,
      "жертв": 8157,
      "и.о.": 8158,
      "ищет": 8159,
      "охраны": 8160,
      "ртз": 8161,
      "среду": 8162,
      "спаль": 8163,
      "углепро": 8164,
      "удив": 8165,
      "умышленники": 8166,
      "начнут": 8167,
      "наследие": 8168,
      "начинать": 8169,
      "горячей": 8170,
      "потратить": 8171,
      "положительное": 8172,
      "посетителей": 8173,
      "лазерной": 8174,
      "кавказ": 8175,
      "каких-то": 8176,
      "токаев": 8177,
      "лестничных": 8178,
      "декларации": 8179,
      "мальчик": 8180,
      "магазин": 8181,
      "магазинов": 8182,
      "проезжей": 8183,
      "допущен": 8184,
      "скончался": 8185,
      "выполнили": 8186,
      "выиграл": 8187,
      "куратор": 8188,
      "отдаленных": 8189,
      "отвечает": 8190,
      "мегаполи": 8191,
      "применением": 8192,
      "инвесторов": 8193,
      "метротрамвая": 8194,
      "армия": 8195,
      "полугодии": 8196,
      "поводу": 8197,
      "халитов": 8198,
      "детьми": 8199,
      "креативных": 8200,
      "реализуются": 8201,
      "инфекции": 8202,
      "режиссер": 8203,
      "альянса": 8204,
      "альянсом": 8205,
      "вооруженных": 8206,
      "третьего": 8207,
      "турецкой": 8208,
      "способствует": 8209,
      "глубокого": 8210,
      "космической": 8211,
      "сократилась": 8212,
      "мужчины": 8213,
      "рекоменда": 8214,
      "агрессив": 8215,
      "отражает": 8216,
      "подъездах": 8217,
      "ожоговый": 8218,
      "нецензурной": 8219,
      "праздник": 8220,
      "цимлянское": 8221,
      "eek": 8222,
      "ВСУ": 8223,
      "Дании": 8224,
      "виталина": 8225,
      "вторник": 8226,
      "гинцбург": 8227,
      "дворе": 8228,
      "драйве": 8229,
      "злоумышленники": 8230,
      "кбха": 8231,
      "осипов": 8232,
      "съезде": 8233,
      "сведениям": 8234,
      "пороге": 8235,
      "поколения": 8236,
      "катунь": 8237,
      "восьми": 8238,
      "прогноз": 8239,
      "дочерней": 8240,
      "пашинян": 8241,
      "памятника": 8242,
      "кулакова": 8243,
      "салавата": 8244,
      "ведутся": 8245,
      "индонезии": 8246,
      "оркестр": 8247,
      "спонсо": 8248,
      "сигнальной": 8249,
      "контакт": 8250,
      "любом": 8251,
      "церемония": 8252,
      "возгорания": 8253,
      "сообщества": 8254,
      "значимость": 8255,
      "студенты": 8256,
      "казахстан": 8257,
      "освещение": 8258,
      "объявлен": 8259,
      "аккумуля": 8260,
      "форсайтовской": 8261,
      "владельца": 8262,
      "нейтральный": 8263,
      "компенса": 8264,
      "вторичном": 8265,
      "грозят": 8266,
      "сегодняшний": 8267,
      "электрокары": 8268,
      "проверяет": 8269,
      "арестантов": 8270,
      "распоряжение": 8271,
      "процедур": 8272,
      "филиала": 8273,
      "регулятора": 8274,
      "коммуникация": 8275,
      "коронавируса": 8276,
      "зарплату": 8277,
      "грибкова": 8278,
      "миллиардером": 8279,
      "диапазоне": 8280,
      "голословными": 8281,
      "шестимиллионного": 8282,
      "антикоррупционное": 8283,
      "наибольшее": 8284,
      "розничные": 8285,
      "муниципалитета": 8286,
      "осколочное": 8287,
      "индивидуальное": 8288,
      "внутриполитической": 8289,
      "вымогательстве": 8290,
      "хоккейный": 8291,
      "звонков": 8292,
      "иркутской": 8293,
      "созданная": 8294,
      "превратились": 8295,
      "Краснодаре": 8296,
      "вашингтона": 8297,
      "мониторинга": 8298,
      "СВО": 8299,
      "СИЗО": 8300,
      "Совета": 8301,
      "Саратовской": 8302,
      "бречалов": 8303,
      "взыска": 8304,
      "дворца": 8305,
      "евича": 8306,
      "истца": 8307,
      "младен": 8308,
      "нью-й": 8309,
      "опухо": 8310,
      "одежду": 8311,
      "схемы": 8312,
      "спроса": 8313,
      "труппы": 8314,
      "титулы": 8315,
      "улететь": 8316,
      "умерла": 8317,
      "уфимском": 8318,
      "хетч": 8319,
      "эпидеми": 8320,
      "юбилей": 8321,
      "редактора": 8322,
      "религиоз": 8323,
      "налогообложения": 8324,
      "погибли": 8325,
      "поступают": 8326,
      "лаборато": 8327,
      "нелегальных": 8328,
      "маслаков": 8329,
      "мотофестиваля": 8330,
      "созыве": 8331,
      "пробегом": 8332,
      "тирзепати": 8333,
      "теплов": 8334,
      "премьера": 8335,
      "пределах": 8336,
      "презентации": 8337,
      "дисплей": 8338,
      "чебановым": 8339,
      "кулибин": 8340,
      "инженер": 8341,
      "изотова": 8342,
      "подконтрольных": 8343,
      "бакалинская": 8344,
      "предъяв": 8345,
      "прашивают": 8346,
      "шеф-редактора": 8347,
      "первомай": 8348,
      "вертолет": 8349,
      "гурарий": 8350,
      "случившегося": 8351,
      "возведение": 8352,
      "развлекатель": 8353,
      "гельсе": 8354,
      "краснокнижных": 8355,
      "анастасия": 8356,
      "другое": 8357,
      "эксперименти": 8358,
      "планируем": 8359,
      "импровизации": 8360,
      "группировки": 8361,
      "унифицирован": 8362,
      "фактически": 8363,
      "проведении": 8364,
      "матиаса": 8365,
      "ссылается": 8366,
      "фундамента": 8367,
      "бенефициа": 8368,
      "предусматривает": 8369,
      "хватает": 8370,
      "партнерами": 8371,
      "субъектов": 8372,
      "очевидно": 8373,
      "пензенской": 8374,
      "светлана": 8375,
      "аутизмом": 8376,
      "гриппа": 8377,
      "пандемии": 8378,
      "металлурги": 8379,
      "коллективы": 8380,
      "аварийных": 8381,
      "сурдоперевод": 8382,
      "парламентской": 8383,
      "антимонопо": 8384,
      "флаконов": 8385,
      "дюсапена": 8386,
      "отличие": 8387,
      "символики": 8388,
      "парфюмерии": 8389,
      "опрошенных": 8390,
      "горовиц": 8391,
      "теплоснабжающей": 8392,
      "госпитализи": 8393,
      "совещании": 8394,
      "собеседник": 8395,
      "Екатеринбурга": 8396,
      "убийства": 8397,
      "эксплуатацию": 8398,
      "апарт-комплексов": 8399,
      "мишустин": 8400,
      "pave": 8401,
      "«Россети": 8402,
      "ДТП": 8403,
      "Кузбасс": 8404,
      "адап": 8405,
      "алюми": 8406,
      "аудиоги": 8407,
      "брусь": 8408,
      "ввп": 8409,
      "вскоре": 8410,
      "вчера": 8411,
      "впечат": 8412,
      "гвардии": 8413,
      "елабу": 8414,
      "египет": 8415,
      "мбаппе": 8416,
      "плюс": 8417,
      "приток": 8418,
      "смирнова": 8419,
      "убыт": 8420,
      "уханева": 8421,
      "углуб": 8422,
      "фредерик": 8423,
      "фьючер": 8424,
      "кочевых": 8425,
      "конусов": 8426,
      "косыгина": 8427,
      "госкомпаний": 8428,
      "госорга": 8429,
      "покончить": 8430,
      "какое-то": 8431,
      "обсерва": 8432,
      "даровских": 8433,
      "киреевой": 8434,
      "вариантов": 8435,
      "руфия": 8436,
      "руслан": 8437,
      "миклашевская": 8438,
      "неординар": 8439,
      "неосторожности": 8440,
      "лошадиных": 8441,
      "цивилизаций": 8442,
      "молекуляр": 8443,
      "соискателей": 8444,
      "соотечествен": 8445,
      "тестостеро": 8446,
      "дуцзянъ": 8447,
      "гарантирует": 8448,
      "одновременно": 8449,
      "поднималась": 8450,
      "подлежат": 8451,
      "предсказу": 8452,
      "скромными": 8453,
      "фиксации": 8454,
      "любые": 8455,
      "гуцана": 8456,
      "андраник": 8457,
      "повседнев": 8458,
      "ветеринарной": 8459,
      "сызранском": 8460,
      "черненко": 8461,
      "великобрита": 8462,
      "минэкономразвития": 8463,
      "ъ-черноземье": 8464,
      "ъ-приволжье": 8465,
      "antoinette": 8466,
      "опьянения": 8467,
      "coca-cola": 8468,
      "безвозмезд": 8469,
      "autograph": 8470,
      "онкодиспан": 8471,
      "брифинге": 8472,
      "bershka": 8473,
      "углепроме": 8474,
      "фредериксен": 8475,
      ",8": 8476,
      "-ф": 8477,
      "-мет": 8478,
      "-м.": 8479,
      "-экспо": 8480,
      "-оздоров": 8481,
      "-центров": 8482,
      "-миллион": 8483,
      "-интерфакс": 8484,
      "-дюймов": 8485,
      ".pro": 8486,
      "01": 8487,
      "28": 8488,
      "50": 8489,
      "80": 8490,
      "Co": 8491,
      "IN": 8492,
      "ag": 8493,
      "ak": 8494,
      "az": 8495,
      "avi": 8496,
      "ama": 8497,
      "ada": 8498,
      "bn": 8499,
      "bla": 8500,
      "ck": 8501,
      "con": 8502,
      "car": 8503,
      "ction": 8504,
      "d.": 8505,
      "den": 8506,
      "e-": 8507,
      "eg": 8508,
      "eu": 8509,
      "fo": 8510,
      "fu": 8511,
      "fra": 8512,
      "ful": 8513,
      "gri": 8514,
      "gaz": 8515,
      "hh": 8516,
      "ip": 8517,
      "id.": 8518,
      "ki": 8519,
      "ly": 8520,
      "lil": 8521,
      "m2": 8522,
      "na": 8523,
      "n-мет": 8524,
      "ot": 8525,
      "po": 8526,
      "pt": 8527,
      "pan": 8528,
      "pfi": 8529,
      "pura": 8530,
      "p.pro": 8531,
      "rin": 8532,
      "so": 8533,
      "san": 8534,
      "sla": 8535,
      "ssi": 8536,
      "sms": 8537,
      "sera": 8538,
      "th": 8539,
      "tra": 8540,
      "tti": 8541,
      "t.ru": 8542,
      "taf": 8543,
      "tsera": 8544,
      "u9": 8545,
      "ue": 8546,
      "ver": 8547,
      "vari": 8548,
      "xv": 8549,
      "xxi": 8550,
      "ypt": 8551,
      "zer": 8552,
      "zeek": 8553,
      "«С": 8554,
      "«Ин": 8555,
      "«Аэро": 8556,
      "АЗ": 8557,
      "АС": 8558,
      "Ана": 8559,
      "Алек": 8560,
      "Аланье": 8561,
      "ВД": 8562,
      "Вы": 8563,
      "Все": 8564,
      "Вик": 8565,
      "Го": 8566,
      "Ген": 8567,
      "ДН": 8568,
      "До": 8569,
      "Дер": 8570,
      "Дона": 8571,
      "Ижев": 8572,
      "КР": 8573,
      "Ком": 8574,
      "МУ": 8575,
      "Ма": 8576,
      "МВД": 8577,
      "НП": 8578,
      "Не": 8579,
      "Ни": 8580,
      "Нов": 8581,
      "Один": 8582,
      "Омской": 8583,
      "Под": 8584,
      "Поль": 8585,
      "Поли": 8586,
      "СБ": 8587,
      "Си": 8588,
      "Сер": 8589,
      "Ста": 8590,
      "Суд": 8591,
      "СКР": 8592,
      "Три": 8593,
      "Ура": 8594,
      "Уфе": 8595,
      "Фо": 8596,
      "ФАС": 8597,
      "ФСБ": 8598,
      "Цент": 8599,
      "Ча": 8600,
      "Чем": 8601,
      "Экс": 8602,
      "ани": 8603,
      "ажи": 8604,
      "аск": 8605,
      "астро": 8606,
      "анима": 8607,
      "ады": 8608,
      "афер": 8609,
      "азер": 8610,
      "амина": 8611,
      "аурус": 8612,
      "бл": 8613,
      "бэ": 8614,
      "бя": 8615,
      "бэн": 8616,
      "бмр": 8617,
      "брян": 8618,
      "вво": 8619,
      "вме": 8620,
      "вча": 8621,
      "вля": 8622,
      "вных": 8623,
      "впра": 8624,
      "влек": 8625,
      "втра": 8626,
      "вуча": 8627,
      "вета": 8628,
      "вбли": 8629,
      "вление": 8630,
      "вступ": 8631,
      "втора": 8632,
      "ввели": 8633,
      "вкар": 8634,
      "вью": 8635,
      "вместо": 8636,
      "входа": 8637,
      "ввода": 8638,
      "вшую": 8639,
      "вплоть": 8640,
      "гова": 8641,
      "гви": 8642,
      "дэ": 8643,
      "дя": 8644,
      "дка": 8645,
      "дки": 8646,
      "дры": 8647,
      "дже": 8648,
      "двер": 8649,
      "дется": 8650,
      "дце": 8651,
      "днем": 8652,
      "древ": 8653,
      "дсмен": 8654,
      "дкп": 8655,
      "емо": 8656,
      "еще": 8657,
      "елен": 8658,
      "ером": 8659,
      "евого": 8660,
      "евом": 8661,
      "жов": 8662,
      "жна": 8663,
      "жки": 8664,
      "жня": 8665,
      "жбы": 8666,
      "жную": 8667,
      "жог": 8668,
      "зг": 8669,
      "зин": 8670,
      "зона": 8671,
      "зную": 8672,
      "зев": 8673,
      "звать": 8674,
      "змати": 8675,
      "звен": 8676,
      "зрели": 8677,
      "звуча": 8678,
      "ип": 8679,
      "ич": 8680,
      "иро": 8681,
      "ика": 8682,
      "иче": 8683,
      "иден": 8684,
      "илась": 8685,
      "ивать": 8686,
      "идея": 8687,
      "исай": 8688,
      "ивал": 8689,
      "ижев": 8690,
      "йс": 8691,
      "йские": 8692,
      "кно": 8693,
      "кты": 8694,
      "кции": 8695,
      "лго": 8696,
      "лле": 8697,
      "лба": 8698,
      "лфи": 8699,
      "ллек": 8700,
      "ллина": 8701,
      "мки": 8702,
      "мва": 8703,
      "мсу": 8704,
      "мгу": 8705,
      "мита": 8706,
      "моби": 8707,
      "мнения": 8708,
      "мм.": 8709,
      "мовая": 8710,
      "н.": 8711,
      "нди": 8712,
      "нется": 8713,
      "нце": 8714,
      "нского": 8715,
      "ндер": 8716,
      "нная": 8717,
      "нета": 8718,
      "нную": 8719,
      "нтю": 8720,
      "нгви": 8721,
      "оч": 8722,
      "ора": 8723,
      "ода": 8724,
      "оса": 8725,
      "ому": 8726,
      "отель": 8727,
      "оправ": 8728,
      "ологи": 8729,
      "остан": 8730,
      "озем": 8731,
      "одина": 8732,
      "олиц": 8733,
      "окаж": 8734,
      "опусти": 8735,
      "очное": 8736,
      "ополитической": 8737,
      "осозна": 8738,
      "оспорить": 8739,
      "окладов": 8740,
      "опрашивают": 8741,
      "пь": 8742,
      "пка": 8743,
      "пче": 8744,
      "пиз": 8745,
      "псев": 8746,
      "рп": 8747,
      "рской": 8748,
      "рент": 8749,
      "рска": 8750,
      "рная": 8751,
      "рении": 8752,
      "рвали": 8753,
      "рцов": 8754,
      "с»": 8755,
      "ср": 8756,
      "сного": 8757,
      "слю": 8758,
      "сдер": 8759,
      "сить": 8760,
      "справ": 8761,
      "сход": 8762,
      "смы": 8763,
      "снова": 8764,
      "сцени": 8765,
      "слиш": 8766,
      "сцены": 8767,
      "сходов": 8768,
      "считы": 8769,
      "спарк": 8770,
      "снимать": 8771,
      "сзфо": 8772,
      "счел": 8773,
      "тли": 8774,
      "тит": 8775,
      "тение": 8776,
      "тент": 8777,
      "тности": 8778,
      "тность": 8779,
      "тита": 8780,
      "тэк": 8781,
      "тится": 8782,
      "тятся": 8783,
      "тнефть": 8784,
      "тэли": 8785,
      "упо": 8786,
      "уль": 8787,
      "упро": 8788,
      "уса": 8789,
      "ужа": 8790,
      "уси": 8791,
      "утра": 8792,
      "удержа": 8793,
      "уступ": 8794,
      "убор": 8795,
      "уфа": 8796,
      "умира": 8797,
      "ушел": 8798,
      "умвд": 8799,
      "ушла": 8800,
      "ухода": 8801,
      "угодно": 8802,
      "уплаты": 8803,
      "устана": 8804,
      "ущем": 8805,
      "урегули": 8806,
      "уилья": 8807,
      "уволи": 8808,
      "ускор": 8809,
      "устья": 8810,
      "увидеть": 8811,
      "фр": 8812,
      "фт": 8813,
      "фен": 8814,
      "фли": 8815,
      "фле": 8816,
      "фар": 8817,
      "фета": 8818,
      "фуни": 8819,
      "флот": 8820,
      "фрак": 8821,
      "фсин": 8822,
      "фнс": 8823,
      "х.": 8824,
      "хит": 8825,
      "хле": 8826,
      "хор": 8827,
      "хности": 8828,
      "хав": 8829,
      "худ": 8830,
      "цб": 8831,
      "цвет": 8832,
      "цкий": 8833,
      "цкое": 8834,
      "чны": 8835,
      "чне": 8836,
      "чется": 8837,
      "чке": 8838,
      "чок": 8839,
      "чук": 8840,
      "чрез": 8841,
      "чжуа": 8842,
      "шер": 8843,
      "шка": 8844,
      "шова": 8845,
      "шный": 8846,
      "шке": 8847,
      "шится": 8848,
      "шкой": 8849,
      "шкова": 8850,
      "швед": 8851,
      "штам": 8852,
      "шних": 8853,
      "штой": 8854,
      "ъю": 8855,
      "ьми": 8856,
      "ьем": 8857,
      "эл": 8858,
      "эль": 8859,
      "эки": 8860,
      "эду": 8861,
      "экра": 8862,
      "эска": 8863,
      "эфе": 8864,
      "юра": 8865,
      "юно": 8866,
      "юго": 8867,
      "юми": 8868,
      "юсти": 8869,
      "юга": 8870,
      "яо": 8871,
      "яма": 8872,
      "ящий": 8873,
      "янина": 8874,
      "ямаль": 8875,
      "явив": 8876,
      "ярославия": 8877,
      "ёв": 8878,
      "—июне": 8879,
      "стской": 8880,
      "стент": 8881,
      "стке": 8882,
      "стном": 8883,
      "стеров": 8884,
      "енко": 8885,
      "енности": 8886,
      "ову": 8887,
      "овую": 8888,
      "рат": 8889,
      "рада": 8890,
      "раста": 8891,
      "рача": 8892,
      "ражи": 8893,
      "ратор": 8894,
      "рапова": 8895,
      "роско": 8896,
      "росс": 8897,
      "розы": 8898,
      "рором": 8899,
      "россы": 8900,
      "ролик": 8901,
      "рочных": 8902,
      "россе": 8903,
      "романа": 8904,
      "романов": 8905,
      "рополя": 8906,
      "ространснадзора": 8907,
      "рожденных": 8908,
      "ног": 8909,
      "ноже": 8910,
      "нослуж": 8911,
      "нослов": 8912,
      "носков": 8913,
      "нокур": 8914,
      "номина": 8915,
      "ногами": 8916,
      "ночей": 8917,
      "номера": 8918,
      "реп": 8919,
      "рест": 8920,
      "река": 8921,
      "реме": 8922,
      "реке": 8923,
      "реша": 8924,
      "реорганизации": 8925,
      "реконструк": 8926,
      "репин": 8927,
      "решили": 8928,
      "решить": 8929,
      "решению": 8930,
      "решается": 8931,
      "респон": 8932,
      "рецеп": 8933,
      "коб": 8934,
      "кок": 8935,
      "кока": 8936,
      "коча": 8937,
      "коля": 8938,
      "кость": 8939,
      "кожи": 8940,
      "коше": 8941,
      "коще": 8942,
      "корен": 8943,
      "коды": 8944,
      "комеди": 8945,
      "кологии": 8946,
      "кофей": 8947,
      "козака": 8948,
      "коровай": 8949,
      "нат": 8950,
      "нано": 8951,
      "наль": 8952,
      "напи": 8953,
      "наби": 8954,
      "напол": 8955,
      "наук": 8956,
      "набор": 8957,
      "наимен": 8958,
      "насчет": 8959,
      "нашу": 8960,
      "налета": 8961,
      "навли": 8962,
      "напомина": 8963,
      "насколько": 8964,
      "накопи": 8965,
      "нанимать": 8966,
      "навяз": 8967,
      "назвать": 8968,
      "гоне": 8969,
      "горы": 8970,
      "гость": 8971,
      "голы": 8972,
      "госпере": 8973,
      "пое": 8974,
      "пого": 8975,
      "поза": 8976,
      "поло": 8977,
      "пога": 8978,
      "попе": 8979,
      "пому": 8980,
      "побо": 8981,
      "пораз": 8982,
      "пожи": 8983,
      "побу": 8984,
      "позна": 8985,
      "пород": 8986,
      "потом": 8987,
      "попол": 8988,
      "посовет": 8989,
      "полот": 8990,
      "посты": 8991,
      "погруз": 8992,
      "посети": 8993,
      "посол": 8994,
      "полях": 8995,
      "пожилой": 8996,
      "нис": 8997,
      "никла": 8998,
      "никол": 8999,
      "ничной": 9000,
      "нирин": 9001,
      "ничать": 9002,
      "лии": 9003,
      "лим": 9004,
      "липе": 9005,
      "линия": 9006,
      "ливер": 9007,
      "лике": 9008,
      "лился": 9009,
      "лилась": 9010,
      "лишение": 9011,
      "лионе": 9012,
      "линию": 9013,
      "ливом": 9014,
      "лингви": 9015,
      "етон": 9016,
      "ервер": 9017,
      "ерутся": 9018,
      "льхо": 9019,
      "льят": 9020,
      "льству": 9021,
      "льников": 9022,
      "льнее": 9023,
      "льян": 9024,
      "льцы": 9025,
      "лькло": 9026,
      "лат": 9027,
      "лая": 9028,
      "лакти": 9029,
      "ламина": 9030,
      "ката": 9031,
      "каров": 9032,
      "камы": 9033,
      "какой": 9034,
      "казе": 9035,
      "кабин": 9036,
      "какого": 9037,
      "канал": 9038,
      "кастер": 9039,
      "каким": 9040,
      "капсу": 9041,
      "канала": 9042,
      "кабира": 9043,
      "кадры": 9044,
      "карача": 9045,
      "кальян": 9046,
      "обита": 9047,
      "обой": 9048,
      "общения": 9049,
      "общение": 9050,
      "общих": 9051,
      "обзор": 9052,
      "обоснова": 9053,
      "обус": 9054,
      "облик": 9055,
      "общую": 9056,
      "общении": 9057,
      "общим": 9058,
      "обжалова": 9059,
      "обоснован": 9060,
      "обследования": 9061,
      "обетон": 9062,
      "зап": 9063,
      "зато": 9064,
      "замо": 9065,
      "забо": 9066,
      "защи": 9067,
      "заце": 9068,
      "заправ": 9069,
      "запла": 9070,
      "затор": 9071,
      "забот": 9072,
      "завла": 9073,
      "занес": 9074,
      "забра": 9075,
      "заподоз": 9076,
      "закреп": 9077,
      "заплат": 9078,
      "заведения": 9079,
      "запрос": 9080,
      "запусти": 9081,
      "зарубе": 9082,
      "задействова": 9083,
      "забег": 9084,
      "закона": 9085,
      "завтра": 9086,
      "дала": 9087,
      "дава": 9088,
      "дави": 9089,
      "дать": 9090,
      "данилов": 9091,
      "итин": 9092,
      "итных": 9093,
      "итан": 9094,
      "воло": 9095,
      "воду": 9096,
      "вому": 9097,
      "вопло": 9098,
      "восп": 9099,
      "волон": 9100,
      "волог": 9101,
      "риб": 9102,
      "рид": 9103,
      "рик": 9104,
      "рим": 9105,
      "риска": 9106,
      "риев": 9107,
      "рилась": 9108,
      "рирует": 9109,
      "рижер": 9110,
      "ризмати": 9111,
      "топо": 9112,
      "тони": 9113,
      "тости": 9114,
      "тость": 9115,
      "торя": 9116,
      "тория": 9117,
      "тозаме": 9118,
      "точек": 9119,
      "тольят": 9120,
      "кили": 9121,
      "кими": 9122,
      "кисе": 9123,
      "киров": 9124,
      "кичанов": 9125,
      "ваг": 9126,
      "ваши": 9127,
      "ваем": 9128,
      "валю": 9129,
      "вающие": 9130,
      "ваемых": 9131,
      "ваемой": 9132,
      "василий": 9133,
      "леи": 9134,
      "леви": 9135,
      "леса": 9136,
      "леген": 9137,
      "левых": 9138,
      "лечении": 9139,
      "лежит": 9140,
      "леони": 9141,
      "тали": 9142,
      "таин": 9143,
      "таров": 9144,
      "тажи": 9145,
      "татар": 9146,
      "танк": 9147,
      "такое": 9148,
      "татнефть": 9149,
      "руг": 9150,
      "русле": 9151,
      "румы": 9152,
      "руются": 9153,
      "руками": 9154,
      "руссии": 9155,
      "ручной": 9156,
      "рующим": 9157,
      "рунди": 9158,
      "мид": 9159,
      "мил": 9160,
      "мики": 9161,
      "мигра": 9162,
      "миная": 9163,
      "миром": 9164,
      "мирован": 9165,
      "миг-": 9166,
      "мистской": 9167,
      "неу": 9168,
      "непри": 9169,
      "небо": 9170,
      "небе": 9171,
      "недро": 9172,
      "нехва": 9173,
      "недав": 9174,
      "небольшой": 9175,
      "нежилых": 9176,
      "нецеле": 9177,
      "неистов": 9178,
      "невозможным": 9179,
[...]
