{
  "version": "1.0",
  "truncation": null,
  "padding": null,
  "added_tokens": [
    {
      "id": 0,
      "content": "[UNK]",
      "single_word": false,
      "lstrip": false,
      "rstrip": false,
      "normalized": false,
      "special": true
    },
    {
      "id": 1,
      "content": "[PAD]",
      "single_word": false,
      "lstrip": false,
      "rstrip": false,
      "normalized": false,
      "special": true
    },
    {
      "id": 2,
      "content": "[CLS]",
      "single_word": false,
      "lstrip": false,
      "rstrip": false,
      "normalized": false,
      "special": true
    },
    {
      "id": 3,
      "content": "[SEP]",
      "single_word": false,
      "lstrip": false,
      "rstrip": false,
      "normalized": false,
      "special": true
    },
    {
      "id": 4,
      "content": "[MASK]",
      "single_word": false,
      "lstrip": false,
      "rstrip": false,
      "normalized": false,
      "special": true
    }
  ],
  "normalizer": {
    "type": "NFC"
  },
  "pre_tokenizer": {
    "type": "WhitespaceSplit"
  },
  "post_processor": null,
  "decoder": null,
  "model": {
    "type": "Unigram",
    "unk_id": 0,
    "vocab": [
      [
        "[UNK]",
        0.0
      ],
      [
        "[PAD]",
        0.0
      ],
      [
        "[CLS]",
        0.0
      ],
      [
        "[SEP]",
        0.0
      ],
      [
        "[MASK]",
        0.0
      ],
      [
        ",",
        -3.2170984387659693
      ],
      [
        ".",
        -3.3005687198488065
      ],
      [
        "и",
        -3.3495096604277528
      ],
      [
        "е",
        -3.37041894045341
      ],
      [
        "а",
        -3.5210693941268953
      ],
      [
        "m",
        -3.789674171988108
      ],
      [
        "n",
        -3.7939996971342715
      ],
      [
        "u",
        -3.806709561579858
      ],
      [
        "<",
        -3.814968518047146
      ],
      [
        ">",
        -3.814968518047146
      ],
      [
        "й",
        -3.9422661305393545
      ],
      [
        "я",
        -4.106424564342229
      ],
      [
        "ы",
        -4.240986042174429
      ],
      [
        "х",
        -4.388984145148345
      ],
      [
        "м",
        -4.450053417561286
      ],
      [
        "у",
        -4.573226846571932
      ],
      [
        "»",
        -4.674667846235779
      ],
      [
        "«",
        -4.703697914728009
      ],
      [
        "ов",
        -4.7554667236117085
      ],
      [
        "ся",
        -4.8633886963032795
      ],
      [
        "о",
        -4.878500565713555
      ],
      [
        "ой",
        -5.127549460100068
      ],
      [
        "ю",
        -5.240553130445098
      ],
      [
        "—",
        -5.258824367486202
      ],
      [
        "го",
        -5.294463693517159
      ],
      [
        "ь",
        -5.326299085558894
      ],
      [
        "ом",
        -5.364536221943829
      ],
      [
        "т",
        -5.396031293631887
      ],
      [
        "ого",
        -5.413007179621135
      ],
      [
        "в",
        -5.483551547933669
      ],
      [
        "с",
        -5.582343755476948
      ],
      [
        "ть",
        -5.675334649350796
      ],
      [
        "ет",
        -5.767005573578308
      ],
      [
        "ая",
        -5.793214123292558
      ],
      [
        "(",
        -5.85602023396246
      ],
      [
        ")",
        -5.859723937666164
      ],
      [
        "года",
        -5.889966957121301
      ],
      [
        "на",
        -5.9948205258480085
      ],
      [
        "ую",
        -6.151272119585499
      ],
      [
        "руб",
        -6.177596624600723
      ],
      [
        ":",
        -6.2014039568899255
      ],
      [
        "%",
        -6.21707503173523
      ],
      [
        "ей",
        -6.273091185832449
      ],
      [
        "за",
        -6.319617023413338
      ],
      [
        "так",
        -6.34544880371213
      ],
      [
        "л",
        -6.359947570238261
      ],
      [
        "област",
        -6.375579111089902
      ],
      [
        "году",
        -6.377700741279412
      ],
      [
        "ми",
        -6.390186525388519
      ],
      [
        "же",
        -6.415610719929158
      ],
      [
        "ых",
        -6.448843807055378
      ],
      [
        "тыс",
        -6.449267872754588
      ],
      [
        "сь",
        -6.482422229510969
      ],
      [
        "ют",
        -6.489388475640313
      ],
      [
        "это",
        -6.519227534560329
      ],
      [
        "не",
        -6.520166662039442
      ],
      [
        "н",
        -6.521446762784246
      ],
      [
        "ных",
        -6.524420754436907
      ],
      [
        "ли",
        -6.531375322966867
      ],
      [
        "росси",
        -6.543762549767064
      ],
      [
        "по",
        -6.548353407041066
      ],
      [
        "к",
        -6.559761512713284
      ],
      [
        "-",
        -6.627344389435158
      ],
      [
        "которы",
        -6.645368383042055
      ],
      [
        "но",
        -6.648497018428747
      ],
      [
        "сентябр",
        -6.6563758188133875
      ],
      [
        "п",
        -6.6575665680996465
      ],
      [
        "ами",
        -6.709981857513709
      ],
      [
        "ка",
        -6.755216668986379
      ],
      [
        "млн",
        -6.779170145033103
      ],
      [
        "рф",
        -6.781481555861832
      ],
      [
        "ской",
        -6.800720845320139
      ],
      [
        "работ",
        -6.856319143767595
      ],
      [
        "д",
        -6.883542630196384
      ],
      [
        "ч",
        -6.884734748892616
      ],
      [
        "б",
        -6.8863453972442255
      ],
      [
        "сообщил",
        -6.918327112766051
      ],
      [
        "лет",
        -6.940319197136256
      ],
      [
        "ко",
        -6.95355180000496
      ],
      [
        "ного",
        -6.976827800976078
      ],
      [
        "млрд",
        -7.019535552109515
      ],
      [
        "ки",
        -7.032679373703478
      ],
      [
        "ый",
        -7.050577823994823
      ],
      [
        "ст",
        -7.05141198764874
      ],
      [
        "ок",
        -7.075410401624586
      ],
      [
        "год",
        -7.092409402588826
      ],
      [
        "ем",
        -7.18152351393189
      ],
      [
        "суд",
        -7.185110032921576
      ],
      [
        "р",
        -7.186320762794124
      ],
      [
        "В",
        -7.242685888341638
      ],
      [
        "ий",
        -7.262228863748594
      ],
      [
        "ах",
        -7.269254851199466
      ],
      [
        "проект",
        -7.273133661805715
      ],
      [
        "господин",
        -7.305242891187141
      ],
      [
        "пресс-служб",
        -7.321357377919362
      ],
      [
        "стран",
        -7.325042138071796
      ],
      [
        "ъ",
        -7.330694876080902
      ],
      [
        "ный",
        -7.3337631782513695
      ],
      [
        "президент",
        -7.346600040335353
      ],
      [
        "развити",
        -7.3485387769578345
      ],
      [
        "компании",
        -7.351850844763559
      ],
      [
        "глав",
        -7.353684623604905
      ],
      [
        "му",
        -7.381231319845328
      ],
      [
        "их",
        -7.385308704757869
      ],
      [
        "из-",
        -7.405276901929676
      ],
      [
        "данным",
        -7.419892608113933
      ],
      [
        "сообщает",
        -7.422307003705058
      ],
      [
        "ла",
        -7.424352924333702
      ],
      [
        "район",
        -7.433657326913372
      ],
      [
        "про",
        -7.438989385206385
      ],
      [
        "котор",
        -7.46197022923166
      ],
      [
        "раз",
        -7.463506527374884
      ],
      [
        "ны",
        -7.476402105340888
      ],
      [
        "нов",
        -7.479172722296877
      ],
      [
        "ят",
        -7.480036259694053
      ],
      [
        "заявил",
        -7.496211425150969
      ],
      [
        "новы",
        -7.5027297906042385
      ],
      [
        "ш",
        -7.5076959221832364
      ],
      [
        "совет",
        -7.510876093981198
      ],
      [
        "г",
        -7.515661853269593
      ],
      [
        "врем",
        -7.5232897041746085
      ],
      [
        "`",
        -7.554303228267936
      ],
      [
        "'",
        -7.554303228267936
      ],
      [
        "под",
        -7.5695859042280595
      ],
      [
        "з",
        -7.582690933793483
      ],
      [
        "ить",
        -7.58561787867084
      ],
      [
        "ые",
        -7.593398180527195
      ],
      [
        "лось",
        -7.600310221246085
      ],
      [
        "объект",
        -7.6078663319996895
      ],
      [
        "ране",
        -7.61390920393138
      ],
      [
        "директор",
        -7.616645623736569
      ],
      [
        "региона",
        -7.623705916858501
      ],
      [
        "центр",
        -7.651567376025822
      ],
      [
        "сред",
        -7.6617504354863994
      ],
      [
        "информаци",
        -7.683415405782506
      ],
      [
        "ского",
        -7.686732244130367
      ],
      [
        "ым",
        -7.689675402494853
      ],
      [
        "дело",
        -7.697384763715753
      ],
      [
        "человек",
        -7.7003046787440725
      ],
      [
        "материал",
        -7.708560210028825
      ],
      [
        "ись",
        -7.71456040031379
      ],
      [
        "связ",
        -7.7152026247456815
      ],
      [
        "при",
        -7.720866284379603
      ],
      [
        "территори",
        -7.72708092084765
      ],
      [
        "безопасност",
        -7.73187518918825
      ],
      [
        "одно",
        -7.752178693729656
      ],
      [
        "начал",
        -7.7534487924099595
      ],
      [
        "период",
        -7.754968574312533
      ],
      [
        "отметил",
        -7.755471017594951
      ],
      [
        "сша",
        -7.755634987862781
      ],
      [
        "цен",
        -7.761522228047375
      ],
      [
        "ж",
        -7.762007743012853
      ],
      [
        "кра",
        -7.77251732145278
      ],
      [
        "против",
        -7.774649434558866
      ],
      [
        "сочи",
        -7.777260698197335
      ],
      [
        "август",
        -7.779967353977843
      ],
      [
        "составил",
        -7.781022097034736
      ],
      [
        "комплекс",
        -7.795279637367772
      ],
      [
        "други",
        -7.803911047136453
      ],
      [
        "–",
        -7.805606553302011
      ],
      [
        "отношени",
        -7.805974817715352
      ],
      [
        "от",
        -7.81029800013164
      ],
      [
        "кв",
        -7.817266739624921
      ],
      [
        "данны",
        -7.820033366226179
      ],
      [
        "жител",
        -7.829349012949525
      ],
      [
        "ук",
        -7.830806048252888
      ],
      [
        "являет",
        -7.833132734186657
      ],
      [
        "андре",
        -7.8383412421255
      ],
      [
        "александр",
        -7.859262331242448
      ],
      [
        "пример",
        -7.860168466414798
      ],
      [
        "пере",
        -7.860769881713603
      ],
      [
        "ам",
        -7.862079727247021
      ],
      [
        "регион",
        -7.866932477626657
      ],
      [
        "российски",
        -7.870951175959713
      ],
      [
        "обще",
        -7.876103063740864
      ],
      [
        "“",
        -7.8867271475805
      ],
      [
        "А",
        -7.889263705402071
      ],
      [
        "сказал",
        -7.892735039183163
      ],
      [
        "мест",
        -7.894407271014113
      ],
      [
        "таки",
        -7.895715067252919
      ],
      [
        "регионально",
        -7.896440249233583
      ],
      [
        "москв",
        -7.901405149212801
      ],
      [
        "работа",
        -7.9047900269445215
      ],
      [
        "одна",
        -7.915777714353397
      ],
      [
        "последни",
        -7.921363202775441
      ],
      [
        "вопрос",
        -7.921533478330582
      ],
      [
        "первы",
        -7.9258298602516986
      ],
      [
        "сть",
        -7.9260609275090905
      ],
      [
        "должност",
        -7.927897443840779
      ],
      [
        "s",
        -7.939165749644594
      ],
      [
        "пол",
        -7.9396001032070345
      ],
      [
        "около",
        -7.941979884274529
      ],
      [
        "С",
        -7.946487713411059
      ],
      [
        "ф",
        -7.950608655208368
      ],
      [
        "буду",
        -7.952107645473291
      ],
      [
        "ло",
        -7.954614035583305
      ],
      [
        "сотрудник",
        -7.957210657154054
      ],
      [
        "бюджет",
        -7.958347842975321
      ],
      [
        "ность",
        -7.959014386495811
      ],
      [
        "города",
        -7.959963144348174
      ],
      [
        "компания",
        -7.9643253119345765
      ],
      [
        "проекта",
        -7.965192205081827
      ],
      [
        "групп",
        -7.967907529149933
      ],
      [
        "ать",
        -7.971167464235251
      ],
      [
        "сегодня",
        -7.9746536728892945
      ],
      [
        "двух",
        -7.974889232884741
      ],
      [
        "”",
        -7.975013371160841
      ],
      [
        "владимир",
        -7.975088491147204
      ],
      [
        "уголовно",
        -7.975321573616149
      ],
      [
        "руководител",
        -7.975771415211273
      ],
      [
        "словам",
        -7.978837970273762
      ],
      [
        "ось",
        -7.9815990127939305
      ],
      [
        "ости",
        -7.984831762648131
      ],
      [
        "суда",
        -7.992107655729884
      ],
      [
        "сообщал",
        -8.001711258684267
      ],
      [
        "объем",
        -8.003573594870598
      ],
      [
        "председател",
        -8.006265032108765
      ],
      [
        "говорит",
        -8.006660475050428
      ],
      [
        "рейс",
        -8.006892470702539
      ],
      [
        "завод",
        -8.00820241393452
      ],
      [
        "аэропорт",
        -8.025242710528179
      ],
      [
        "рам",
        -8.029324335762372
      ],
      [
        "ности",
        -8.02980153838173
      ],
      [
        "результат",
        -8.03122494205533
      ],
      [
        "сти",
        -8.03598758841538
      ],
      [
        "получил",
        -8.04124267589454
      ],
      [
        "свое",
        -8.043887216053708
      ],
      [
        "ц",
        -8.04548004036483
      ],
      [
        "строительств",
        -8.047001961730285
      ],
      [
        "соглас",
        -8.048323788047323
      ],
      [
        "ведомства",
        -8.052253916862806
      ],
      [
        "сторон",
        -8.057048490742002
      ],
      [
        "дома",
        -8.065606219303962
      ],
      [
        "та",
        -8.069467031402292
      ],
      [
        "столиц",
        -8.071952804581837
      ],
      [
        "сфер",
        -8.072282650606088
      ],
      [
        "само",
        -8.073658836673493
      ],
      [
        "га",
        -8.080622323986118
      ],
      [
        "рубле",
        -8.090250670170159
      ],
      [
        "ным",
        -8.09250191429859
      ],
      [
        "депутат",
        -8.093144057132703
      ],
      [
        "ку",
        -8.094399291443455
      ],
      [
        "из",
        -8.098837932080281
      ],
      [
        "краснодар",
        -8.100556625794624
      ],
      [
        "сезон",
        -8.10208485112128
      ],
      [
        "режим",
        -8.104730194603416
      ],
      [
        "культур",
        -8.10594707060165
      ],
      [
        "об",
        -8.111139397818413
      ],
      [
        "числе",
        -8.125431853395854
      ],
      [
        "ации",
        -8.134321598333479
      ],
      [
        "ения",
        -8.139507424591825
      ],
      [
        "услуг",
        -8.142236557530175
      ],
      [
        "рассказал",
        -8.143563290421783
      ],
      [
        "те",
        -8.14580345980771
      ],
      [
        "республик",
        -8.146610010651548
      ],
      [
        "ново",
        -8.149075800252014
      ],
      [
        "па",
        -8.155457462900577
      ],
      [
        "ях",
        -8.155503288023398
      ],
      [
        "П",
        -8.171907170495952
      ],
      [
        "стал",
        -8.17251320809105
      ],
      [
        "бел",
        -8.173621392670478
      ],
      [
        "кром",
        -8.17678605272635
      ],
      [
        "Б",
        -8.179522682683121
      ],
      [
        "продаж",
        -8.179551528446245
      ],
      [
        "пят",
        -8.18108136564114
      ],
      [
        "стоимость",
        -8.181665442217513
      ],
      [
        "ряд",
        -8.188223667139532
      ],
      [
        "могу",
        -8.188383546580496
      ],
      [
        "f",
        -8.188523229199477
      ],
      [
        "ому",
        -8.191309890578811
      ],
      [
        "дем",
        -8.192448731524863
      ],
      [
        "орган",
        -8.193947868661171
      ],
      [
        "дела",
        -8.197560921760655
      ],
      [
        "срок",
        -8.200792652090277
      ],
      [
        "компани",
        -8.202383950666562
      ],
      [
        "доход",
        -8.205707520777146
      ],
      [
        "стали",
        -8.20768065807751
      ],
      [
        "действия",
        -8.213497473457434
      ],
      [
        "кова",
        -8.213588796175525
      ],
      [
        "x",
        -8.2139328923371
      ],
      [
        "подробн",
        -8.214088791515685
      ],
      [
        "ен",
        -8.217437765095674
      ],
      [
        "№",
        -8.217550388843854
      ],
      [
        "момент",
        -8.217579958000503
      ],
      [
        "ходе",
        -8.21860356693442
      ],
      [
        "-летн",
        -8.219153554075268
      ],
      [
        "правительств",
        -8.224006645508222
      ],
      [
        "ое",
        -8.228231501949837
      ],
      [
        "О",
        -8.22999257103462
      ],
      [
        "участие",
        -8.23152458608916
      ],
      [
        "права",
        -8.235219953195772
      ],
      [
        "пла",
        -8.236072440250771
      ],
      [
        "енко",
        -8.236825427751688
      ],
      [
        "москвы",
        -8.237549402268353
      ],
      [
        "федераци",
        -8.237758379863418
      ],
      [
        "-то",
        -8.242575934489912
      ],
      [
        "ут",
        -8.24864690360358
      ],
      [
        "спорт",
        -8.248926108766995
      ],
      [
        "жил",
        -8.250867483253213
      ],
      [
        "которо",
        -8.25552539409392
      ],
      [
        "прокуратур",
        -8.257366028008027
      ],
      [
        "поддержк",
        -8.25739744357766
      ],
      [
        "губернатор",
        -8.257550829140119
      ],
      [
        "сотрудничеств",
        -8.257564156600536
      ],
      [
        "оставляет",
        -8.260203567790525
      ],
      [
        "средств",
        -8.262134183324049
      ],
      [
        "часть",
        -8.268139697123061
      ],
      [
        "второ",
        -8.269141106548
      ],
      [
        "программ",
        -8.26952352475349
      ],
      [
        "основ",
        -8.270595679651565
      ],
      [
        "лов",
        -8.270881298231098
      ],
      [
        "района",
        -8.270981093949715
      ],
      [
        "дет",
        -8.278492034200243
      ],
      [
        "ра",
        -8.284029692217045
      ],
      [
        "ями",
        -8.291917539732298
      ],
      [
        "власт",
        -8.292415500599637
      ],
      [
        "алексе",
        -8.298690907234484
      ],
      [
        "именно",
        -8.299000849329685
      ],
      [
        "администраци",
        -8.299217309521175
      ],
      [
        "политик",
        -8.299415126337044
      ],
      [
        "свои",
        -8.299932480429755
      ],
      [
        "фонд",
        -8.305693892180273
      ],
      [
        "пока",
        -8.306665449485648
      ],
      [
        "ск",
        -8.307397255668153
      ],
      [
        "создани",
        -8.312710673296927
      ],
      [
        "российск",
        -8.314143444696636
      ],
      [
        "ре",
        -8.319266321740711
      ],
      [
        "средства",
        -8.321397852289252
      ],
      [
        "К",
        -8.321482640773882
      ],
      [
        "ситуаци",
        -8.323459007016265
      ],
      [
        "федеральн",
        -8.325545470142808
      ],
      [
        "да",
        -8.327797146050706
      ],
      [
        "до",
        -8.329789590864
      ],
      [
        "ном",
        -8.331427316171702
      ],
      [
        "вд",
        -8.333714306798495
      ],
      [
        "город",
        -8.334666231014333
      ],
      [
        "един",
        -8.335875889805777
      ],
      [
        "специалист",
        -8.33740454946166
      ],
      [
        "место",
        -8.338003556671854
      ],
      [
        "стать",
        -8.342662291538145
      ],
      [
        "?",
        -8.342695316380087
      ],
      [
        "дмитри",
        -8.342696488468647
      ],
      [
        "снижени",
        -8.342708499855352
      ],
      [
        "курорт",
        -8.342769235858782
      ],
      [
        "реализаци",
        -8.34278304172988
      ],
      [
        "лина",
        -8.344105696502421
      ],
      [
        "нескольк",
        -8.345670463593747
      ],
      [
        "э",
        -8.348308760219048
      ],
      [
        "стало",
        -8.348724989235688
      ],
      [
        "a",
        -8.349244804746599
      ],
      [
        "дут",
        -8.35847293515532
      ],
      [
        "организации",
        -8.358603948231316
      ],
      [
        "y",
        -8.359480988712697
      ],
      [
        "ке",
        -8.36629620381426
      ],
      [
        "систем",
        -8.371258954157732
      ],
      [
        "предприяти",
        -8.371286808792979
      ],
      [
        "перво",
        -8.372323850346946
      ],
      [
        "сам",
        -8.377093818577743
      ],
      [
        "июл",
        -8.377288308165012
      ],
      [
        "прошл",
        -8.377844433905858
      ],
      [
        "ъ-",
        -8.378693323804784
      ],
      [
        "беспилотник",
        -8.379726022805254
      ],
      [
        "дом",
        -8.386862553510364
      ],
      [
        "октябр",
        -8.387487783514768
      ],
      [
        "Р",
        -8.388013463889433
      ],
      [
        "+",
        -8.388149861834632
      ],
      [
        "серге",
        -8.388155750980928
      ],
      [
        "парк",
        -8.388206156781962
      ],
      [
        "трамп",
        -8.388213554351978
      ],
      [
        "тысяч",
        -8.388350056386821
      ],
      [
        "подчеркнул",
        -8.38855122233008
      ],
      [
        "его",
        -8.392844525337413
      ],
      [
        "выставк",
        -8.393552746936143
      ],
      [
        "улиц",
        -8.394098215032075
      ],
      [
        "начала",
        -8.397494444061572
      ],
      [
        "служб",
        -8.398070928890139
      ],
      [
        "фон",
        -8.398192476643656
      ],
      [
        "ском",
        -8.398880565203482
      ],
      [
        "товар",
        -8.400351632647556
      ],
      [
        "d",
        -8.400687640211746
      ],
      [
        "человека",
        -8.401050159108472
      ],
      [
        "решение",
        -8.403505121678887
      ],
      [
        "министр",
        -8.403999535748676
      ],
      [
        "крупны",
        -8.410421126648528
      ],
      [
        "международн",
        -8.412899353405752
      ],
      [
        "нарушения",
        -8.415750312465192
      ],
      [
        "министра",
        -8.417999537033506
      ],
      [
        "кубан",
        -8.421471201785554
      ],
      [
        "перв",
        -8.423722629687905
      ],
      [
        "банк",
        -8.425679118060827
      ],
      [
        "со",
        -8.427642377628654
      ],
      [
        "граждан",
        -8.428736726634863
      ],
      [
        "недвижимост",
        -8.428972087828352
      ],
      [
        "ограничени",
        -8.431351676318597
      ],
      [
        "без",
        -8.435894439286464
      ],
      [
        "соглашени",
        -8.436072240725
      ],
      [
        "комитет",
        -8.436138033752174
      ],
      [
        "g",
        -8.43651924082143
      ],
      [
        "считает",
        -8.437140202607589
      ],
      [
        "выше",
        -8.43800977480946
      ],
      [
        "оказал",
        -8.440131385995702
      ],
      [
        "договор",
        -8.446432180661416
      ],
      [
        "дол",
        -8.446594196636829
      ],
      [
        "вод",
        -8.449136468291874
      ],
      [
        "путин",
        -8.449500211627882
      ],
      [
        "участник",
        -8.450748029408164
      ],
      [
        "управлени",
        -8.452686912207955
      ],
      [
        "транспорт",
        -8.458129294217485
      ],
      [
        "вид",
        -8.474654459539366
      ],
      [
        "направлени",
        -8.47775433954585
      ],
      [
        "рек",
        -8.479924211958867
      ],
      [
        "школ",
        -8.481431605185435
      ],
      [
        "золото",
        -8.483750793842734
      ],
      [
        "истори",
        -8.485186746623008
      ],
      [
        "фильм",
        -8.486112012586323
      ],
      [
        "случае",
        -8.487298380959288
      ],
      [
        "планирует",
        -8.487312517769663
      ],
      [
        "помощь",
        -8.487771672704076
      ],
      [
        "заседани",
        -8.496470044133178
      ],
      [
        "предложени",
        -8.498080594536466
      ],
      [
        "счет",
        -8.498449659134412
      ],
      [
        "государственн",
        -8.507173083984805
      ],
      [
        "ющих",
        -8.509970957805198
      ],
      [
        "штраф",
        -8.511975049553298
      ],
      [
        "рынке",
        -8.516642719669271
      ],
      [
        "мира",
        -8.517971368464906
      ],
      [
        "анна",
        -8.518338575745675
      ],
      [
        "принят",
        -8.526415661560462
      ],
      [
        "течени",
        -8.52749768461897
      ],
      [
        "вечер",
        -8.535375701086346
      ],
      [
        "ски",
        -8.536840257546025
      ],
      [
        "фигурант",
        -8.53846518858126
      ],
      [
        "отмечает",
        -8.538680538457719
      ],
      [
        "проверк",
        -8.540089032507025
      ],
      [
        "задержал",
        -8.5402659136654
      ],
      [
        "семь",
        -8.542254698544847
      ],
      [
        "ков",
        -8.543801247354255
      ],
      [
        "r",
        -8.54571132037759
      ],
      [
        "российско",
        -8.54785563758335
      ],
      [
        "t",
        -8.548338034567895
      ],
      [
        "международно",
        -8.548835494807745
      ],
      [
        "домов",
        -8.549464570099376
      ],
      [
        "де",
        -8.555137945522617
      ],
      [
        "включа",
        -8.556195761517957
      ],
      [
        "мэр",
        -8.557738386914886
      ],
      [
        "эксперт",
        -8.56230471498198
      ],
      [
        "лучши",
        -8.572326352548686
      ],
      [
        "четыре",
        -8.584835192055635
      ],
      [
        "гу",
        -8.585557874960806
      ],
      [
        "свобод",
        -8.59312116602731
      ],
      [
        "прокурор",
        -8.59376092866049
      ],
      [
        "$",
        -8.593956043956606
      ],
      [
        "удмурти",
        -8.593956044024658
      ],
      [
        "законодательств",
        -8.59395604493481
      ],
      [
        "инфраструктур",
        -8.593961029409027
      ],
      [
        "екатеринбург",
        -8.593976863337424
      ],
      [
        "деньги",
        -8.594033895344353
      ],
      [
        "оборон",
        -8.594040529022255
      ],
      [
        "многи",
        -8.594199143774464
      ],
      [
        "генпрокуратур",
        -8.594214228971142
      ],
      [
        "полици",
        -8.596262973636264
      ],
      [
        "самолет",
        -8.596458614686622
      ],
      [
        "жизни",
        -8.59741827581909
      ],
      [
        "установил",
        -8.597663214862758
      ],
      [
        "люд",
        -8.599452895317924
      ],
      [
        "части",
        -8.60460456828735
      ],
      [
        "некоторы",
        -8.605475467774406
      ],
      [
        "пост",
        -8.605896898734198
      ],
      [
        "деятельность",
        -8.606479494833536
      ],
      [
        "Д",
        -8.609901261966613
      ],
      [
        "пространств",
        -8.611204750700029
      ],
      [
        "количество",
        -8.611996275344257
      ],
      [
        "показател",
        -8.612322118069642
      ],
      [
        "ение",
        -8.613891945600962
      ],
      [
        "наше",
        -8.61457381278868
      ],
      [
        "зон",
        -8.616250305698477
      ],
      [
        "ген",
        -8.616762540189853
      ],
      [
        "рынк",
        -8.620338538817796
      ],
      [
        "актив",
        -8.620560615020986
      ],
      [
        "контрол",
        -8.6212457259518
      ],
      [
        "асс",
        -8.622179206867804
      ],
      [
        "очен",
        -8.623380633418083
      ],
      [
        "ставк",
        -8.625371166435691
      ],
      [
        "дс",
        -8.626166264867868
      ],
      [
        "p",
        -8.62791381689129
      ],
      [
        "сумм",
        -8.631583831824775
      ],
      [
        "рас",
        -8.631937651513319
      ],
      [
        "строительство",
        -8.632157978052799
      ],
      [
        "во",
        -8.632542480258131
      ],
      [
        "нато",
        -8.632591721734075
      ],
      [
        "вы",
        -8.633301175103476
      ],
      [
        "i",
        -8.633489069888276
      ],
      [
        "кажды",
        -8.636170125563593
      ],
      [
        "готов",
        -8.636614654805637
      ],
      [
        "важно",
        -8.637176733654442
      ],
      [
        "образ",
        -8.638982568056521
      ],
      [
        "игр",
        -8.640048495287497
      ],
      [
        "деятельност",
        -8.640586330840033
      ],
      [
        "государств",
        -8.644605221293666
      ],
      [
        "букмекер",
        -8.648077674604203
      ],
      [
        "дел",
        -8.648078520424372
      ],
      [
        "активно",
        -8.650724046745221
      ],
      [
        "недел",
        -8.651205350864696
      ],
      [
        "украин",
        -8.651768215592352
      ],
      [
        "запрет",
        -8.652400803337573
      ],
      [
        "Ф",
        -8.652779573368374
      ],
      [
        "санкт-петербург",
        -8.652779580560582
      ],
      [
        "telegram-канал",
        -8.65277959969437
      ],
      [
        "возбудил",
        -8.652779633088588
      ],
      [
        "взрыв",
        -8.652779959939675
      ],
      [
        "премьер",
        -8.652827870430418
      ],
      [
        "трех",
        -8.652975136744926
      ],
      [
        "отменен",
        -8.653269170089281
      ],
      [
        "состояни",
        -8.653407167670647
      ],
      [
        "нужн",
        -8.653462267380691
      ],
      [
        "ля",
        -8.655423047381449
      ],
      [
        "находит",
        -8.6554793550594
      ],
      [
        "назвал",
        -8.655704638940243
      ],
      [
        "5",
        -8.656179812047608
      ],
      [
        "ник",
        -8.656549061818719
      ],
      [
        "представитель",
        -8.65727578822849
      ],
      [
        "иск",
        -8.657827736488079
      ],
      [
        "все",
        -8.659199177380396
      ],
      [
        "лиц",
        -8.660835570037282
      ],
      [
        "центра",
        -8.6618748950352
      ],
      [
        "площадь",
        -8.662699045542261
      ],
      [
        "2",
        -8.664861406775547
      ],
      [
        "этим",
        -8.665739664626294
      ],
      [
        "нии",
        -8.66686896233694
      ],
      [
        "су",
        -8.666921065182036
      ],
      [
        "необходимо",
        -8.667594398870524
      ],
      [
        "виктор",
        -8.670041494910324
      ],
      [
        "стала",
        -8.670539586074845
      ],
      [
        "оо",
        -8.672404351240015
      ],
      [
        "спортивны",
        -8.674060638740277
      ],
      [
        "производств",
        -8.674110993432562
      ],
      [
        "предприятия",
        -8.675187265900764
      ],
      [
        "защит",
        -8.677007025415227
      ],
      [
        "вская",
        -8.678069160684577
      ],
      [
        "министерств",
        -8.68065197696513
      ],
      [
        "оста",
        -8.690770509433033
      ],
      [
        "идет",
        -8.693235447401282
      ],
      [
        "мин",
        -8.693500219134581
      ],
      [
        "нв",
        -8.694517151240282
      ],
      [
        "источник",
        -8.696645898655305
      ],
      [
        "бизнес",
        -8.701594233768214
      ],
      [
        "пс",
        -8.70317082453553
      ],
      [
        "персонал",
        -8.704152124911806
      ],
      [
        "или",
        -8.708134709658482
      ],
      [
        "причин",
        -8.709670444631408
      ],
      [
        "партнер",
        -8.710305043267306
      ],
      [
        "дум",
        -8.711848384262197
      ],
      [
        "ают",
        -8.711941556167872
      ],
      [
        "секретар",
        -8.715288570048216
      ],
      [
        "усман",
        -8.715312102404324
      ],
      [
        "артем",
        -8.715340633134899
      ],
      [
        "ремонт",
        -8.715359878310373
      ],
      [
        "татьян",
        -8.71541000990308
      ],
      [
        "цита",
        -8.7158377509529
      ],
      [
        "мнени",
        -8.715920597591463
      ],
      [
        "скольк",
        -8.716303699020667
      ],
      [
        "эта",
        -8.7184314850144
      ],
      [
        "направил",
        -8.718685907187751
      ],
      [
        "пик",
        -8.719015589901808
      ],
      [
        "женщин",
        -8.719387629662103
      ],
      [
        "кой",
        -8.72025956568484
      ],
      [
        "опыт",
        -8.720588980591794
      ],
      [
        "обеспечени",
        -8.72205616801937
      ],
      [
        "ит",
        -8.723243788434493
      ],
      [
        "лиш",
        -8.725329533662364
      ],
      [
        "бывши",
        -8.725589777415527
      ],
      [
        "бренд",
        -8.730958132443321
      ],
      [
        "тем",
        -8.732885235256456
      ],
      [
        "развитие",
        -8.735445269525588
      ],
      [
        "l",
        -8.736378292684977
      ],
      [
        "w",
        -8.736861054440112
      ],
      [
        "ил",
        -8.736920038217434
      ],
      [
        "сил",
        -8.738603651831026
      ],
      [
        "кон",
        -8.74001729156071
      ],
      [
        "отдыха",
        -8.740168771787296
      ],
      [
        "роста",
        -8.741634928909974
      ],
      [
        "меры",
        -8.743698693429861
      ],
      [
        "месяц",
        -8.744967919288937
      ],
      [
        "пермск",
        -8.74658573198644
      ],
      [
        "ировать",
        -8.746759352283481
      ],
      [
        "b",
        -8.746800082093467
      ],
      [
        "изо",
        -8.751445059908852
      ],
      [
        "больш",
        -8.752089416751652
      ],
      [
        "феврал",
        -8.754359757751761
      ],
      [
        "зад",
        -8.755217358377756
      ],
      [
        "котором",
        -8.762530364123862
      ],
      [
        "реч",
        -8.765506608915764
      ],
      [
        "встреч",
        -8.768892597930348
      ],
      [
        "ев",
        -8.769603895443279
      ],
      [
        "груз",
        -8.77043254216909
      ],
      [
        "краснодарск",
        -8.773643555604824
      ],
      [
        "ирует",
        -8.773665790548694
      ],
      [
        "ростовско",
        -8.777028373018965
      ],
      [
        "парти",
        -8.77798766859225
      ],
      [
        "on",
        -8.77844138351022
      ],
      [
        "труд",
        -8.779696990753482
      ],
      [
        "процесс",
        -8.78188247575633
      ],
      [
        "предусмотрен",
        -8.781946301911132
      ],
      [
        "декабр",
        -8.781947978916095
      ],
      [
        "укреплени",
        -8.781970920189838
      ],
      [
        "форум",
        -8.78199078900337
      ],
      [
        "кандидатур",
        -8.782019499256982
      ],
      [
        "продукци",
        -8.782076279861625
      ],
      [
        "добавил",
        -8.78253862002871
      ],
      [
        "туризм",
        -8.782725646038877
      ],
      [
        "наталь",
        -8.782730339981537
      ],
      [
        "вести",
        -8.783110720366516
      ],
      [
        "татарстан",
        -8.783211161717695
      ],
      [
        "день",
        -8.783458519196932
      ],
      [
        "оборот",
        -8.783621170397678
      ],
      [
        "связан",
        -8.785536314114312
      ],
      [
        "представител",
        -8.787137352985432
      ],
      [
        "возможность",
        -8.787965815581785
      ],
      [
        "следуе",
        -8.79103215455085
      ],
      [
        "структур",
        -8.792386151079315
      ],
      [
        "здоровь",
        -8.792525802604839
      ],
      [
        "организаци",
        -8.793823679951148
      ],
      [
        "чен",
        -8.794826762385128
      ],
      [
        "уровн",
        -8.796595950808769
      ],
      [
        "прост",
        -8.797665606982005
      ],
      [
        "снизил",
        -8.800990097220064
      ],
      [
        "документ",
        -8.802569777357174
      ],
      [
        "c",
        -8.806114315222366
      ],
      [
        "лишени",
        -8.811651753480785
      ],
      [
        "направления",
        -8.812011169400412
      ],
      [
        "оборудовани",
        -8.813626934131324
      ],
      [
        "акци",
        -8.814623402870883
      ],
      [
        "стратегически",
        -8.815339497452669
      ],
      [
        "ень",
        -8.818143097471374
      ],
      [
        "вс",
        -8.819114945122974
      ],
      [
        "wa",
        -8.821841948846266
      ],
      [
        "дрон",
        -8.82352818205643
      ],
      [
        "судов",
        -8.826174343491827
      ],
      [
        "должн",
        -8.826490379376443
      ],
      [
        "июн",
        -8.826551572075394
      ],
      [
        "прошло",
        -8.828601761275083
      ],
      [
        "итога",
        -8.831686134166706
      ],
      [
        "наш",
        -8.83474887058589
      ],
      [
        "открыл",
        -8.836382516461061
      ],
      [
        "атак",
        -8.8374228942545
      ],
      [
        "ния",
        -8.838265601149732
      ],
      [
        "М",
        -8.838988139971773
      ],
      [
        "экономик",
        -8.839665463811233
      ],
      [
        "втор",
        -8.84778990669676
      ],
      [
        "чи",
        -8.85246782840888
      ],
      [
        "/",
        -8.853374802734574
      ],
      [
        "автомобиле",
        -8.853374812220563
      ],
      [
        "следствие",
        -8.85337481380185
      ],
      [
        "девочк",
        -8.85337792923907
      ],
      [
        "момотов",
        -8.85337844529535
      ],
      [
        "госпож",
        -8.853397914017535
      ],
      [
        "предложил",
        -8.853400879197379
      ],
      [
        "контракт",
        -8.853410021821267
      ],
      [
        "саратов",
        -8.853418403848265
      ],
      [
        "ответчик",
        -8.853424218595734
      ],
      [
        "обратил",
        -8.853426723140934
      ],
      [
        "движения",
        -8.853434522474366
      ],
      [
        "рабоч",
        -8.853448592999099
      ],
      [
        "ребен",
        -8.853452142557042
      ],
      [
        "сохранени",
        -8.853642914254804
      ],
      [
        "начальник",
        -8.853673734938047
      ],
      [
        "дня",
        -8.853964897713729
      ],
      [
        "внимани",
        -8.854015333237518
      ],
      [
        "баз",
        -8.854081603513801
      ],
      [
        "московск",
        -8.854280357026642
      ],
      [
        "пострадал",
        -8.855261630737697
      ],
      [
        "проводит",
        -8.855475452920547
      ],
      [
        "ует",
        -8.856002290374018
      ],
      [
        "мене",
        -8.8569013046826
      ],
      [
        "прием",
        -8.857154893119544
      ],
      [
        "поэтом",
        -8.857755086133784
      ],
      [
        "наши",
        -8.858618718648682
      ],
      [
        "ссыл",
        -8.859021518348312
      ],
      [
        "ведомств",
        -8.859981923498411
      ],
      [
        "чу",
        -8.864213896703259
      ],
      [
        "требования",
        -8.864838543556644
      ],
      [
        "нижне",
        -8.86485823003887
      ],
      [
        "ние",
        -8.865066180000806
      ],
      [
        "краснодарском",
        -8.869913584085168
      ],
      [
        "установлен",
        -8.872481644396384
      ],
      [
        "судей",
        -8.873132732905441
      ],
      [
        "шест",
        -8.87370855569971
      ],
      [
        "парламент",
        -8.87430728896414
      ],
      [
        "пор",
        -8.874965139292755
      ],
      [
        "условия",
        -8.880558820786948
      ],
      [
        "он",
        -8.882788370403064
      ],
      [
        "необходимы",
        -8.883698320804072
      ],
      [
        "Н",
        -8.88373496243409
      ],
      [
        "ба",
        -8.88614578237758
      ],
      [
        "дин",
        -8.886387638535211
      ],
      [
        "ает",
        -8.887795390164015
      ],
      [
        "рост",
        -8.889196431330866
      ],
      [
        "сумма",
        -8.89014311661483
      ],
      [
        "март",
        -8.8909084206427
      ],
      [
        "назначен",
        -8.891155146070396
      ],
      [
        "природ",
        -8.89174791952089
      ],
      [
        "ируют",
        -8.892156922558375
      ],
      [
        "ства",
        -8.892523440464913
      ],
      [
        "вой",
        -8.892622049723464
      ],
      [
        "цев",
        -8.894294920132426
      ],
      [
        "созда",
        -8.894697709500969
      ],
      [
        "-м",
        -8.89661227464574
      ],
      [
        "состав",
        -8.899154762427543
      ],
      [
        "аренд",
        -8.901082859867994
      ],
      [
        "лини",
        -8.901212345891741
      ],
      [
        "то",
        -8.901687166209001
      ],
      [
        "чай",
        -8.903163079395474
      ],
      [
        "уда",
        -8.903498435293157
      ],
      [
        "ин",
        -8.90446703027839
      ],
      [
        "вооружения",
        -8.907712664690528
      ],
      [
        "Г",
        -8.908802349252742
      ],
      [
        "эти",
        -8.90897369327793
      ],
      [
        "задач",
        -8.911124960003114
      ],
      [
        "строительн",
        -8.914758478590976
      ],
      [
        "мар",
        -8.915605620496896
      ],
      [
        "люде",
        -8.922094545715899
      ],
      [
        "модел",
        -8.922760411941562
      ],
      [
        "ость",
        -8.923815145077869
      ],
      [
        "возбужден",
        -8.925130985872038
      ],
      [
        "объекта",
        -8.926648700561177
      ],
      [
        "имуществ",
        -8.926997278444883
      ],
      [
        "должен",
        -8.927640261549424
      ],
      [
        "надзорно",
        -8.928219145833474
      ],
      [
        "У",
        -8.929675315530947
      ],
      [
        "зарплат",
        -8.930298398396662
      ],
      [
        "созыв",
        -8.930331759270128
      ],
      [
        "константин",
        -8.930372808378843
      ],
      [
        "спрос",
        -8.930427527197114
      ],
      [
        "дональд",
        -8.930442481246372
      ],
      [
        "вячеслав",
        -8.930497267956298
      ],
      [
        "содержани",
        -8.930612172498503
      ],
      [
        "пояснил",
        -8.930671267979461
      ],
      [
        "особенно",
        -8.930684470916272
      ],
      [
        "ерте",
        -8.930911437816931
      ],
      [
        "две",
        -8.930998316483237
      ],
      [
        "моты",
        -8.930999836203476
      ],
      [
        "олег",
        -8.93120984270915
      ],
      [
        "находил",
        -8.931275993200561
      ],
      [
        "что",
        -8.931754361525782
      ],
      [
        "интерфакс",
        -8.931974327484319
      ],
      [
        "региональны",
        -8.933329737399184
      ],
      [
        "пиш",
        -8.93353407557002
      ],
      [
        "задержанны",
        -8.933756728679407
      ],
      [
        "писал",
        -8.9350868828795
      ],
      [
        "ное",
        -8.93544147779114
      ],
      [
        "качестве",
        -8.938792925615267
      ],
      [
        "ников",
        -8.940293037243626
      ],
      [
        "вмест",
        -8.943315037413754
      ],
      [
        "выросл",
        -8.943631382187892
      ],
      [
        "использовани",
        -8.94419528860904
      ],
      [
        "размер",
        -8.94630798010549
      ],
      [
        "род",
        -8.95062157419266
      ],
      [
        "in",
        -8.95376183935461
      ],
      [
        "зам",
        -8.954029141399783
      ],
      [
        "самы",
        -8.954734568427115
      ],
      [
        "класса",
        -8.955967426754828
      ],
      [
        "ца",
        -8.958224467898228
      ],
      [
        "нова",
        -8.964166918753776
      ],
      [
        "ситуация",
        -8.96587138099894
      ],
      [
        "h",
        -8.969888072592832
      ],
      [
        "задержан",
        -8.970029883078404
      ],
      [
        "верси",
        -8.970567970124943
      ],
      [
        "госте",
        -8.971284527925052
      ],
      [
        "месяца",
        -8.971304942223645
      ],
      [
        "ап",
        -8.972960531617627
      ],
      [
        "тех",
        -8.973196396459432
      ],
      [
        "удар",
        -8.973626381253123
      ],
      [
        "инициатив",
        -8.976725286052195
      ],
      [
        "количеств",
        -8.977199840250275
      ],
      [
        "площад",
        -8.977217740795066
      ],
      [
        "налогов",
        -8.978053827141181
      ],
      [
        "места",
        -8.98229070613877
      ],
      [
        "пер",
        -8.986234713691255
      ],
      [
        "торгов",
        -8.98778725867357
      ],
      [
        "признан",
        -8.98840249319494
      ],
      [
        "белгород",
        -8.98981064851704
      ],
      [
        "марте",
        -8.990187986611506
      ],
      [
        "стр",
        -8.990333406654036
      ],
      [
        "заместител",
        -8.992143406589312
      ],
      [
        "предложение",
        -8.994187162701314
      ],
      [
        "пар",
        -8.994926063572025
      ],
      [
        "сайт",
        -8.996981024604576
      ],
      [
        "стан",
        -8.99703355779701
      ],
      [
        "ком",
        -9.001248682122654
      ],
      [
        "цел",
        -9.002778948795886
      ],
      [
        "турист",
        -9.00308139959484
      ],
      [
        "нарушени",
        -9.004950711367988
      ],
      [
        "зле",
        -9.006423537032362
      ],
      [
        "таким",
        -9.00802812415598
      ],
      [
        "енных",
        -9.008564391983095
      ],
      [
        "башкир",
        -9.011709621594276
      ],
      [
        "объявил",
        -9.013631222449291
      ],
      [
        "институт",
        -9.013631232048292
      ],
      [
        "переговор",
        -9.013631439743499
      ],
      [
        "апартамент",
        -9.013631895157825
      ],
      [
        "павел",
        -9.013631923641984
      ],
      [
        "благодар",
        -9.013634091658501
      ],
      [
        "ноябр",
        -9.013637992272955
      ],
      [
        "законопроект",
        -9.0136488159119
      ],
      [
        "аналогичны",
        -9.01366643070319
      ],
      [
        "ереван",
        -9.013828981259694
      ],
      [
        "статус",
        -9.013963228906213
      ],
      [
        "взаимодействи",
        -9.013984275581473
      ],
      [
        "попытк",
        -9.014140980334197
      ],
      [
        "приостановил",
        -9.014217545178877
      ],
      [
        "госсовет",
        -9.014263225941475
      ],
      [
        "выдач",
        -9.01460949030999
      ],
      [
        "являют",
        -9.015312644954346
      ],
      [
        "разны",
        -9.015529469179958
      ],
      [
        "девят",
        -9.01555794507507
      ],
      [
        "изменения",
        -9.01587829535654
      ],
      [
        "выступлени",
        -9.016195235506949
      ],
      [
        "фестиваля",
        -9.016450875940922
      ],
      [
        "ше",
        -9.016480075080311
      ],
      [
        "ночь",
        -9.01652227509453
      ],
      [
        "слав",
        -9.017222133857576
      ],
      [
        "помещения",
        -9.018382776709956
      ],
      [
        "практически",
        -9.018622134476162
      ],
      [
        "пункт",
        -9.018822255428203
      ],
      [
        "иванов",
        -9.01935074860014
      ],
      [
        "пред",
        -9.023824447783037
      ],
      [
        "метро",
        -9.024546434107789
      ],
      [
        "иску",
        -9.025427713088298
      ],
      [
        "вошл",
        -9.025725673424883
      ],
      [
        "лидер",
        -9.026661527171662
      ],
      [
        "южно",
        -9.026974001068593
      ],
      [
        "конца",
        -9.028093613761172
      ],
      [
        "уз",
        -9.03360421839849
      ],
      [
        "всем",
        -9.034080839136557
      ],
      [
        "ik",
        -9.034824363924496
      ],
      [
        "кита",
        -9.034953017015892
      ],
      [
        "иде",
        -9.034968196670036
      ],
      [
        "выступа",
        -9.035474934542478
      ],
      [
        "мус",
        -9.03694905151192
      ],
      [
        "составит",
        -9.038483963145637
      ],
      [
        "доступ",
        -9.03910697187439
      ],
      [
        "мир",
        -9.03963387123755
      ],
      [
        "нами",
        -9.039957624310986
      ],
      [
        "жен",
        -9.039966844086278
      ],
      [
        "хранени",
        -9.040977317959802
      ],
      [
        "-й",
        -9.041467141010378
      ],
      [
        "la",
        -9.042711224694758
      ],
      [
        "обща",
        -9.043306921000738
      ],
      [
        "ходят",
        -9.043677270653092
      ],
      [
        "совместно",
        -9.043857678087877
      ],
      [
        "средни",
        -9.044593819623598
      ],
      [
        "следственны",
        -9.045515477791632
      ],
      [
        "ведет",
        -9.045878137685644
      ],
      [
        "тип",
        -9.046555445597933
      ],
      [
        "рина",
        -9.04670271024859
      ],
      [
        "омимо",
        -9.050046944901
      ],
      [
        "виде",
        -9.050480821720603
      ],
      [
        "ская",
        -9.052170805634365
      ],
      [
        "уверен",
        -9.052225562782695
      ],
      [
        "отдел",
        -9.052709808261667
      ],
      [
        "клиент",
        -9.053311377165159
      ],
      [
        "университета",
        -9.055001337277787
      ],
      [
        "z",
        -9.057293260587418
      ],
      [
        "категори",
        -9.06052404796346
      ],
      [
        "машин",
        -9.061009270014043
      ],
      [
        "вшего",
        -9.063068100053938
      ],
      [
        "оборудование",
        -9.064853759601709
      ],
      [
        "лечени",
        -9.068187866183806
      ],
      [
        "продолжит",
        -9.06884192159298
      ],
      [
        "куп",
        -9.069815391522784
      ],
      [
        "важны",
        -9.070038692391588
      ],
      [
        "самарск",
        -9.070129962574125
      ],
      [
        "челябинско",
        -9.071260858257705
      ],
      [
        "тур",
        -9.075846657917193
      ],
      [
        "ни",
        -9.077267224061949
      ],
      [
        "гос",
        -9.077369896986976
      ],
      [
        "рыно",
        -9.077437315558592
      ],
      [
        "площадк",
        -9.078078916359326
      ],
      [
        "исследовани",
        -9.082063319439074
      ],
      [
        "социальны",
        -9.083304583278228
      ],
      [
        "Т",
        -9.085717437126887
      ],
      [
        "третье",
        -9.086896782679899
      ],
      [
        "имени",
        -9.089063774721016
      ],
      [
        "ру",
        -9.090325423869375
      ],
      [
        "международны",
        -9.091612319200907
      ],
      [
        "много",
        -9.091687737905898
      ],
      [
        "крае",
        -9.092335594890825
      ],
      [
        "особо",
        -9.095193863334863
      ],
      [
        "получила",
        -9.097433837542486
      ],
      [
        "решения",
        -9.09841927154083
      ],
      [
        "травм",
        -9.099202064928384
      ],
      [
        "признал",
        -9.099336107051196
      ],
      [
        "ики",
        -9.099488423181034
      ],
      [
        "ров",
        -9.10004595039245
      ],
      [
        "отрасл",
        -9.102651416207562
      ],
      [
        "футбол",
        -9.10299291892283
      ],
      [
        "роман",
        -9.103516119299602
      ],
      [
        "влия",
        -9.10433266303962
      ],
      [
        "бес",
        -9.104451200133898
      ],
      [
        "политическо",
        -9.104496305647096
      ],
      [
        "Л",
        -9.10454031262956
      ],
      [
        "пассажир",
        -9.10454031383444
      ],
      [
        "наркотик",
        -9.104540313841646
      ],
      [
        "барселон",
        -9.104540394375437
      ],
      [
        "ущерб",
        -9.104540461337091
      ],
      [
        "препарат",
        -9.104540530612258
      ],
      [
        "ресурс",
        -9.104541032096673
      ],
      [
        "корпораци",
        -9.10454187637922
      ],
      [
        "автобус",
        -9.104541951334511
      ],
      [
        "клуб",
        -9.104547886390087
      ],
      [
        "борьб",
        -9.104557941552898
      ],
      [
        "курьер",
        -9.104566616034871
      ],
      [
        "покупк",
        -9.10458194120257
      ],
      [
        "минимум",
        -9.10458299984929
      ],
      [
        "рассказыва",
        -9.104605401590035
      ],
      [
        "поддержал",
        -9.104618211561155
      ],
      [
        "инвалидность",
        -9.104696624832053
      ],
      [
        "топлив",
        -9.10475955597079
      ],
      [
        "верховн",
        -9.104797618648652
      ],
      [
        "имеет",
        -9.10494268242116
      ],
      [
        "публикаци",
        -9.105013060773734
      ],
      [
        "возраст",
        -9.105164795108413
      ],
      [
        "подписал",
        -9.105171759821078
      ],
      [
        "молод",
        -9.105207104976055
      ],
      [
        "музе",
        -9.105389099230383
      ],
      [
        "продолжает",
        -9.10557460314313
      ],
      [
        "Москв",
        -9.105592054478874
      ],
      [
        "армени",
        -9.105596241755183
      ],
      [
        "гски",
        -9.105684187549087
      ],
      [
        "схем",
        -9.105862307992592
      ],
      [
        "одним",
        -9.105936443801454
      ],
      [
        "занимает",
        -9.10595037394455
      ],
      [
        "наказани",
        -9.10635124829198
      ],
      [
        "ежегодн",
        -9.106479542492771
      ],
      [
        "сери",
        -9.106855556892267
      ],
      [
        "поступил",
        -9.107023788577244
      ],
      [
        "апсу",
        -9.107229133456348
      ],
      [
        "оно",
        -9.107987507654148
      ],
      [
        "автомобиль",
        -9.108098050711128
      ],
      [
        "военно",
        -9.10826394851556
      ],
      [
        "км",
        -9.108820311520446
      ],
      [
        "месяце",
        -9.109603705298683
      ],
      [
        "весь",
        -9.11002713395265
      ],
      [
        "отсутстви",
        -9.110049908667916
      ],
      [
        "всероссийско",
        -9.11088403042309
      ],
      [
        "сложно",
        -9.111573818424695
      ],
      [
        "учреждения",
        -9.112556194445563
      ],
      [
        "известно",
        -9.112816424186695
      ],
      [
        "интерес",
        -9.113087754087122
      ],
      [
        "большо",
        -9.113424569952254
      ],
      [
        "преступления",
        -9.11353187438501
      ],
      [
        "федеральны",
        -9.113888143275329
      ],
      [
        "модель",
        -9.114432139496392
      ],
      [
        "темп",
        -9.114620018506617
      ],
      [
        "свердловск",
        -9.114658340554298
      ],
      [
        "сп",
        -9.115346696969896
      ],
      [
        "колонии",
        -9.116168710094403
      ],
      [
        "кино",
        -9.119454556818965
      ],
      [
        "расположен",
        -9.119622116057357
      ],
      [
        "склад",
        -9.120281623798121
      ],
      [
        "сдела",
        -9.121216409302178
      ],
      [
        "средне",
        -9.121878556836332
      ],
      [
        "свой",
        -9.122280300353834
      ],
      [
        "выход",
        -9.12265408395917
      ],
      [
        "бизнес-",
        -9.124487360867903
      ],
      [
        "четырех",
        -9.125281838117942
      ],
      [
        "гор",
        -9.127115830395296
      ],
      [
        "исследования",
        -9.1275472094533
      ],
      [
        "кажд",
        -9.12839100701287
      ],
      [
        "технологи",
        -9.130549471389598
      ],
      [
        "смерт",
        -9.131720763237864
      ],
      [
        "цена",
        -9.133524294616134
      ],
      [
        "временно",
        -9.135328720660603
      ],
      [
        "есмотр",
        -9.13592207580401
      ],
      [
        "участ",
        -9.139772303784426
      ],
      [
        "бу",
        -9.140927350765411
      ],
      [
        "мероприятия",
        -9.142034172050156
      ],
      [
        "новгород",
        -9.14272220095123
      ],
      [
        "здани",
        -9.143559691465466
      ],
      [
        "земельны",
        -9.14611018066483
      ],
      [
        "част",
        -9.146471651446197
      ],
      [
        "округ",
        -9.147919422718182
      ],
      [
        "заявк",
        -9.148384196877508
      ],
      [
        "скр",
        -9.15068202921019
      ],
      [
        "федерация",
        -9.152273483300778
      ],
      [
        "своем",
        -9.15478056827509
      ],
      [
        "судебны",
        -9.15683727041423
      ],
      [
        "разработк",
        -9.157878520396464
      ],
      [
        "участка",
        -9.160431752371466
      ],
      [
        "январ",
        -9.161136432505083
      ],
      [
        "незаконно",
        -9.165406807005276
      ],
      [
        "обвинения",
        -9.167213174835089
      ],
      [
        "автор",
        -9.16780812684217
      ],
      [
        "возможност",
        -9.169530487258523
      ],
      [
        "дон",
        -9.171749028918873
      ],
      [
        "находя",
        -9.171773085010537
      ],
      [
        "аутизм",
        -9.172892406907561
      ],
      [
        "шин",
        -9.173681863292536
      ],
      [
        "мая",
        -9.174820184429969
      ],
      [
        "вред",
        -9.176632853963126
      ],
      [
        "член",
        -9.176727919137337
      ],
      [
        "заместителя",
        -9.17861019347378
      ],
      [
        "кол",
        -9.180089554890282
      ],
      [
        "овать",
        -9.18188089061725
      ],
      [
        "полицейски",
        -9.184846450720805
      ],
      [
        "уровне",
        -9.188037447094018
      ],
      [
        "приговор",
        -9.191046572007098
      ],
      [
        "мужчин",
        -9.192119177316213
      ],
      [
        "свет",
        -9.19273542952718
      ],
      [
        "сети",
        -9.196578375594745
      ],
      [
        "зал",
        -9.2005856032279
      ],
      [
        "движение",
        -9.204265687090938
      ],
      [
        "ипоте",
        -9.204293229354924
      ],
      [
        "менеджер",
        -9.204453816635242
      ],
      [
        "квартир",
        -9.20450497984855
      ],
      [
        "екатерин",
        -9.204516486278063
      ],
      [
        "Ш",
        -9.204540312630332
      ],
      [
        "здравоохранени",
        -9.204540312630396
      ],
      [
        "парацетамол",
        -9.204540313350526
      ],
      [
        "маршрут",
        -9.204540314139104
      ],
      [
        "сравнени",
        -9.204540314382497
      ],
      [
        "автомобили",
        -9.204540317392674
      ],
      [
        "обеспечит",
        -9.204540336908941
      ],
      [
        "дефицит",
        -9.204540367161522
      ],
      [
        "атмосфер",
        -9.204540394417771
      ],
      [
        "соцсет",
        -9.20454105730262
      ],
      [
        "одежд",
        -9.204541340393995
      ],
      [
        "зарегистрирован",
        -9.204545627598904
      ],
      [
        "текуще",
        -9.204549711427354
      ],
      [
        "экономическо",
        -9.204550266771967
      ],
      [
        "двум",
        -9.204557374028546
      ],
      [
        "уполномоченны",
        -9.204563403144354
      ],
      [
        "больниц",
        -9.20457367355985
      ],
      [
        "подозрени",
        -9.204593264852173
      ],
      [
        "красот",
        -9.204626690238769
      ],
      [
        "газпром",
        -9.204642461276302
      ],
      [
        "королев",
        -9.204651724164368
      ],
      [
        "выплат",
        -9.204681603934588
      ],
      [
        "подозреваемы",
        -9.204797065831201
      ],
      [
        "нижегородск",
        -9.204977917036214
      ],
      [
        "мае",
        -9.204991656671462
      ],
      [
        "учет",
        -9.20511338991884
      ],
      [
        "филин",
        -9.205142100229157
      ],
      [
        "команд",
        -9.205180777102859
      ],
      [
        "увеличение",
        -9.20518947350152
      ],
      [
        "представил",
        -9.205367389937761
      ],
      [
        "отчислени",
        -9.205395996887724
      ],
      [
        "населения",
        -9.20539872847245
      ],
      [
        "назначил",
        -9.206220548667705
      ],
      [
        "честь",
        -9.206518135223927
      ],
      [
        "украински",
        -9.206569510214665
      ],
      [
        "ниже",
        -9.206705703984312
      ],
      [
        "минут",
        -9.206966372144434
      ],
      [
        "операци",
        -9.207222153142954
      ],
      [
        "фестиваль",
        -9.208134312679098
      ],
      [
        "происходи",
        -9.209227318127258
      ],
      [
        "стоит",
        -9.209666614792226
      ],
      [
        "угроз",
        -9.209670691143325
      ],
      [
        "боле",
        -9.20992486128195
      ],
      [
        "анап",
        -9.210445680953743
      ],
      [
        "научны",
        -9.211070139600837
      ],
      [
        "краснодарски",
        -9.211409084870205
      ],
      [
        "поддержива",
        -9.212197384425354
      ],
      [
        "3",
        -9.212718233487275
      ],
      [
        "различны",
        -9.212944383238293
      ],
      [
        "числ",
        -9.212967320318644
      ],
      [
        "выпуск",
        -9.213060182756639
      ],
      [
        "франц",
        -9.213311684968538
      ],
      [
        "карт",
        -9.213621903309432
      ],
      [
        "мск",
        -9.21432862795809
      ],
      [
        "видео",
        -9.21493986997966
      ],
      [
        "8",
        -9.215105200331339
      ],
      [
        "закон",
        -9.215855794849587
      ],
      [
        "получит",
        -9.216827257904335
      ],
      [
        "горь",
        -9.2172091822398
      ],
      [
        "e",
        -9.218497757892557
      ],
      [
        "цель",
        -9.218783964536756
      ],
      [
        "арбитражны",
        -9.219720262952773
      ],
      [
        "переда",
        -9.22130000146711
      ],
      [
        "властям",
        -9.222129924123058
      ],
      [
        "житель",
        -9.223230571802121
      ],
      [
        "каса",
        -9.224112941585535
      ],
      [
        "краснов",
        -9.224188394826847
      ],
      [
        "подростк",
        -9.225241350848052
      ],
      [
        "охран",
        -9.226546420846718
      ],
      [
        "шаг",
        -9.229655003605938
      ],
      [
        "бо",
        -9.231731091882716
      ],
      [
        "иностранным",
        -9.232804001287809
      ],
      [
        "запас",
        -9.233211302143468
      ],
      [
        "повреждени",
        -9.23351510729727
      ],
      [
        "которым",
        -9.234788926159212
      ],
      [
        "характер",
        -9.235738424699866
      ],
      [
        "мк",
        -9.235777334301428
      ],
      [
        "иса",
        -9.235960166138172
      ],
      [
        "собственност",
        -9.236210382409137
      ],
      [
        "городов",
        -9.236324746091299
      ],
      [
        "итог",
        -9.238103814518034
      ],
      [
        "иска",
        -9.238727532173115
      ],
      [
        "участи",
        -9.239104312195122
      ],
      [
        "теле",
        -9.239653419985089
      ],
      [
        "марк",
        -9.239711664797627
      ],
      [
        "дона",
        -9.242949686304499
      ],
      [
        "изъя",
        -9.24302932798308
      ],
      [
        "число",
        -9.244188843276195
      ],
      [
        "сми",
        -9.244379271934823
      ],
      [
        "проведени",
        -9.245407100805783
      ],
      [
        "самар",
        -9.245505826455986
      ],
      [
        "получат",
        -9.246125991209032
      ],
      [
        "дает",
        -9.246470837493298
      ],
      [
        "ющий",
        -9.247340280014006
      ],
      [
        "десят",
        -9.249651913161111
      ],
      [
        "работал",
        -9.252420178270299
      ],
      [
        "На",
        -9.253052401935504
      ],
      [
        "кубанск",
        -9.253486019339892
      ],
      [
        "основно",
        -9.25502727547929
      ],
      [
        "центральны",
        -9.255129573905101
      ],
      [
        "отделени",
        -9.255945927125161
      ],
      [
        "язык",
        -9.255975511841934
      ],
      [
        "решени",
        -9.256347952305642
      ],
      [
        "шести",
        -9.256988563433326
      ],
      [
        "игрок",
        -9.257203527070924
      ],
      [
        "нун",
        -9.257386801193746
      ],
      [
        "здания",
        -9.258340409480724
      ],
      [
        "позволи",
        -9.258695943425675
      ],
      [
        "три",
        -9.259199989004602
      ],
      [
        "сцен",
        -9.259563013652604
      ],
      [
        "избран",
        -9.259967408105894
      ],
      [
        "погиб",
        -9.260428234892752
      ],
      [
        "оп",
        -9.260655845331035
      ],
      [
        "речи",
        -9.261081522385432
      ],
      [
        "организован",
        -9.263057012607003
      ],
      [
        "позици",
        -9.263219042353645
      ],
      [
        "гре",
        -9.26389941487242
      ],
      [
        "обмен",
        -9.26413889719169
      ],
      [
        "проблем",
        -9.264393905211847
      ],
      [
        "производство",
        -9.264425411084598
      ],
      [
        "министерство",
        -9.26447714495083
      ],
      [
        "З",
        -9.265099402114185
      ],
      [
        "артист",
        -9.265541127085289
      ],
      [
        "счита",
        -9.266916032896534
      ],
      [
        "разу",
        -9.26950586179309
      ],
      [
        "воз",
        -9.27029186917932
      ],
      [
        "рейтинг",
        -9.270716266496013
      ],
      [
        "мероприяти",
        -9.271211430666797
      ],
      [
        "урал",
        -9.272562137882392
      ],
      [
        "май",
        -9.272897560465998
      ],
      [
        "иц",
        -9.274847890751662
      ],
      [
        "мост",
        -9.279382886121942
      ],
      [
        "новост",
        -9.279521571537861
      ],
      [
        "намерен",
        -9.280651024487184
      ],
      [
        "ции",
        -9.280671544723214
      ],
      [
        "новым",
        -9.281095424814103
      ],
      [
        "спортсмен",
        -9.282657460624348
      ],
      [
        "предмет",
        -9.283769028956293
      ],
      [
        "нем",
        -9.285047474257471
      ],
      [
        "занимал",
        -9.285737601665517
      ],
      [
        "дорог",
        -9.290271753257496
      ],
      [
        "действи",
        -9.290688370770326
      ],
      [
        "пр",
        -9.29112344128349
      ],
      [
        "o",
        -9.29204279274834
      ],
      [
        "стане",
        -9.292776298480495
      ],
      [
        "пострадавши",
        -9.293018360288785
      ],
      [
        "пресс-",
        -9.293503919286074
      ],
      [
        "авто",
        -9.305301672390577
      ],
      [
        "смотр",
        -9.305522254502144
      ],
      [
        "прав",
        -9.305855692419687
      ],
      [
        "одном",
        -9.30666160287089
      ],
      [
        "ответственно",
        -9.307338055414169
      ],
      [
        "жиль",
        -9.308803420349795
      ],
      [
        "пекар",
        -9.309267204011968
      ],
      [
        "нескольки",
        -9.31059398238941
      ],
      [
        "электро",
        -9.311902842339949
      ],
      [
        "мер",
        -9.312089749557614
      ],
      [
        "риск",
        -9.31287554349035
      ],
      [
        "кар",
        -9.313578920621703
      ],
      [
        "управление",
        -9.313882352466301
      ],
      [
        "отношения",
        -9.314074592328087
      ],
      [
        "интернет",
        -9.314121062149058
      ],
      [
        "мор",
        -9.314179969051988
      ],
      [
        "совершен",
        -9.314218829331255
      ],
      [
        "точк",
        -9.314501717030021
      ],
      [
        "инфляци",
        -9.315473059832044
      ],
      [
        "инвестици",
        -9.315565101673059
      ],
      [
        "трети",
        -9.31560547153796
      ],
      [
        "€",
        -9.315651423743919
      ],
      [
        "Челябинск",
        -9.31565142375945
      ],
      [
        "комплект",
        -9.315651423768603
      ],
      [
        "официальны",
        -9.315651423837835
      ],
      [
        "устойчиво",
        -9.315651426738913
      ],
      [
        "сегмент",
        -9.315651444959881
      ],
      [
        "аналитик",
        -9.315651467703555
      ],
      [
        "адвокат",
        -9.31565213729526
      ],
      [
        "санкци",
        -9.315653313158197
      ],
      [
        "говоря",
        -9.31565409386384
      ],
      [
        "квартал",
        -9.315654185440499
      ],
      [
        "михаил",
        -9.315654266994482
      ],
      [
        "наличи",
        -9.315660422231351
      ],
      [
        "питани",
        -9.315672451546204
      ],
      [
        "штейн",
        -9.315675678257463
      ],
      [
        "филиппин",
        -9.315676634660994
      ],
      [
        "202",
        -9.315697720906082
      ],
      [
        "евгени",
        -9.315702211734562
      ],
      [
        "карьер",
        -9.31571024171169
      ],
      [
        "высот",
        -9.315731811466176
      ],
      [
        "the",
        -9.315779333673426
      ],
      [
        "хозяйств",
        -9.315805613007008
      ],
      [
        "чемпионат",
        -9.315852161992556
      ],
      [
        "виновным",
        -9.315859110829502
      ],
      [
        "имеют",
        -9.315873873517507
      ],
      [
        "res",
        -9.315878988387794
      ],
      [
        "кирилл",
        -9.316402621333141
      ],
      [
        "метьев",
        -9.316416620427049
      ],
      [
        "манжерок",
        -9.316463370509661
      ],
      [
        "крым",
        -9.316555287976971
      ],
      [
        "отказал",
        -9.316613217635469
      ],
      [
        "бонд",
        -9.316689847176402
      ],
      [
        "бло",
        -9.31689424158633
      ],
      [
        "мария",
        -9.317600536025198
      ],
      [
        "заказ",
        -9.317738980404112
      ],
      [
        "фактор",
        -9.31797556512969
      ],
      [
        "стране",
        -9.31800490444827
      ],
      [
        "мат",
        -9.318720778037878
      ],
      [
        "вылет",
        -9.318848744479439
      ],
      [
        "бы",
        -9.318888006845341
      ],
      [
        "главн",
        -9.318913935839714
      ],
      [
        "обращени",
        -9.318987670498302
      ],
      [
        "готовность",
        -9.319193987455503
      ],
      [
        "повышени",
        -9.319288766326173
      ],
      [
        "хотя",
        -9.319766818113495
      ],
      [
        "поселк",
        -9.319831708022008
      ],
      [
        "часов",
        -9.319985551557108
      ],
      [
        "заявления",
        -9.320893651012762
      ],
      [
        "настояще",
        -9.322371893885062
      ],
      [
        "заявление",
        -9.32416671858587
      ],
      [
        "казн",
        -9.324519523621785
      ],
      [
        "рассмотрени",
        -9.32557487082275
      ],
      [
        "объема",
        -9.325675444627311
      ],
      [
        "фестивале",
        -9.326857019176614
      ],
      [
        "селе",
        -9.328245871285205
      ],
      [
        "количественны",
        -9.329157093951576
      ],
      [
        "мощность",
        -9.329514935865816
      ],
      [
        "горя",
        -9.331482238941785
      ],
      [
        "подход",
        -9.33238314939262
      ],
      [
        "недвижимость",
        -9.333003130973498
      ],
      [
        "расследование",
        -9.334748249989776
      ],
      [
        "конце",
        -9.33520571613477
      ],
      [
        "апреле",
        -9.335567006740476
      ],
      [
        "расход",
        -9.336542766846714
      ],
      [
        "кредитов",
        -9.337453145499866
      ],
      [
        "са",
        -9.337789275067063
      ],
      [
        "арест",
        -9.338209239926012
      ],
      [
        "инцидент",
        -9.338440224610572
      ],
      [
        "россия",
        -9.338466046006227
      ],
      [
        "строительны",
        -9.338982231777198
      ],
      [
        "слова",
        -9.339263674201593
      ],
      [
        "работник",
        -9.339610587812532
      ],
      [
        "ство",
        -9.340971701173485
      ],
      [
        "иностранны",
        -9.34128504765547
      ],
      [
        "социальн",
        -9.342511531085485
      ],
      [
        "ду",
        -9.342622727702462
      ],
      [
        "нака",
        -9.343805111255971
      ],
      [
        "самым",
        -9.3444842690963
      ],
      [
        "получение",
        -9.344738881457499
      ],
      [
        "продукт",
        -9.345438597596202
      ],
      [
        "высоки",
        -9.346929833530094
      ],
      [
        "адрес",
        -9.347948166989546
      ],
      [
        "k",
        -9.35334871012817
      ],
      [
        "специально",
        -9.353397587358767
      ],
      [
        "нева",
        -9.353537117412639
      ],
      [
        "сложн",
        -9.354273034378757
      ],
      [
        "аэропорта",
        -9.354960358643748
      ],
      [
        "блок",
        -9.355369321588892
      ],
      [
        "исторически",
        -9.355802625931082
      ],
      [
        "введени",
        -9.355987662438409
      ],
      [
        "упал",
        -9.356713905348242
      ],
      [
        "судь",
        -9.356900454657792
      ],
      [
        "воронеж",
        -9.358029181366039
      ],
      [
        "ию",
        -9.358464987272368
      ],
      [
        "пада",
        -9.358676405323425
      ],
      [
        "ранения",
        -9.358719052726965
      ],
      [
        "бывше",
        -9.358942008294507
      ],
      [
        "первом",
        -9.359326172274697
      ],
      [
        "этаж",
        -9.359416073032156
      ],
      [
        "американско",
        -9.359818051448428
      ],
      [
        "применени",
        -9.36005835410579
      ],
      [
        "генеральны",
        -9.363263489323586
      ],
      [
        "магазин",
        -9.363891018152415
      ],
      [
        "мо",
        -9.363964929501865
      ],
      [
        "превыша",
        -9.363999539666207
      ],
      [
        "чиновник",
        -9.366405358435674
      ],
      [
        "ец",
        -9.367167809424382
      ],
      [
        "ru",
        -9.368017558482855
      ],
      [
        "скоре",
        -9.36901367474687
      ],
      [
        "проведен",
        -9.369630529417922
      ],
      [
        "ведомстве",
        -9.37235598671109
      ],
      [
        "дорого",
        -9.372442440346418
      ],
      [
        "стен",
        -9.372911385956368
      ],
      [
        "кр",
        -9.374021033783405
      ],
      [
        "др",
        -9.374180894899585
      ],
      [
        "ограничения",
        -9.374237803698726
      ],
      [
        "образовани",
        -9.37491665585198
      ],
      [
        "краево",
        -9.376662637560033
      ],
      [
        "тельно",
        -9.377090475921879
      ],
      [
        "нарушение",
        -9.37717720034796
      ],
      [
        "пожар",
        -9.378536815744642
      ],
      [
        "выбор",
        -9.382235186135329
      ],
      [
        "участк",
        -9.383629032627242
      ],
      [
        "смог",
        -9.38438305153801
      ],
      [
        "годов",
        -9.385603385332475
      ],
      [
        "дорож",
        -9.386012078597425
      ],
      [
        "сбор",
        -9.38667238501165
      ],
      [
        "di",
        -9.38929482125938
      ],
      [
        "назначени",
        -9.389393082263007
      ],
      [
        "отдых",
        -9.391164427807036
      ],
      [
        "действу",
        -9.392722190893235
      ],
      [
        "ро",
        -9.393144000341575
      ],
      [
        "но-",
        -9.394964254892265
      ],
      [
        "собо",
        -9.395147541428091
      ],
      [
        "правил",
        -9.396487327850108
      ],
      [
        "ска",
        -9.396577222381126
      ],
      [
        "ющие",
        -9.397136323540455
      ],
      [
        "услови",
        -9.398568957684894
      ],
      [
        "сесси",
        -9.399027783145877
      ],
      [
        "фро",
        -9.40242479272585
      ],
      [
        "треть",
        -9.402456337497815
      ],
      [
        "общи",
        -9.403736280654298
      ],
      [
        "вне",
        -9.404633146746894
      ],
      [
        "мало",
        -9.406208114559227
      ],
      [
        "йдут",
        -9.40675657683962
      ],
      [
        "местны",
        -9.408565235255834
      ],
      [
        "слов",
        -9.409686848603606
      ],
      [
        "ль",
        -9.40970580721609
      ],
      [
        "дете",
        -9.411006644139546
      ],
      [
        "очеред",
        -9.411629641790167
      ],
      [
        "спикер",
        -9.411931576496986
      ],
      [
        "цело",
        -9.413805681569421
      ],
      [
        "конференци",
        -9.413806105717985
      ],
      [
        "илья",
        -9.414580554783397
      ],
      [
        "потенциал",
        -9.415807218326428
      ],
      [
        "Росси",
        -9.417611132261506
      ],
      [
        "использование",
        -9.417994089391893
      ],
      [
        "основан",
        -9.418359822180692
      ],
      [
        "люб",
        -9.419045000602846
      ],
      [
        "ал",
        -9.419898963635076
      ],
      [
        "пяти",
        -9.4213870118807
      ],
      [
        "ально",
        -9.42146977362811
      ],
      [
        "учены",
        -9.42171575338482
      ],
      [
        "ста",
        -9.422432369768572
      ],
      [
        "формат",
        -9.425744892787964
      ],
      [
        "зна",
        -9.426772552461186
      ],
      [
        "ne",
        -9.42966025799429
      ],
      [
        "времен",
        -9.429881299900941
      ],
      [
        "нале",
        -9.430056110516762
      ],
      [
        "ожида",
        -9.430652110008612
      ],
      [
        "техник",
        -9.431572676171006
      ],
      [
        "очно",
        -9.43543622717122
      ],
      [
        "американск",
        -9.435768589324452
      ],
      [
        "биен",
        -9.436872838640872
      ],
      [
        "стил",
        -9.436934918373602
      ],
      [
        "9",
        -9.437461628179513
      ],
      [
        ";",
        -9.440651423753023
      ],
      [
        "водоснабжени",
        -9.440651423753138
      ],
      [
        "гуманитарн",
        -9.440651423755536
      ],
      [
        "блкоммунэнерго",
        -9.44065142376202
      ],
      [
        "происшестви",
        -9.440651423777888
      ],
      [
        "ближайше",
        -9.440651423789966
      ],
      [
        "роспотребнадзор",
        -9.440651424071609
      ],
      [
        "режиссер",
        -9.440651432677395
      ],
      [
        "лазаревск",
        -9.440651434653235
      ],
      [
        "факультет",
        -9.440651435380556
      ],
      [
        "картофел",
        -9.440651439384714
      ],
      [
        "индустри",
        -9.440651466845885
      ],
      [
        "субсиди",
        -9.440651469238704
      ],
      [
        "событие",
        -9.44065148038789
      ],
      [
        "соловьев",
        -9.440651493801994
      ],
      [
        "водохранилищ",
        -9.440651555250676
      ],
      [
        "бархатн",
        -9.440651610952669
      ],
      [
        "гладков",
        -9.440652076284685
      ],
      [
        "повыша",
        -9.44065241622549
      ],
      [
        "экспозици",
        -9.440653813114327
      ],
      [
        "обязанност",
        -9.4406545321604
      ],
      [
        "бобров",
        -9.440655651822834
      ],
      [
        "обычно",
        -9.440656239419345
      ],
      [
        "песков",
        -9.440656253354092
      ],
      [
        "совхоз",
        -9.440661566547524
      ],
      [
        "предоставит",
        -9.440675350008764
      ],
      [
        "обратить",
        -9.44070518211203
      ],
      [
        "границ",
        -9.440722791965406
      ],
      [
        "воздух",
        -9.440729080545214
      ],
      [
        "террористическ",
        -9.440762596884786
      ],
      [
        "принял",
        -9.440776555114276
      ],
      [
        "действительно",
        -9.440784837065857
      ],
      [
        "завершит",
        -9.440806108362267
      ],
      [
        "приводит",
        -9.440814431107315
      ],
      [
        "ber",
        -9.440840684502046
      ],
      [
        "диверси",
        -9.44086240860306
      ],
      [
        "принимать",
        -9.440882473835952
      ],
      [
        "продолжают",
        -9.440963235817629
      ],
      [
        "недавн",
        -9.441105910535498
      ],
      [
        "туристическо",
        -9.441203839724295
      ],
      [
        "чащ",
        -9.44121236144325
      ],
      [
        "топ-",
        -9.441224775514574
      ],
      [
        "составлял",
        -9.441246100633805
      ],
      [
        "медик",
        -9.441330438155322
      ],
      [
        "ассоциаци",
        -9.44135933685536
      ],
      [
        "ипотечн",
        -9.441471322923597
      ],
      [
        "замедлени",
        -9.441507369858826
      ],
      [
        "ина",
        -9.441556721498765
      ],
      [
        "гендиректор",
        -9.441835356739853
      ],
      [
        "тренд",
        -9.442032014748733
      ],
      [
        "анатол",
        -9.44208559640909
      ],
      [
        "прибыль",
        -9.442372988160653
      ],
      [
        "регистраци",
        -9.442787905534797
      ],
      [
        "появил",
        -9.442797100174813
      ],
      [
        "века",
        -9.442864271378845
      ],
      [
        "ярославл",
        -9.442874192664679
      ],
      [
        "порядк",
        -9.443123008225392
      ],
      [
        "меж",
        -9.443805994189349
      ],
      [
        "выбрал",
        -9.4440890552267
      ],
      [
        "стабильност",
        -9.444604823043713
      ],
      [
        "превысил",
        -9.444920936153963
      ],
      [
        "выступил",
        -9.444995694674803
      ],
      [
        "переход",
        -9.445860937481665
      ],
      [
        "обвиняемы",
        -9.446148306633418
      ],
      [
        "лесов",
        -9.447018809135422
      ],
      [
        "провел",
        -9.447211871683582
      ],
      [
        "4",
        -9.447358432907025
      ],
      [
        "произошло",
        -9.447838488572263
      ],
      [
        "ью",
        -9.448176204010778
      ],
      [
        "роли",
        -9.44862609483435
      ],
      [
        "жк",
        -9.448850249150492
      ],
      [
        "привел",
        -9.449146848199454
      ],
      [
        "гар",
        -9.449954191471743
      ],
      [
        "военнослужащи",
        -9.450111761950621
      ],
      [
        "отеле",
        -9.450296758651508
      ],
      [
        "рождени",
        -9.450963442377883
      ],
      [
        "спортивн",
        -9.451367884494028
      ],
      [
        "произоше",
        -9.451862460092597
      ],
      [
        "ядерны",
        -9.454021358066768
      ],
      [
        "бело",
        -9.454885675637236
      ],
      [
        "исполнени",
        -9.455087470857809
      ],
      [
        "воздушно",
        -9.45727593343365
      ],
      [
        "баб",
        -9.45786916448709
      ],
      [
        "среднем",
        -9.458554446175704
      ],
      [
        "ввод",
        -9.459658236196448
      ],
      [
        "фас",
        -9.462321345316528
      ],
      [
        "требовани",
        -9.462406803327449
      ],
      [
        "отправ",
        -9.462898994242124
      ],
      [
        "построи",
        -9.463477201563336
      ],
      [
        "елена",
        -9.463479554554013
      ],
      [
        "вых",
        -9.463706398744701
      ],
      [
        "агент",
        -9.463740306916687
      ],
      [
        "общества",
        -9.463757557810276
      ],
      [
        "пациента",
        -9.464080322275233
      ],
      [
        "поставк",
        -9.464602687436615
      ],
      [
        "журналиста",
        -9.465294407088063
      ],
      [
        "показал",
        -9.465811087409632
      ],
      [
        "как",
        -9.46754820950933
      ],
      [
        "большинство",
        -9.467614213315654
      ],
      [
        "исков",
        -9.467926536875982
      ],
      [
        "золота",
        -9.467953666765478
      ],
      [
        "шел",
        -9.46902082152289
      ],
      [
        "значение",
        -9.469450660849585
      ],
      [
        "наук",
        -9.469717336075465
      ],
      [
        "дани",
        -9.46976476501401
      ],
      [
        "очередно",
        -9.470541441598805
      ],
      [
        "ради",
        -9.471484391279171
      ],
      [
        "группа",
        -9.472045626122865
      ],
      [
        "кор",
        -9.473865825986056
      ],
      [
        "мере",
        -9.474613330138238
      ],
      [
        "вес",
        -9.474948528319754
      ],
      [
        "ii",
        -9.475259312449156
      ],
      [
        "размещени",
        -9.475562937717097
      ],
      [
        "физическ",
        -9.475920555433028
      ],
      [
        "фр",
        -9.476112578251097
      ],
      [
        "передал",
        -9.478852304631612
      ],
      [
        "пре",
        -9.479124912289297
      ],
      [
        "аутизма",
        -9.482216869491445
      ],
      [
        "ведут",
        -9.482926701649419
      ],
      [
        "знак",
        -9.483012139583803
      ],
      [
        "строго",
        -9.483222847124098
      ],
      [
        "ольг",
        -9.485022012156966
      ],
      [
        "создал",
        -9.48640923311467
      ],
      [
        "национальн",
        -9.486910514801203
      ],
      [
        "смогл",
        -9.48801101847131
      ],
      [
        "январе",
        -9.489691384250012
      ],
      [
        "маркетплейс",
        -9.490692446704099
      ],
      [
        "нин",
        -9.490778397147446
      ],
      [
        "экс-",
        -9.492984678905033
      ],
      [
        "турнир",
        -9.493313256450492
      ],
      [
        "восстановлени",
        -9.496368458211888
      ],
      [
        "ками",
        -9.49724189825563
      ],
      [
        "французско",
        -9.497591195349749
      ],
      [
        "казани",
        -9.498196151828637
      ],
      [
        "вин",
        -9.499470193697
      ],
      [
        "русск",
        -9.499810841427749
      ],
      [
        "инициатива",
        -9.499970966191007
      ],
      [
        "сян",
        -9.500141504103752
      ],
      [
        "соответствующи",
        -9.500196817486978
      ],
      [
        "основны",
        -9.500838231537882
      ],
      [
        "срока",
        -9.500875905724124
      ],
      [
        "дал",
        -9.503839141260181
      ],
      [
        "деле",
        -9.504007787917995
      ],
      [
        "площадка",
        -9.505619635466463
      ],
      [
        "запад",
        -9.506303158747082
      ],
      [
        "to",
        -9.506583622220612
      ],
      [
        "ания",
        -9.507034865608508
      ],
      [
        "полет",
        -9.50722379730168
      ],
      [
        "игра",
        -9.507458867423038
      ],
      [
        "соответствующе",
        -9.507586004107441
      ],
      [
        "нашим",
        -9.507618067017622
      ],
      [
        "цов",
        -9.507673918850418
      ],
      [
        "ростовск",
        -9.509650380702311
      ],
      [
        "fi",
        -9.5104579929041
      ],
      [
        "сво",
        -9.51172307616925
      ],
      [
        "рекорд",
        -9.515027102006005
      ],
      [
        "али",
        -9.515144189544394
      ],
      [
        "выпуска",
        -9.524562225915192
      ],
      [
        "вклад",
        -9.526231226081642
      ],
      [
        "лус",
        -9.526460832284911
      ],
      [
        "способ",
        -9.529988441872637
      ],
      [
        "дт",
        -9.531395873219942
      ],
      [
        "коллектив",
        -9.531917286749279
      ],
      [
        "поли",
        -9.532191277889899
      ],
      [
        "четвер",
        -9.5322746856423
      ],
      [
        "иван",
        -9.532280730278005
      ],
      [
        "проб",
        -9.53230278504971
      ],
      [
        "принадлеж",
        -9.53293139572562
      ],
      [
        "устройств",
        -9.53370609903311
      ],
      [
        "правления",
        -9.534480557920837
      ],
      [
        "открыто",
        -9.535066748001926
      ],
      [
        "дизайн",
        -9.53539162493903
      ],
      [
        "мен",
        -9.536329236804242
      ],
      [
        "лидера",
        -9.536649836761383
      ],
      [
        "пром",
        -9.53858092938734
      ],
      [
        "собственно",
        -9.53900816564554
      ],
      [
        "введен",
        -9.539813763869684
      ],
      [
        "раст",
        -9.541887825471536
      ],
      [
        "лучше",
        -9.54225252808245
      ],
      [
        "вооружени",
        -9.542614064747529
      ],
      [
        "размещен",
        -9.544863949080973
      ],
      [
        "сын",
        -9.545625518137827
      ],
      [
        "спор",
        -9.547656300865636
      ],
      [
        "планиру",
        -9.550436539455063
      ],
      [
        "туристически",
        -9.55102148718231
      ],
      [
        "замен",
        -9.551421857944437
      ],
      [
        "усилия",
        -9.552552225564396
      ],
      [
        "син",
        -9.55331801986678
      ],
      [
        "взят",
        -9.555879725107733
      ],
      [
        "er",
        -9.555971350433868
      ],
      [
        "тел",
        -9.55653276992908
      ],
      [
        "университет",
        -9.557592904863265
      ],
      [
        "камер",
        -9.55817421401505
      ],
      [
        "военны",
        -9.558348524443472
      ],
      [
        "россиян",
        -9.559502143233276
      ],
      [
        "мировы",
        -9.561387384341527
      ],
      [
        "предпринимател",
        -9.561963026624243
      ],
      [
        "запланирован",
        -9.563013823264932
      ],
      [
        "супруг",
        -9.564691158303553
      ],
      [
        "норм",
        -9.564902655293684
      ],
      [
        "мощност",
        -9.567909567828725
      ],
      [
        "торговы",
        -9.568833522715735
      ],
      [
        "че",
        -9.569499904058045
      ],
      [
        "льше",
        -9.57020669152208
      ],
      [
        "напомни",
        -9.570761372717023
      ],
      [
        "ch",
        -9.571237515522515
      ],
      [
        "транс",
        -9.571573285996761
      ],
      [
        "И",
        -9.571793384624558
      ],
      [
        "мирны",
        -9.571971914078853
      ],
      [
        "дер",
        -9.571991950764506
      ],
      [
        "общ",
        -9.57433147201429
      ],
      [
        "наблюда",
        -9.575268674425613
      ],
      [
        "произошл",
        -9.57528350646971
      ],
      [
        "париж",
        -9.57529869945864
      ],
      [
        "факт",
        -9.575791911731185
      ],
      [
        "торг",
        -9.57671515101982
      ],
      [
        "любо",
        -9.578426745644618
      ],
      [
        "бле",
        -9.579214805318015
      ],
      [
        "финал",
        -9.581117210823882
      ],
      [
        "достаточно",
        -9.581205670812123
      ],
      [
        "уточня",
        -9.581706404706638
      ],
      [
        "тяжело",
        -9.58181815885913
      ],
      [
        "увеличил",
        -9.582049511257665
      ],
      [
        "тр",
        -9.582661877534779
      ],
      [
        "металл",
        -9.582871787875606
      ],
      [
        "экологи",
        -9.583265493089751
      ],
      [
        "политически",
        -9.583383184766396
      ],
      [
        "спользовать",
        -9.583508566626724
      ],
      [
        "официально",
        -9.583508566689094
      ],
      [
        "самостоятельно",
        -9.583508569008039
      ],
      [
        "апелляционн",
        -9.583508574128563
      ],
      [
        "лексик",
        -9.583508613735004
      ],
      [
        "координ",
        -9.583508718728874
      ],
      [
        "оружи",
        -9.583508950068897
      ],
      [
        "обсуждени",
        -9.583509319772132
      ],
      [
        "повестк",
        -9.583509534382205
      ],
      [
        "беременности",
        -9.58351110856296
      ],
      [
        "ешетников",
        -9.583512731122928
      ],
      [
        "капремонт",
        -9.583513146751967
      ],
      [
        "акционер",
        -9.583518845631513
      ],
      [
        "зафиксирован",
        -9.583525162078681
      ],
      [
        "десятилети",
        -9.583534149664711
      ],
      [
        "книг",
        -9.583537303542927
      ],
      [
        "бермон",
        -9.583538562197237
      ],
      [
        "подготовк",
        -9.583538837601926
      ],
      [
        "правоохранител",
        -9.583541231364448
      ],
      [
        "сформирован",
        -9.583549648332683
      ],
      [
        "начина",
        -9.583558881594872
      ],
      [
        "относительно",
        -9.583559451937742
      ],
      [
        "платформ",
        -9.583585229970078
      ],
      [
        "доктор",
        -9.583609623941623
      ],
      [
        "Сочи",
        -9.583647918805804
      ],
      [
        "высши",
        -9.583650377701705
      ],
      [
        "зависимост",
        -9.583656537881552
      ],
      [
        "поколени",
        -9.583666737245682
      ],
      [
        "научно-",
        -9.583675279303744
      ],
      [
        "посещени",
        -9.58369904925119
      ],
      [
        "eon",
        -9.583763665688354
      ],
      [
        "частично",
        -9.583808306334474
      ],
      [
        "госдум",
        -9.58386142946515
      ],
      [
        "совфед",
        -9.583864922096385
      ],
      [
        "заболевани",
        -9.58403167395343
      ],
      [
        "методик",
        -9.584334883297771
      ],
      [
        "трем",
        -9.584369984777709
      ],
      [
        "коммунальн",
        -9.584491786480921
      ],
      [
        "нных",
        -9.584532041133238
      ],
      [
        "выразил",
        -9.584805530893131
      ],
      [
        "финансировани",
        -9.58508092316528
      ],
      [
        "крайне",
        -9.585250570776939
      ],
      [
        "причастн",
        -9.585332508582738
      ],
      [
        "алексеев",
        -9.585409743096392
      ],
      [
        "занял",
        -9.585464392444452
      ],
      [
        "какие",
        -9.585488586357599
      ],
      [
        "условно",
        -9.585528546453181
      ],
      [
        "мусор",
        -9.585535781350547
      ],
      [
        "ходит",
        -9.58555811821188
      ],
      [
        "страж",
        -9.585642743685849
      ],
      [
        "кадров",
        -9.585694361242988
      ],
      [
        "земли",
        -9.5857671483563
      ],
      [
        "экспертиз",
        -9.586183986375044
      ],
      [
        "требует",
        -9.586364825324402
      ],
      [
        "установк",
        -9.586991573298535
      ],
      [
        "палат",
        -9.587068427653094
      ],
      [
        "ационном",
        -9.58731102286174
      ],
      [
        "помощник",
        -9.587425757713998
      ],
      [
        "надзор",
        -9.587555130207477
      ],
      [
        "-министр",
        -9.588055581900122
      ],
      [
        "ответственность",
        -9.58815741237429
      ],
      [
        "дене",
        -9.588804302136607
      ],
      [
        "распределени",
        -9.588895693063286
      ],
      [
        "подобны",
        -9.589237631611603
      ],
      [
        "овали",
        -9.589812121463229
      ],
      [
        "чер",
        -9.589988104547754
      ],
      [
        "предварительно",
        -9.590757329014256
      ],
      [
        "агентств",
        -9.59087450338015
      ],
      [
        "ющего",
        -9.591341199573296
      ],
      [
        "вал",
        -9.59152889381742
      ],
      [
        "линейк",
        -9.591545882250617
      ],
      [
        "возможны",
        -9.592023351405148
      ],
      [
        "жильц",
        -9.592733442136497
      ],
      [
        "мяч",
        -9.593084563496902
      ],
      [
        "внедря",
        -9.593163424976519
      ],
      [
        "бала",
        -9.594394899571194
      ],
      [
        "поздне",
        -9.594624788423554
      ],
      [
        "настоящи",
        -9.594934774462269
      ],
      [
        "следующе",
        -9.59512006062067
      ],
      [
        "факту",
        -9.59580612569081
      ],
      [
        "подал",
        -9.596025989322246
      ],
      [
        "риа",
        -9.59645668378187
      ],
      [
        "закупк",
        -9.59688434727532
      ],
      [
        "расходов",
        -9.597001446948175
      ],
      [
        "судьб",
        -9.597206315517749
      ],
      [
        "контроль",
        -9.59727476504256
      ],
      [
        "действующи",
        -9.597353407840442
      ],
      [
        "небольш",
        -9.59897829848088
      ],
      [
        "уров",
        -9.59911712086223
      ],
      [
        "соответствующ",
        -9.600967640697842
      ],
      [
        "списк",
        -9.600991056896758
      ],
      [
        "туристов",
        -9.60122650585667
      ],
      [
        "казал",
        -9.601874922657911
      ],
      [
        "скую",
        -9.60263906512265
      ],
      [
        "придержива",
        -9.603667543658965
      ],
      [
        "овсе",
        -9.604345607630455
      ],
      [
        "яги",
        -9.604671478860489
      ],
      [
        "завершени",
        -9.604825306875476
      ],
      [
        "учитыва",
        -9.60504285351449
      ],
      [
        "инской",
        -9.605297237676098
      ],
      [
        "чь",
        -9.606096764005917
      ],
      [
        "сток",
        -9.60649684142775
      ],
      [
        "современны",
        -9.607382511185687
      ],
      [
        "коре",
        -9.607610810549982
      ],
      [
        "творчески",
        -9.607931443653605
      ],
      [
        "изаци",
        -9.608043853732273
      ],
      [
        "комиссии",
        -9.610197781020286
      ],
      [
        "антон",
        -9.611319476340059
      ],
      [
        "исте",
        -9.611488000197674
      ],
      [
        "галин",
        -9.613078880296845
      ],
      [
        "проходит",
        -9.613575159346153
      ],
      [
        "рий",
        -9.61380332524105
      ],
      [
        "наде",
        -9.61529011247817
      ],
      [
        "поче",
        -9.61625815363261
      ],
      [
        "ле",
        -9.616311061756095
      ],
      [
        "ний",
        -9.617627194721893
      ],
      [
        "ники",
        -9.619783669535199
      ],
      [
        "качество",
        -9.620085257442494
      ],
      [
        "шт",
        -9.621140755502811
      ],
      [
        "сад",
        -9.622226843228615
      ],
      [
        "сделал",
        -9.625221179615645
      ],
      [
        "дали",
        -9.625546104392482
      ],
      [
        "никаки",
        -9.626664397962536
      ],
      [
        "о-",
        -9.627633167063204
      ],
      [
        "совместны",
        -9.627781388108975
      ],
      [
        "кин",
        -9.631148166535894
      ],
      [
        "конкретны",
        -9.631582806527563
      ],
      [
        "продава",
        -9.63262804814865
      ],
      [
        "возможно",
        -9.633306033153884
      ],
      [
        "кри",
        -9.633446102843912
      ],
      [
        "полно",
        -9.634725221141466
      ],
      [
        "знаком",
        -9.634890724733676
      ],
      [
        "советник",
        -9.636176166790435
      ],
      [
        "наст",
        -9.636548718949921
      ],
      [
        "стани",
        -9.636933727701583
      ],
      [
        "основн",
        -9.637575067809689
      ],
      [
        "зори",
        -9.637637439086634
      ],
      [
        "найт",
        -9.638515487109231
      ],
      [
        "последующе",
        -9.640626984119743
      ],
      [
        "высоко",
        -9.642199705507004
      ],
      [
        "зи",
        -9.64271435164266
      ],
      [
        "торговл",
        -9.642816308272907
      ],
      [
        "вший",
        -9.642830979256209
      ],
      [
        "другим",
        -9.64298920857341
      ],
      [
        "вынес",
        -9.644249803627027
      ],
      [
        "код",
        -9.644645313848388
      ],
      [
        "ким",
        -9.645073362262105
      ],
      [
        "программам",
        -9.64522909192588
      ],
      [
        "ног",
        -9.645567856511764
      ],
      [
        "лечение",
        -9.646029707423317
      ],
      [
        "незаконн",
        -9.64653749715711
      ],
      [
        "жилье",
        -9.64717286804959
      ],
      [
        "стройк",
        -9.647300903757845
      ],
      [
        "отчет",
        -9.64784678716527
      ],
      [
        "le",
        -9.651831542993975
      ],
      [
        "остальны",
        -9.652630206607569
      ],
      [
        "лица",
        -9.655372099995969
      ],
      [
        "сектор",
        -9.656003992625967
      ],
      [
        "объектам",
        -9.65741570291123
      ],
      [
        "местно",
        -9.65762703258532
      ],
      [
        "достиг",
        -9.657897997427318
      ],
      [
        "электромобил",
        -9.658515081747753
      ],
      [
        "ент",
        -9.659195828243618
      ],
      [
        "стратегическо",
        -9.659412836691532
      ],
      [
        "сб",
        -9.660531324474524
      ],
      [
        "путе",
        -9.661255411758052
      ],
      [
        "инском",
        -9.661482175930576
      ],
      [
        "изуч",
        -9.663582054614569
      ],
      [
        "сельск",
        -9.663796174650772
      ],
      [
        "посадк",
        -9.664855376843914
      ],
      [
        "дрона",
        -9.665341854099557
      ],
      [
        "енны",
        -9.666945243725149
      ],
      [
        "et",
        -9.670236536347499
      ],
      [
        "сор",
        -9.671400565314634
      ],
      [
        "приш",
        -9.674321899433217
      ],
      [
        "высок",
        -9.674414754615789
      ],
      [
        "прода",
        -9.674688571738299
      ],
      [
        "над",
        -9.674924885687581
      ],
      [
        "urus",
        -9.675609998950518
      ],
      [
        "садов",
        -9.678723421482633
      ],
      [
        "зоне",
        -9.678984921248059
      ],
      [
        "направленны",
        -9.680484747291016
      ],
      [
        "дн",
        -9.680565228446435
      ],
      [
        "своим",
        -9.680923963779275
      ],
      [
        "ce",
        -9.681435742998657
      ],
      [
        "подрядчик",
        -9.683345196806142
      ],
      [
        "чко",
        -9.68407538934429
      ],
      [
        "стро",
        -9.688968411410414
      ],
      [
        "00",
        -9.690139426140636
      ],
      [
        "изъяти",
        -9.691029394738756
      ],
      [
        "ева",
        -9.692868714122351
      ],
      [
        "историческ",
        -9.693198003184442
      ],
      [
        "устройство",
        -9.694096792284643
      ],
      [
        "мэри",
        -9.694833809503338
      ],
      [
        "помога",
        -9.69556261707735
      ],
      [
        "выбора",
        -9.696488858894101
      ],
      [
        "десятк",
        -9.69667826841947
      ],
      [
        "объединенн",
        -9.696963787611239
      ],
      [
        "ор",
        -9.697717450982989
      ],
      [
        "российском",
        -9.698726972176903
      ],
      [
        "100",
        -9.698902051955953
      ],
      [
        "следственн",
        -9.698938726915461
      ],
      [
        "представлен",
        -9.698981344978321
      ],
      [
        "посвященн",
        -9.701930185205544
      ],
      [
        "поврежден",
        -9.702214108224116
      ],
      [
        "планирова",
        -9.705813143338613
      ],
      [
        "ман",
        -9.706848479100389
      ],
      [
        "ающие",
        -9.708283498714396
      ],
      [
        "служба",
        -9.709153258354162
      ],
      [
        "лков",
        -9.70928809398754
      ],
      [
        "оснащен",
        -9.709398696045621
      ],
      [
        "ронал",
        -9.709872089392013
      ],
      [
        "гон",
        -9.710836779044621
      ],
      [
        "ере",
        -9.711132442989612
      ],
      [
        "край",
        -9.712684638776073
      ],
      [
        "вр",
        -9.713777873321483
      ],
      [
        "максим",
        -9.714205689460178
      ],
      [
        "эн",
        -9.715266459970488
      ],
      [
        "нефт",
        -9.716827151231035
      ],
      [
        "подрост",
        -9.716839386978274
      ],
      [
        "ьно",
        -9.717895708345852
      ],
      [
        "изации",
        -9.717976580135877
      ],
      [
        "современн",
        -9.71875029001504
      ],
      [
        "горно",
        -9.718934558611776
      ],
      [
        "доступны",
        -9.720088044493183
      ],
      [
        "том",
        -9.72113522504591
      ],
      [
        "стер",
        -9.722883857919195
      ],
      [
        "получени",
        -9.723261196804337
      ],
      [
        "подрыв",
        -9.723431565853165
      ],
      [
        "технологическ",
        -9.72349893255572
      ],
      [
        "бри",
        -9.723690989980046
      ],
      [
        "генеральн",
        -9.724304500640509
      ],
      [
        "помог",
        -9.724811131052888
      ],
      [
        "пыта",
        -9.726141928461463
      ],
      [
        "национально",
        -9.72751552673278
      ],
      [
        "осло",
        -9.727629679181105
      ],
      [
        "красн",
        -9.728768764238133
      ],
      [
        "ул",
        -9.729871022406147
      ],
      [
        "должно",
        -9.730013075281054
      ],
      [
        "сказать",
        -9.731875156990148
      ],
      [
        "степен",
        -9.732617004779945
      ],
      [
        "доб",
        -9.733593510130614
      ],
      [
        "искусств",
        -9.733981570656814
      ],
      [
        "пути",
        -9.734372474128529
      ],
      [
        "оск",
        -9.735104310199024
      ],
      [
        "кто",
        -9.736526199498764
      ],
      [
        "ключево",
        -9.737370999122362
      ],
      [
        "вших",
        -9.737665953619027
      ],
      [
        "восем",
        -9.737849116591201
      ],
      [
        "стоимост",
        -9.737891651444876
      ],
      [
        "производственны",
        -9.738581739955356
      ],
      [
        "смысл",
        -9.739209247171543
      ],
      [
        "ток",
        -9.739746272273772
      ],
      [
        "смертн",
        -9.741181138541787
      ],
      [
        "предварительн",
        -9.741684209583065
      ],
      [
        "жар",
        -9.74238696214168
      ],
      [
        "управля",
        -9.743808588210195
      ],
      [
        "овском",
        -9.744151711028547
      ],
      [
        "доказательств",
        -9.744406764358668
      ],
      [
        "дальнейше",
        -9.745085531301052
      ],
      [
        "после",
        -9.745205060327674
      ],
      [
        "оэ",
        -9.745413961526015
      ],
      [
        "нам",
        -9.745915419262602
      ],
      [
        "меньше",
        -9.746907095399155
      ],
      [
        "музык",
        -9.747320733833325
      ],
      [
        "капитал",
        -9.747369758563087
      ],
      [
        "падени",
        -9.747734838485279
      ],
      [
        "пользу",
        -9.748553076128456
      ],
      [
        "следствия",
        -9.748554527569421
      ],
      [
        "миллион",
        -9.749178083925415
      ],
      [
        "кольц",
        -9.749274761225152
      ],
      [
        "ировали",
        -9.749613106207823
      ],
      [
        "упатель",
        -9.749998767244884
      ],
      [
        "принцип",
        -9.75014912345272
      ],
      [
        "-антуанетт",
        -9.750175233276906
      ],
      [
        "Удмуртии",
        -9.750175233276924
      ],
      [
        "библиотек",
        -9.750175233277103
      ],
      [
        "присутстви",
        -9.750175233308017
      ],
      [
        "6",
        -9.750175233316792
      ],
      [
        "инструмент",
        -9.75017523337879
      ],
      [
        "вынужден",
        -9.750175233419663
      ],
      [
        "муниципально",
        -9.750175233465063
      ],
      [
        "автомобиля",
        -9.750175233580565
      ],
      [
        "цимлянско",
        -9.750175234730929
      ],
      [
        "мошенничеств",
        -9.750175239204925
      ],
      [
        "середюк",
        -9.750175240395428
      ],
      [
        "выручк",
        -9.750175253055833
      ],
      [
        "копенгаген",
        -9.750175265404
      ],
      [
        "практик",
        -9.750175265754317
      ],
      [
        "приоритет",
        -9.750175284410263
      ],
      [
        "инспекци",
        -9.750175287311166
      ],
      [
        "сократил",
        -9.750175330620259
      ],
      [
        "дискусси",
        -9.750175357147823
      ],
      [
        "традиционно",
        -9.750175502837743
      ],
      [
        "предыдущ",
        -9.75017568366062
      ],
      [
        "постоянно",
        -9.75017584902702
      ],
      [
        "аппарат",
        -9.750175921846903
      ],
      [
        "соревнования",
        -9.750176515082085
      ],
      [
        "изготовлени",
        -9.750176687050812
      ],
      [
        "альянс",
        -9.750176707381069
      ],
      [
        "инфекци",
        -9.750176866854966
      ],
      [
        "возглавил",
        -9.750176882850276
      ],
      [
        "отмечен",
        -9.750177080120993
      ],
      [
        "однократно",
        -9.750177618948015
      ],
      [
        "проезж",
        -9.750178981547903
      ],
      [
        "завершил",
        -9.750180147558941
      ],
      [
        "берегов",
        -9.750182989853183
      ],
      [
        "прошунин",
        -9.750183306772477
      ],
      [
        "Жител",
        -9.750184693367196
      ],
      [
        "бюро",
        -9.750185115524015
      ],
      [
        "кутюр",
        -9.750185660210615
      ],
      [
        "газет",
        -9.750185865749977
      ],
      [
        "архитектур",
        -9.750187550605979
      ],
      [
        "Краснодар",
        -9.75018863266563
      ],
      [
        "росавиаци",
        -9.750191302244495
      ],
      [
        "взял",
        -9.750192218289426
      ],
      [
        "отвеча",
        -9.750194325071007
      ],
      [
        "полугоди",
        -9.750195713182185
      ],
      [
        "способству",
        -9.7502098771517
      ],
      [
        "обучени",
        -9.75021016495919
      ],
      [
        "ваканси",
        -9.750211893161653
      ],
      [
        "украшени",
        -9.750213027690554
      ],
      [
        "расширени",
        -9.750214881229905
      ],
      [
        "обязательств",
        -9.750215183567342
      ],
      [
        "кластер",
        -9.750218073216992
      ],
      [
        "контакт",
        -9.75022214790625
      ],
      [
        "статистик",
        -9.750223300092618
      ],
      [
        "судостроени",
        -9.750242062436387
      ],
      [
        "pro",
        -9.750246272101947
      ],
      [
        "горичев",
        -9.75024639672801
      ],
      [
        "электроэнерги",
        -9.750255846228232
      ],
      [
        "мастер-класс",
        -9.750264374072316
      ],
      [
        "динамик",
        -9.75027907776315
      ],
      [
        "портал",
        -9.75028012897324
      ],
      [
        "попросил",
        -9.750282891822105
      ],
      [
        "жалоб",
        -9.75028903758443
      ],
      [
        "роль",
        -9.75029453291484
      ],
      [
        "топ-менеджер",
        -9.75032446743065
      ],
      [
        "подстанци",
        -9.750338157258831
      ],
      [
        "футболист",
        -9.750343534545356
      ],
      [
        "остова-на-",
        -9.750353535826864
      ],
      [
        "проводят",
        -9.750358257502478
      ],
      [
        "реконструкци",
        -9.750379399721698
      ],
      [
        "одну",
        -9.750392607357451
      ],
      [
        "широки",
        -9.750415489009255
      ],
      [
        "xvi",
        -9.75043865760458
      ],
      [
        "классическ",
        -9.750448817796613
      ],
      [
        "предназначен",
        -9.75048421569598
      ],
      [
        "человеч",
        -9.75048656704115
      ],
      [
        "подвеск",
        -9.75050850904425
      ],
      [
        "дельник",
        -9.750550872619842
      ],
      [
        "euters",
        -9.750602648984103
      ],
      [
        "одобрил",
        -9.750606669625489
      ],
      [
        "состоит",
        -9.750620638661651
      ],
      [
        "план",
        -9.7507068374737
      ],
      [
        "прожива",
        -9.750711079658181
      ],
      [
        "новосибирск",
        -9.750717194841938
      ],
      [
        "вернул",
        -9.750734266771314
      ],
      [
        "tex",
        -9.750744796145355
      ],
      [
        "генпрокурор",
        -9.750795422005904
      ],
      [
        "воспитани",
        -9.750807283522633
      ],
      [
        "семен",
        -9.75083021813533
      ],
      [
        "здели",
        -9.75083970067281
      ],
      [
        "унци",
        -9.750872571962734
      ],
      [
        "ty",
        -9.750933908621073
      ],
      [
        "разуме",
        -9.75093764133675
      ],
      [
        "реакци",
        -9.7509952858789
      ],
      [
        "нецензурн",
        -9.751072387196396
      ],
      [
        "достижени",
        -9.7511010976492
      ],
      [
        "призвал",
        -9.751235592517123
      ],
      [
        "позволя",
        -9.751320340660074
      ],
      [
        "аналог",
        -9.751351887010692
      ],
      [
        "прокомментировал",
        -9.751377009915037
      ],
      [
        "тол",
        -9.751438378050679
      ],
      [
        "новороссийск",
        -9.75147191180778
      ],
      [
        "устранени",
        -9.751820465484364
      ],
      [
        "объединения",
        -9.751885211390118
      ],
      [
        "ликвидаци",
        -9.751894015729835
      ],
      [
        "подтвердил",
        -9.751896447501112
      ],
      [
        "тяжени",
        -9.752033272634758
      ],
      [
        "видим",
        -9.752046668826729
      ],
      [
        "старше",
        -9.752124222754444
      ],
      [
        "приобрел",
        -9.752390540541834
      ],
      [
        "мандат",
        -9.75246683742303
      ],
      [
        "могл",
        -9.752489597194709
      ],
      [
        "вернуть",
        -9.752606096071938
      ],
      [
        "опубликовал",
        -9.75280068305797
      ],
      [
        "рассчитыва",
        -9.75293946928212
      ],
      [
        "заключил",
        -9.753023753883625
      ],
      [
        "преми",
        -9.753110826333796
      ],
      [
        "половин",
        -9.75315899748683
      ],
      [
        "спин",
        -9.753172443786392
      ],
      [
        "родил",
        -9.753307206638068
      ],
      [
        "марии",
        -9.753309535013779
      ],
      [
        "обнаружил",
        -9.75343381073839
      ],
      [
        "спуст",
        -9.753866696961968
      ],
      [
        "ограничива",
        -9.753923226297017
      ],
      [
        "молодежно",
        -9.754010189944637
      ],
      [
        "возвращени",
        -9.7543309682014
      ],
      [
        "проходил",
        -9.754527110812909
      ],
      [
        "северно",
        -9.754728847070998
      ],
      [
        "приступил",
        -9.755070234892186
      ],
      [
        "авиакомпани",
        -9.755314977064245
      ],
      [
        "республиканск",
        -9.755637532061284
      ],
      [
        "довери",
        -9.755679537372263
      ],
      [
        "массово",
        -9.755702342240596
      ],
      [
        "el",
        -9.75574731316764
      ],
      [
        "риго",
        -9.755939562553076
      ],
      [
        "старт",
        -9.75611278023233
      ],
      [
        "глух",
        -9.75636712021172
      ],
      [
        "привлекательност",
        -9.756520176343813
      ],
      [
        "повод",
        -9.756691344403558
      ],
      [
        "вшем",
        -9.75709625973581
      ],
      [
        "nis",
        -9.75715331892889
      ],
      [
        "прим",
        -9.757387387049402
      ],
      [
        "lo",
        -9.757443734722116
      ],
      [
        "захват",
        -9.7574456407031
      ],
      [
        "внутренни",
        -9.75822402249179
      ],
      [
        "борт",
        -9.758678117070591
      ],
      [
        "уточнил",
        -9.759148961151922
      ],
      [
        "коммерчески",
        -9.7592426608165
      ],
      [
        "этап",
        -9.759498276748463
      ],
      [
        "создан",
        -9.760571981062803
      ],
      [
        "общественн",
        -9.760667805852474
      ],
      [
        "наследи",
        -9.760828147289324
      ],
      [
        "городск",
        -9.761620232540258
      ],
      [
        "com",
        -9.762204420744492
      ],
      [
        "масштаб",
        -9.762702225179726
      ],
      [
        "сервиса",
        -9.7628405343327
      ],
      [
        "букмекерски",
        -9.763065987443783
      ],
      [
        "ярославско",
        -9.763145822429
      ],
      [
        "фс",
        -9.764223268066715
      ],
      [
        "ги",
        -9.764258193136909
      ],
      [
        "промышленност",
        -9.764680621897774
      ],
      [
        "красно",
        -9.765470249757998
      ],
      [
        "полученны",
        -9.765499710849848
      ],
      [
        "образовательны",
        -9.765618213260426
      ],
      [
        "чемпион",
        -9.765802755616553
      ],
      [
        "недополучил",
        -9.766107736611662
      ],
      [
        "ex",
        -9.766343063365783
      ],
      [
        "нынешне",
        -9.766898525295787
      ],
      [
        "обстоятельства",
        -9.76696689219141
      ],
      [
        "al",
        -9.766969639103824
      ],
      [
        "сторона",
        -9.76710257233215
      ],
      [
        "легко",
        -9.76750380551991
      ],
      [
        "ошибк",
        -9.76792613476815
      ],
      [
        "ществ",
        -9.767927441464641
      ],
      [
        "крупнейши",
        -9.7682170085749
      ],
      [
        "оды",
        -9.768386046387246
      ],
      [
        "обвиняемых",
        -9.768585434965846
      ],
      [
        "подразделения",
        -9.768638532480546
      ],
      [
        "приговорил",
        -9.769299190875284
      ],
      [
        "поступления",
        -9.769543270263132
      ],
      [
        "оценива",
        -9.770514362227399
      ],
      [
        "перм",
        -9.770572507774949
      ],
      [
        "европейски",
        -9.770804151642999
      ],
      [
        "специальны",
        -9.771266973318582
      ],
      [
        "потребовала",
        -9.77133322442001
      ],
      [
        "лота",
        -9.772887826882123
      ],
      [
        "займ",
        -9.772932911698774
      ],
      [
        "вали",
        -9.774954604995242
      ],
      [
        "черн",
        -9.775198964125261
      ],
      [
        "русл",
        -9.775698651380548
      ],
      [
        "особ",
        -9.775709486850499
      ],
      [
        "выполнени",
        -9.77744508782312
      ],
      [
        "административны",
        -9.777636220667805
      ],
      [
        "тво",
        -9.779161355303238
      ],
      [
        "гк",
        -9.780248183549551
      ],
      [
        "дни",
        -9.780669482722022
      ],
      [
        "дат",
        -9.780936888918507
      ],
      [
        "силу",
        -9.781681101427505
      ],
      [
        "участникам",
        -9.782042604473919
      ],
      [
        "взятк",
        -9.783939650289359
      ],
      [
        "связанны",
        -9.784486839415775
      ],
      [
        "личны",
        -9.784559823416046
      ],
      [
        "подъезда",
        -9.785732806728204
      ],
      [
        "ще",
        -9.785979116716575
      ],
      [
        "ясно",
        -9.786217151446706
      ],
      [
        "спорны",
        -9.786347048399948
      ],
      [
        "дополнительны",
        -9.786381995919285
      ],
      [
        "народны",
        -9.787046609376604
      ],
      [
        "нг",
        -9.789279824018157
      ],
      [
        "серьезно",
        -9.789722013686879
      ],
      [
        "поне",
        -9.792974941703385
      ],
      [
        "ори",
        -9.794166787525194
      ],
      [
        "сообщение",
        -9.794373341566809
      ],
      [
        "граждански",
        -9.795964239679996
      ],
      [
        "слу",
        -9.797690318044486
      ],
      [
        "номер",
        -9.798358653475582
      ],
      [
        "закрыл",
        -9.801137052607896
      ],
      [
        "начально",
        -9.801362095500634
      ],
      [
        "перенос",
        -9.80150648971692
      ],
      [
        "чита",
        -9.80233255980146
      ],
      [
        "ически",
        -9.802977932645927
      ],
      [
        "зло",
        -9.805543166967723
      ],
      [
        "программа",
        -9.809762601372906
      ],
      [
        "щих",
        -9.81301142227877
      ],
      [
        "гродн",
        -9.813713795001455
      ],
      [
        "коб",
        -9.813937415645984
      ],
      [
        "ран",
        -9.814925665405527
      ],
      [
        "жа",
        -9.816006987239499
      ],
      [
        "страна",
        -9.816107269516362
      ],
      [
        "усов",
        -9.81682156099791
      ],
      [
        "тор",
        -9.816950044935103
      ],
      [
        "главно",
        -9.81781047839512
      ],
      [
        "тора",
        -9.81951580501769
      ],
      [
        "конкурс",
        -9.819516151340565
      ],
      [
        "bm",
        -9.820052099170232
      ],
      [
        "никит",
        -9.820072709150883
      ],
      [
        "система",
        -9.821301057880918
      ],
      [
        "здоров",
        -9.822711153318963
      ],
      [
        "може",
        -9.823480625036112
      ],
      [
        "подсч",
        -9.823679553082137
      ],
      [
        "рейтинга",
        -9.823723187726731
      ],
      [
        "итали",
        -9.824419881766776
      ],
      [
        "крупно",
        -9.825327668569148
      ],
      [
        "льготны",
        -9.825683184733602
      ],
      [
        "финансов",
        -9.82735241329754
      ],
      [
        "чаты",
        -9.827474351673867
      ],
      [
        "постав",
        -9.828376696218717
      ],
      [
        "представителе",
        -9.833009048936145
      ],
      [
        "учреждени",
        -9.833984821642431
      ],
      [
        "вер",
        -9.834003617724708
      ],
      [
        "российским",
        -9.83504519792168
      ],
      [
        "бор",
        -9.835128087025335
      ],
      [
        "регулярно",
        -9.835135176899552
      ],
      [
        "an",
        -9.83802540992397
      ],
      [
        "часто",
        -9.838075807940598
      ],
      [
        "ированны",
        -9.838372518958572
      ],
      [
        "мал",
        -9.841602924388809
      ],
      [
        "рик",
        -9.843270976940056
      ],
      [
        "ющей",
        -9.844061110531621
      ],
      [
        "задержани",
        -9.845467973992347
      ],
      [
        "дополнительно",
        -9.84756903520481
      ],
      [
        "йти",
        -9.847840116587147
      ],
      [
        "включен",
        -9.848895756614597
      ],
      [
        "поз",
        -9.849356108483011
      ],
      [
        "популярны",
        -9.850174926387954
      ],
      [
        "жителя",
        -9.850749237054783
      ],
      [
        "коми",
        -9.851348275197674
      ],
      [
        "опер",
        -9.852741699440038
      ],
      [
        "петербург",
        -9.853322187530036
      ],
      [
        "делов",
        -9.853803199922563
      ],
      [
        "право",
        -9.854798402901041
      ],
      [
        "вызыва",
        -9.854936609705423
      ],
      [
        "вакцин",
        -9.856815725945445
      ],
      [
        "продолжат",
        -9.856902044070377
      ],
      [
        "золоты",
        -9.858662402768557
      ],
      [
        "став",
        -9.859624659107137
      ],
      [
        "ивал",
        -9.86224983770788
      ],
      [
        "образование",
        -9.862357385380017
      ],
      [
        "рассматрива",
        -9.862935026425719
      ],
      [
        "ры",
        -9.864039257340707
      ],
      [
        "ня",
        -9.865219749390436
      ],
      [
        "пройд",
        -9.865281356426443
      ],
      [
        "инь",
        -9.865368611751373
      ],
      [
        "обе",
        -9.86553363243597
      ],
      [
        "десятка",
        -9.866113516033503
      ],
      [
        "установлени",
        -9.866742040507837
      ],
      [
        "воробьев",
        -9.867097094818401
      ],
      [
        "правила",
        -9.868955603003641
      ],
      [
        "частн",
        -9.870266264501256
      ],
      [
        "ша",
        -9.871014932119875
      ],
      [
        "рад",
        -9.871486042174748
      ],
      [
        "ограничен",
        -9.871942198276837
      ],
      [
        "выявлен",
        -9.872327175774714
      ],
      [
        "лено",
        -9.872817102638995
      ],
      [
        "устройства",
        -9.873625681393158
      ],
      [
        "заявлен",
        -9.874140849667556
      ],
      [
        "сообщени",
        -9.879307043667339
      ],
      [
        "провайдер",
        -9.879322545644996
      ],
      [
        "ub",
        -9.880213923397614
      ],
      [
        "поставщик",
        -9.880757580259099
      ],
      [
        "китай",
        -9.882509168693907
      ],
      [
        "опубликован",
        -9.88285618718721
      ],
      [
        "держав",
        -9.883075371083754
      ],
      [
        "указ",
        -9.8832104645311
      ],
      [
        "конц",
        -9.884050777127104
      ],
      [
        "ростов",
        -9.884272800326363
      ],
      [
        "важн",
        -9.884753101753583
      ],
      [
        "общественно",
        -9.888859720038223
      ],
      [
        "джа",
        -9.88960480118731
      ],
      [
        "выяснил",
        -9.889916200666873
      ],
      [
        "3pl-оператор",
        -9.8905209297216
      ],
      [
        "вает",
        -9.890595491457859
      ],
      [
        "пациент",
        -9.890828313129429
      ],
      [
        "начальн",
        -9.891408291975823
      ],
      [
        "ция",
        -9.892800955531936
      ],
      [
        "мут",
        -9.89407586905082
      ],
      [
        "рассмотр",
        -9.894154847019523
      ],
      [
        "отделение",
        -9.896123970744815
      ],
      [
        "тела",
        -9.896185958661032
      ],
      [
        "республика",
        -9.896950934975713
      ],
      [
        "ранены",
        -9.89741825480543
      ],
      [
        "вход",
        -9.898751147954806
      ],
      [
        "щик",
        -9.899215600404197
      ],
      [
        "значени",
        -9.901901712125275
      ],
      [
        "полномочи",
        -9.902087888063129
      ],
      [
        "театр",
        -9.905393165150592
      ],
      [
        "нской",
        -9.906254266946416
      ],
      [
        "ъ-с",
        -9.906411367720402
      ],
      [
        "след",
        -9.906551734039065
      ],
      [
        "вопроса",
        -9.908251895235072
      ],
      [
        "застройщик",
        -9.908302264112987
      ],
      [
        "функци",
        -9.908510464432103
      ],
      [
        "заключен",
        -9.909543287776389
      ],
      [
        "семейн",
        -9.911047700250851
      ],
      [
        "оператор",
        -9.911053190661413
      ],
      [
        "це",
        -9.91329276013033
      ],
      [
        "курс",
        -9.913365017788257
      ],
      [
        "дне",
        -9.91347593618794
      ],
      [
        "кб",
        -9.914359424913362
      ],
      [
        "апрел",
        -9.914387083455923
      ],
      [
        "правительстве",
        -9.914514698319799
      ],
      [
        "вырос",
        -9.914956783037194
      ],
      [
        "бег",
        -9.916083651327767
      ],
      [
        "организова",
        -9.916896034878578
      ],
      [
        "транспортно",
        -9.91751636729149
      ],
      [
        "кавказ",
        -9.917855648800273
      ],
      [
        "эффективно",
        -9.919357591324966
      ],
      [
        "невозможн",
        -9.921591037565648
      ],
      [
        "популяр",
        -9.921996181480523
      ],
      [
        "ско",
        -9.922045155164316
      ],
      [
        "геро",
        -9.922068466393755
      ],
      [
        "енн",
        -9.922136500718171
      ],
      [
        "пут",
        -9.922229742930412
      ],
      [
        "знани",
        -9.923084590111491
      ],
      [
        "добыва",
        -9.92333181880616
      ],
      [
        "дорожн",
        -9.924100419914796
      ],
      [
        "уф",
        -9.924709888319867
      ],
      [
        "комисси",
        -9.925343246885612
      ],
      [
        "производител",
        -9.925518087323285
      ],
      [
        "обвинени",
        -9.925779252155314
      ],
      [
        "ответ",
        -9.928414173768783
      ],
      [
        "судебн",
        -9.931250435936834
      ],
      [
        "назнач",
        -9.931789205617662
      ],
      [
        "пуст",
        -9.934076162922699
      ],
      [
        "носить",
        -9.935266996314663
      ],
      [
        "рос",
        -9.935874548764778
      ],
      [
        "помощ",
        -9.936023913964506
      ],
      [
        "предлагаю",
        -9.936744428392378
      ],
      [
        "ti",
        -9.937328427793952
      ],
      [
        "актов",
        -9.939306776764116
      ],
      [
        "мастер",
        -9.939474771126328
      ],
      [
        "фирм",
        -9.939830773788918
      ],
      [
        "луч",
        -9.940077293180043
      ],
      [
        "нски",
        -9.940559708979784
      ],
      [
        "стям",
        -9.94080420258972
      ],
      [
        "стрел",
        -9.94081882219713
      ],
      [
        "смен",
        -9.943211107728265
      ],
      [
        "реализован",
        -9.943375018799331
      ],
      [
        "ине",
        -9.943531208913898
      ],
      [
        "явление",
        -9.944266772309923
      ],
      [
        "нанес",
        -9.944983537204344
      ],
      [
        "лично",
        -9.945348328531338
      ],
      [
        "формиру",
        -9.946352865782952
      ],
      [
        "дале",
        -9.946847282136906
      ],
      [
        "преступн",
        -9.947480224143654
      ],
      [
        "чик",
        -9.947911070480004
      ],
      [
        "Ч",
        -9.948110702339378
      ],
      [
        "использу",
        -9.948235605312409
      ],
      [
        "чек",
        -9.948830353462869
      ],
      [
        "принимают",
        -9.94885132653338
      ],
      [
        "олог",
        -9.949129708472631
      ],
      [
        "антов",
        -9.949157377417196
      ],
      [
        "энерго",
        -9.949168728743924
      ],
      [
        "ine",
        -9.949402801041227
      ],
      [
        "кремл",
        -9.94944363369476
      ],
      [
        "пресс",
        -9.949676000120753
      ],
      [
        "обнаружен",
        -9.949746248931243
      ],
      [
        "инвалид",
        -9.949812183655963
      ],
      [
        "исследовател",
        -9.949906043798542
      ],
      [
        "7",
        -9.949981113661007
      ],
      [
        "энерги",
        -9.95007686774433
      ],
      [
        "аромат",
        -9.95011559798546
      ],
      [
        "I",
        -9.950167458992896
      ],
      [
        "северодонецк",
        -9.95017523327774
      ],
      [
        "обозревател",
        -9.950175233283938
      ],
      [
        "!",
        -9.950175233316793
      ],
      [
        "ближайши",
        -9.950175233342108
      ],
      [
        "превратил",
        -9.950175233360017
      ],
      [
        "минздрав",
        -9.950175233462813
      ],
      [
        "збассразрезуголь",
        -9.950175233494873
      ],
      [
        "юридическо",
        -9.950175233501238
      ],
      [
        "ритейлер",
        -9.950175233746299
      ],
      [
        "модернизаци",
        -9.950175233973315
      ],
      [
        "мониторинг",
        -9.950175233988004
      ],
      [
        "вашингтон",
        -9.950175234331773
      ],
      [
        "коронавирус",
        -9.950175234424892
      ],
      [
        "аудитори",
        -9.950175235139987
      ],
      [
        "обеспечил",
        -9.95017523547689
      ],
      [
        "церемони",
        -9.950175235614934
      ],
      [
        "единоборств",
        -9.950175236061748
      ],
      [
        "орвегии",
        -9.950175238801206
      ],
      [
        "демонстриру",
        -9.950175240591776
      ],
      [
        "распоряжени",
        -9.950175241044953
      ],
      [
        "коммерсант",
        -9.950175242556396
      ],
      [
        "процедур",
        -9.950175244070302
      ],
      [
        "департамент",
        -9.950175244511563
      ],
      [
        "прогноз",
        -9.950175245140393
      ],
      [
        "обвиняет",
        -9.95017526704786
      ],
      [
        "устойчивы",
        -9.9501752715489
      ],
      [
        "регулятор",
        -9.950175273217475
      ],
      [
        "обвиняют",
        -9.950175273365875
      ],
      [
        "события",
        -9.950175307043853
      ],
      [
        "голословны",
        -9.950175341070834
      ],
      [
        "стабилизаци",
        -9.950175343470907
      ],
      [
        "событий",
        -9.95017535846055
      ],
      [
        "потерпевши",
        -9.950175360857752
      ],
      [
        "смягчен",
        -9.950175381844621
      ],
      [
        "диапазон",
        -9.950175560992701
      ],
      [
        "мошенник",
        -9.95017559142974
      ],
      [
        "логистически",
        -9.95017569336368
      ],
      [
        "пашинян",
        -9.950175781628108
      ],
      [
        "собственны",
        -9.950175918814415
      ],
      [
        "хоккейн",
        -9.950175954415526
      ],
      [
        "Песков",
        -9.950175972021315
      ],
      [
        "нейтральн",
        -9.95017600464558
      ],
      [
        "сокращени",
        -9.950176026021365
      ],
      [
        "возгорани",
        -9.950176111503028
      ],
      [
        "костюм",
        -9.950176714597887
      ],
      [
        "вымогательств",
        -9.950177097484488
      ],
      [
        "голуб",
        -9.950177291191103
      ],
      [
        "сигнал",
        -9.950178893029195
      ],
      [
        "смартфон",
        -9.950179389742834
      ],
      [
        "echno",
        -9.950179568130135
      ],
      [
        "подписан",
        -9.950179693690513
      ],
      [
        "логистик",
        -9.950180443914203
      ],
      [
        "драгоценно",
        -9.950181991984685
      ],
      [
        "построен",
        -9.950182522140931
      ],
      [
        "покинул",
        -9.950183272333794
      ],
      [
        "противоречи",
        -9.950183363384744
      ],
      [
        "филиал",
        -9.950183423157988
      ],
      [
        "классификаци",
        -9.950189687702153
      ],
      [
        "очевид",
        -9.950195434906558
      ],
      [
        "огромно",
        -9.950196694099848
      ],
      [
        "конкуренци",
        -9.950200884908469
      ],
      [
        "специализированн",
        -9.950206102207074
      ],
      [
        "множеств",
        -9.950211101816727
      ],
      [
        "реабилитаци",
        -9.950215709931388
      ],
      [
        "интерьер",
        -9.950216873597345
      ],
      [
        "гостиниц",
        -9.950221112853068
      ],
      [
        "шестимиллионн",
        -9.950222934366133
      ],
      [
        "развлечени",
        -9.950226151585621
      ],
      [
        "форсайт",
        -9.950228337986712
      ],
      [
        "судостроительн",
        -9.95022844881091
      ],
      [
        "прямо",
        -9.950238336327935
      ],
      [
        "квадрат",
        -9.95025153881315
      ],
      [
        "низки",
        -9.95025268827104
      ],
      [
        "праздник",
        -9.9502540459525
      ],
      [
        "организатор",
        -9.950255768576026
      ],
      [
        "грибков",
        -9.950258099403165
      ],
      [
        "геленджик",
        -9.950258500702438
      ],
      [
        "Самар",
        -9.950262394405144
      ],
      [
        "отражен",
        -9.950274733765548
      ],
      [
        "музыкальны",
        -9.95028342823447
      ],
      [
        "просьб",
        -9.950286266197232
      ],
      [
        "розничн",
        -9.950287921259507
      ],
      [
        "посетител",
        -9.950288633869201
      ],
      [
        "гуцан",
        -9.950289238149132
      ],
      [
        "порог",
        -9.95029720380318
      ],
      [
        "существенн",
        -9.950340232457506
      ],
      [
        "эмоци",
        -9.950342563500248
      ],
      [
        "вкус",
        -9.950351320774502
      ],
      [
        "реализуют",
        -9.950366872164329
      ],
      [
        "запрос",
        -9.950368228277982
      ],
      [
        "электрокар",
        -9.950381560191772
      ],
      [
        "кузбасс",
        -9.950388577746919
      ],
      [
        "гастрономи",
        -9.950424941515063
      ],
      [
        "нарушил",
        -9.950464779935668
      ],
      [
        "равно",
        -9.950483798058803
      ],
      [
        "микро",
        -9.950512559997025
      ],
      [
        "спектр",
        -9.950554275934138
      ],
      [
        "превыше",
        -9.950571949505983
      ],
      [
        "коллекци",
        -9.95058903642572
      ],
      [
        "набережн",
        -9.950596737192148
      ],
      [
        "автопарк",
        -9.950663708320574
      ],
      [
        "Рос",
        -9.950667441827612
      ],
      [
        "салават",
        -9.950707026990559
      ],
      [
        "брак",
        -9.950751727509598
      ],
      [
        "внутри",
        -9.950763029645154
      ],
      [
        "независим",
        -9.950806675245833
      ],
      [
        "выполнил",
        -9.950860943614547
      ],
      [
        "сохранит",
        -9.950919763607985
      ],
      [
        "носков",
        -9.950929162984938
      ],
      [
        "кремлев",
        -9.950950289124368
      ],
      [
        "массовы",
        -9.950956862440355
      ],
      [
        "будуще",
        -9.951025038130707
      ],
      [
        "случи",
        -9.95105986624548
      ],
      [
        "стади",
        -9.951147210363182
      ],
      [
        "экспо",
        -9.951176171299618
      ],
      [
        "широко",
        -9.951303095411454
      ],
      [
        "дочны",
        -9.951495840130793
      ],
      [
        "вступил",
        -9.951712466109614
      ],
      [
        "шанс",
        -9.951767115343035
      ],
      [
        "сбыт",
        -9.951873036396556
      ],
      [
        "конвой",
        -9.951901778644903
      ],
      [
        "buil",
        -9.951945318692204
      ],
      [
        "сила",
        -9.952043997268104
      ],
      [
        "удовлетворил",
        -9.952067844257668
      ],
      [
        "войск",
        -9.952068120882513
      ],
      [
        "ярки",
        -9.95210251241813
      ],
      [
        "столь",
        -9.952166466612113
      ],
      [
        "пресечени",
        -9.95234949097923
      ],
      [
        "ap",
        -9.95242976312312
      ],
      [
        "освещени",
        -9.95249703920319
      ],
      [
        "арапов",
        -9.952506167224564
      ],
      [
        "si",
        -9.952560803200498
      ],
      [
        "доставк",
        -9.952574466595259
      ],
      [
        "затрат",
        -9.952586623283477
      ],
      [
        "ee",
        -9.952668161565935
      ],
      [
        "участвовал",
        -9.952691539484134
      ],
      [
        "обратно",
        -9.952829390776829
      ],
      [
        "арми",
        -9.952831114994229
      ],
      [
        "совершенно",
        -9.952875144210982
      ],
      [
        "россет",
        -9.953085351026495
      ],
      [
        "обсужда",
        -9.953136539162646
      ],
      [
        "выдели",
        -9.953136859687813
      ],
      [
        "натов",
        -9.953394081169922
      ],
      [
        "яют",
        -9.953612505042932
      ],
      [
        "Дон",
        -9.953815370420262
      ],
      [
        "поставил",
        -9.953954597199944
      ],
      [
        "денис",
        -9.953961123659305
      ],
      [
        "голов",
        -9.954007529937083
      ],
      [
        "фо",
        -9.95413101506458
      ],
      [
        "звонк",
        -9.954319306555899
      ],
      [
        "ди",
        -9.954402894991198
      ],
      [
        "выявил",
        -9.954424284224656
      ],
      [
        "торы",
        -9.95491976087511
      ],
      [
        "направля",
        -9.954985701718904
      ],
      [
        "направленно",
        -9.955005854028666
      ],
      [
        "турци",
        -9.955059526727288
      ],
      [
        "индонези",
        -9.955141799413843
      ],
      [
        "иркутск",
        -9.955152908043662
      ],
      [
        "поток",
        -9.95534350904561
      ],
      [
        "age",
        -9.955371800241508
      ],
      [
        "награждени",
        -9.95547298153257
      ],
      [
        "физкультур",
        -9.955502820494386
      ],
      [
        "франс",
        -9.955569440995188
      ],
      [
        "больше",
        -9.955614571476502
      ],
      [
        "алла",
        -9.955717817584107
      ],
      [
        "голосовани",
        -9.955872089806464
      ],
      [
        "обслуживание",
        -9.95609760099064
      ],
      [
        "ВС",
        -9.95615331061881
      ],
      [
        "плот",
        -9.9562406571342
      ],
      [
        "витали",
        -9.956411015260198
      ],
      [
        "аукциона",
        -9.956454514288756
      ],
      [
        "арестант",
        -9.956972808973749
      ],
      [
        "труб",
        -9.957325796634413
      ],
      [
        "куб",
        -9.958408589596393
      ],
      [
        "зависи",
        -9.958966596902656
      ],
      [
        "лиги",
        -9.959121146496557
      ],
      [
        "выпускник",
        -9.959135640920852
      ],
      [
        "сообществ",
        -9.959198558008069
      ],
      [
        "положительно",
        -9.959252598010444
      ],
      [
        "стиль",
        -9.95930591449644
      ],
      [
        "ведущи",
        -9.959606941115762
      ],
      [
        "писатель",
        -9.959940243991968
      ],
      [
        "необходимость",
        -9.960462080287567
      ],
      [
        "предлага",
        -9.960495629047486
      ],
      [
        "разрешени",
        -9.96072249737156
      ],
      [
        "партнерств",
        -9.960915516613886
      ],
      [
        "куз",
        -9.96178923500305
      ],
      [
        "газов",
        -9.962390514535624
      ],
      [
        "сси",
        -9.9624063321232
      ],
      [
        "ожидаем",
        -9.962452378630038
      ],
      [
        "получал",
        -9.962921378312846
      ],
      [
        "11",
        -9.962960395446864
      ],
      [
        "оба",
        -9.963030789645908
      ],
      [
        "вез",
        -9.963679379355744
      ],
      [
        "создава",
        -9.96372760588557
      ],
      [
        "клетки",
        -9.964298862705263
      ],
      [
        "боев",
        -9.965002930912984
      ],
      [
        "слово",
        -9.965193030976002
      ],
      [
        "поражения",
        -9.965594592268701
      ],
      [
        "признали",
        -9.965645151707115
      ],
      [
        "организовал",
        -9.966145604161436
      ],
      [
        "1,",
        -9.966781854865504
      ],
      [
        "кладов",
        -9.967636439578413
      ],
      [
        "оперы",
        -9.967813078140502
      ],
      [
        "вооруженны",
        -9.968307596979214
      ],
      [
        "бранно",
        -9.968576861303879
      ],
      [
        "трое",
        -9.968756685429074
      ],
      [
        "нец",
        -9.968802227565153
      ],
      [
        "хода",
        -9.968890484173103
      ],
      [
        "спортивно",
        -9.968954785980353
      ],
      [
        "кг",
        -9.970282112022286
      ],
      [
        "горяче",
        -9.970800290751153
      ],
      [
        "выделен",
        -9.971275187193314
      ],
      [
        "угле",
        -9.971455368365891
      ],
      [
        "необходим",
        -9.971806946188362
      ],
      [
        "рупи",
        -9.97200891364474
      ],
      [
        "морско",
        -9.972303908050996
      ],
      [
        "серьезны",
        -9.97297071999395
      ],
      [
        "лидеров",
        -9.973375352750317
      ],
      [
        "напомнил",
        -9.973847431510361
      ],
      [
        "ключевым",
        -9.974075201210356
      ],
      [
        "нц",
        -9.974248956960164
      ],
      [
        "далеко",
        -9.974391822247126
      ],
      [
        "совершил",
        -9.975564354494603
      ],
      [
        "парфюмери",
        -9.976827999107556
      ],
      [
        "причинени",
        -9.977114487692706
      ],
      [
        "грузов",
        -9.978758808466125
      ],
      [
        "долго",
        -9.978854113576537
      ],
      [
        "бог",
        -9.97896411287425
      ],
      [
        "сообща",
        -9.979673688091996
      ],
      [
        "домашни",
        -9.979786997200994
      ],
      [
        "глобальны",
        -9.9801902251311
      ],
      [
        "базов",
        -9.980321586419546
      ],
      [
        "анализа",
        -9.980604628501501
      ],
      [
        "направлен",
        -9.981011742630608
      ],
      [
        "друго",
        -9.981162934201464
      ],
      [
        "красивы",
        -9.981212463229133
      ],
      [
        "дальнейшем",
        -9.982125400069306
      ],
      [
        "«К",
        -9.982179592830665
      ],
      [
        "кругло",
        -9.983406268942284
      ],
      [
        "мать",
        -9.985031216299463
      ],
      [
        "миру",
        -9.986109045506236
      ],
      [
        "цифров",
        -9.986425767716353
      ],
      [
        "дух",
        -9.9867132983821
      ],
      [
        "символи",
        -9.987246580636537
      ],
      [
        "относит",
        -9.98918286925775
      ],
      [
        "пытал",
        -9.989553131158491
      ],
      [
        "нанесл",
        -9.989897152160616
      ],
      [
        "отдельны",
        -9.990008114909793
      ],
      [
        "мч",
        -9.990592872069923
      ],
      [
        "сан",
        -9.991312094520756
      ],
      [
        "жителям",
        -9.99198605977313
      ],
      [
        "экологическо",
        -9.992186172660416
      ],
      [
        "беспилотника",
        -9.992243898707796
      ],
      [
        "временны",
        -9.992391035733043
      ],
      [
        "представителям",
        -9.992605447872002
      ],
      [
        "бер",
        -9.992842651285475
      ],
      [
        "потенциала",
        -9.99291647719225
      ],
      [
        "встреча",
        -9.99347059717077
      ],
      [
        "начало",
        -9.993575023630227
      ],
      [
        "застройщика",
        -9.99387093163819
      ],
      [
        "масс",
        -9.995007344592283
      ],
      [
        "щен",
        -9.995947106361031
      ],
      [
        "по-",
        -9.996314924911603
      ],
      [
        "еры",
        -9.996624717914411
      ],
      [
        "необходимост",
        -9.997980936416036
      ],
      [
        "нефте",
        -9.998469308954796
      ],
      [
        "гости",
        -9.998620560413409
      ],
      [
        "хороши",
        -10.000453810040751
      ],
      [
        "минэконом",
        -10.000942923014497
      ],
      [
        "полицейским",
        -10.001022094171967
      ],
      [
        "детски",
        -10.001553551709964
      ],
      [
        "атаку",
        -10.001585635636017
      ],
      [
        "достигл",
        -10.002515910326244
      ],
      [
        "изм",
        -10.003891206839732
      ],
      [
        "шо",
        -10.004079330696154
      ],
      [
        "ган",
        -10.004983921250613
      ],
      [
        "каев",
        -10.005685500756478
      ],
      [
        "бори",
        -10.006079324690175
      ],
      [
        "xt",
        -10.006138846854498
      ],
      [
        "разрешение",
        -10.006291810565582
      ],
      [
        "занима",
        -10.006358331643817
      ],
      [
        "поведени",
        -10.006555004464603
      ],
      [
        "новь",
        -10.007098740565876
      ],
      [
        "плане",
        -10.00782494276216
      ],
      [
        "данно",
        -10.00797475119003
      ],
      [
        "многоквартирн",
        -10.008736516610277
      ],
      [
        "эффективност",
        -10.009516575007286
      ],
      [
        "тки",
        -10.012689561441402
      ],
      [
        "гр",
        -10.012802910566615
      ],
      [
        "посвящен",
        -10.0130256625171
      ],
      [
        "гин",
        -10.01350541693612
      ],
      [
        "определенны",
        -10.01504398122838
      ],
      [
        "спортсменк",
        -10.016272636832703
      ],
      [
        "гроз",
        -10.016321196325519
      ],
      [
        "шего",
        -10.017554340860436
      ],
      [
        "тематически",
        -10.01770640551119
      ],
      [
        "южном",
        -10.017933775005693
      ],
      [
        "сами",
        -10.018149566377417
      ],
      [
        "льных",
        -10.018317388863405
      ],
      [
        "помогл",
        -10.018521599685657
      ],
      [
        "чтени",
        -10.024599846887572
      ],
      [
        "уш",
        -10.025262417483267
      ],
      [
        "делам",
        -10.027152805583443
      ],
      [
        "гал",
        -10.028842909187608
      ],
      [
        "коллективно",
        -10.029544295040255
      ],
      [
        "жива",
        -10.030633254717008
      ],
      [
        "челябинска",
        -10.030728484247108
      ],
      [
        "отличи",
        -10.03100720342055
      ],
      [
        "максимальн",
        -10.031533841004952
      ],
      [
        "природны",
        -10.031777624853618
      ],
      [
        "ранение",
        -10.034105652657285
      ],
      [
        "полов",
        -10.038427357208047
      ],
      [
        "вно",
        -10.039666863256862
      ],
      [
        "нормативн",
        -10.04056460102689
      ],
      [
        "лучшим",
        -10.042227643764233
      ],
      [
        "ва",
        -10.04260946182686
      ],
      [
        "добр",
        -10.043434717448246
      ],
      [
        "административно",
        -10.043714697112463
      ],
      [
        "такую",
        -10.04599012781836
      ],
      [
        "аренду",
        -10.047010911464472
      ],
      [
        "языка",
        -10.047949398659318
      ],
      [
        "войны",
        -10.048175733646358
      ],
      [
        "семей",
        -10.04845490181697
      ],
      [
        "хват",
        -10.051655821425015
      ],
      [
        "областн",
        -10.051962528453952
      ],
      [
        "оцени",
        -10.054037023293944
      ],
      [
        "проблема",
        -10.054516136364267
      ],
      [
        "машина",
        -10.055219602411812
      ],
      [
        "мян",
        -10.055371646046547
      ],
      [
        "побед",
        -10.056773206884234
      ],
      [
        "гер",
        -10.05684906500849
      ],
      [
        "петербургск",
        -10.057378624781803
      ],
      [
        "час",
        -10.057854596850646
      ],
      [
        "зывают",
        -10.058810709801296
      ],
      [
        "щи",
        -10.060229366034095
      ],
      [
        "вели",
        -10.060428003579021
      ],
      [
        "курск",
        -10.061513020206839
      ],
      [
        "v",
        -10.06167438613538
      ],
      [
        "воронежско",
        -10.0623009589873
      ],
      [
        "моста",
        -10.062816076722035
      ],
      [
        "зве",
        -10.064685453455686
      ],
      [
        "часа",
        -10.067871256143915
      ],
      [
        "роз",
        -10.06844924294175
      ],
      [
        "овольно",
        -10.068592018411099
      ],
      [
        "сих",
        -10.069249914772355
      ],
      [
        "мире",
        -10.069657768330812
      ],
      [
        "миров",
        -10.07289676901076
      ],
      [
        "дума",
        -10.07421158542978
      ],
      [
        "ниц",
        -10.074497311874447
      ],
      [
        "двор",
        -10.074839506447676
      ],
      [
        "тьев",
        -10.075429953670076
      ],
      [
        "специалиста",
        -10.076676443727893
      ],
      [
        "плат",
        -10.077584636815676
      ],
      [
        "льготно",
        -10.079246453816207
      ],
      [
        "ямал",
        -10.079766177720714
      ],
      [
        "умер",
        -10.079828744292179
      ],
      [
        "клиента",
        -10.080527432326456
      ],
      [
        "ального",
        -10.083738136023037
      ],
      [
        "округа",
        -10.083835243950269
      ],
      [
        "кур",
        -10.083988551785268
      ],
      [
        "коллег",
        -10.085181774594973
      ],
      [
        "ходящих",
        -10.085411111245987
      ],
      [
        "баланс",
        -10.085736472609879
      ],
      [
        "отечественн",
        -10.087813892140542
      ],
      [
        "сотрудника",
        -10.088493981844309
      ],
      [
        "тра",
        -10.089959423293156
      ],
      [
        "оказала",
        -10.090193183611314
      ],
      [
        "определен",
        -10.090600773134643
      ],
      [
        "летни",
        -10.09137837959752
      ],
      [
        "требование",
        -10.09535894958064
      ],
      [
        "биты",
        -10.097136321082223
      ],
      [
        "дво",
        -10.097499048226943
      ],
      [
        "качеств",
        -10.098949037206435
      ],
      [
        "западны",
        -10.099512003837937
      ],
      [
        "шам",
        -10.100533229387903
      ],
      [
        "дороги",
        -10.100568615305098
      ],
      [
        "уют",
        -10.101945232268609
      ],
      [
        "семинар",
        -10.108006393494469
      ],
      [
        "субботник",
        -10.108414827437086
      ],
      [
        "применение",
        -10.109259725060637
      ],
      [
        "форм",
        -10.110363357114
      ],
      [
        "хан",
        -10.111005221899918
      ],
      [
        "re",
        -10.111215884594758
      ],
      [
        "родов",
        -10.111392011442506
      ],
      [
        "овски",
        -10.11167766643586
      ],
      [
        "спец",
        -10.11182850091331
      ],
      [
        "нашл",
        -10.112013743297037
      ],
      [
        "отлич",
        -10.113188525416687
      ],
      [
        "текст",
        -10.113892869520388
      ],
      [
        "мон",
        -10.115097409829007
      ],
      [
        "конкретн",
        -10.116949243712693
      ],
      [
        "рк",
        -10.117076482440446
      ],
      [
        "собран",
        -10.117600346347189
      ],
      [
        "самб",
        -10.117825764598493
      ],
      [
        "пространства",
        -10.118696218503187
      ],
      [
        "валют",
        -10.11873853842284
      ],
      [
        "вен",
        -10.11971483934114
      ],
      [
        "медицинск",
        -10.121104682682912
      ],
      [
        "ци",
        -10.122205350320252
      ],
      [
        "честн",
        -10.122680228982954
      ],
      [
        "американски",
        -10.123961776315776
      ],
      [
        "лот",
        -10.124115572666785
      ],
      [
        "чев",
        -10.12675674553312
      ],
      [
        "петр",
        -10.12795379793296
      ],
      [
        "заяв",
        -10.128166292325549
      ],
      [
        "авари",
        -10.128812993720278
      ],
      [
        "интереса",
        -10.128824323588326
      ],
      [
        "нимать",
        -10.12917675592553
      ],
      [
        "многоквартирны",
        -10.12983713342956
      ],
      [
        "спектакл",
        -10.130441274426627
      ],
      [
        "стол",
        -10.13057062560608
      ],
      [
        "дэ",
        -10.131240885770366
      ],
      [
        "скаль",
        -10.132114472987428
      ],
      [
        "xi",
        -10.132233187544127
      ],
      [
        "альны",
        -10.13297573506501
      ],
      [
        "корпус",
        -10.133117512643548
      ],
      [
        "плана",
        -10.133815783324298
      ],
      [
        "гра",
        -10.136303065640506
      ],
      [
        "знака",
        -10.136378451763534
      ],
      [
        "лицо",
        -10.136961417979954
      ],
      [
        "обо",
        -10.139850369782998
      ],
      [
        "емление",
        -10.140741765940037
      ],
      [
        "тен",
        -10.141170830345287
      ],
      [
        "наибольш",
        -10.141415677185961
      ],
      [
        "vo",
        -10.142414555991683
      ],
      [
        "стают",
        -10.142506309143203
      ],
      [
        "доказа",
        -10.143199935874865
      ],
      [
        "мирово",
        -10.14396517789526
      ],
      [
        "философ",
        -10.144216386883956
      ],
      [
        "ka",
        -10.144313000651435
      ],
      [
        "беременны",
        -10.14447201312062
      ],
      [
        "большинств",
        -10.145010967796882
      ],
      [
        "изолятор",
        -10.145835304488102
      ],
      [
        "переч",
        -10.146233469941874
      ],
      [
        "выступ",
        -10.147423784158315
      ],
      [
        "кандидат",
        -10.147783734917788
      ],
      [
        "продуктов",
        -10.14794062817637
      ],
      [
        "договора",
        -10.14936051624352
      ],
      [
        "блока",
        -10.150856445330811
      ],
      [
        "последн",
        -10.150919202761013
      ],
      [
        "пользуют",
        -10.15148726566756
      ],
      [
        "стандарт",
        -10.152499070204758
      ],
      [
        "подчеркива",
        -10.153194355336307
      ],
      [
        "назва",
        -10.153729403328365
      ],
      [
        "построит",
        -10.153772864754377
      ],
      [
        "расследовани",
        -10.155495375269464
      ],
      [
        "показыва",
        -10.155849839621187
      ],
      [
        "класс",
        -10.156521978053972
      ],
      [
        "цифровы",
        -10.156890851629782
      ],
      [
        "почт",
        -10.156914523224964
      ],
      [
        "цеп",
        -10.156967701374551
      ],
      [
        "проси",
        -10.157998675558233
      ],
      [
        "аци",
        -10.159201999402505
      ],
      [
        "da",
        -10.159728166396144
      ],
      [
        "фигур",
        -10.160516971409207
      ],
      [
        "выполнен",
        -10.161912478265343
      ],
      [
        "завершен",
        -10.162028468032506
      ],
      [
        "ляют",
        -10.16392892496632
      ],
      [
        "относ",
        -10.164526129562553
      ],
      [
        "Петербург",
        -10.164632848213515
      ],
      [
        "скра",
        -10.165010610393717
      ],
      [
        "земельн",
        -10.165952279349538
      ],
      [
        "форо",
        -10.166386558053734
      ],
      [
        "влад",
        -10.166559019275525
      ],
      [
        "изма",
        -10.167274422556378
      ],
      [
        "de",
        -10.167902286088317
      ],
      [
        "реальн",
        -10.16889271228132
      ],
      [
        "оказали",
        -10.170061864888181
      ],
      [
        "бил",
        -10.171000124882902
      ],
      [
        "выстав",
        -10.17121426703686
      ],
      [
        "подразделени",
        -10.171946076639033
      ],
      [
        "потребовал",
        -10.172778598335414
      ],
      [
        "ошиб",
        -10.173019151503178
      ],
      [
        "тонн",
        -10.173390338237423
      ],
      [
        "арно",
        -10.17401786698984
      ],
      [
        "теля",
        -10.17451680750214
      ],
      [
        "ника",
        -10.174879371767082
      ],
      [
        "вшей",
        -10.175180230817148
      ],
      [
        "ирования",
        -10.176243184600654
      ],
      [
        "студент",
        -10.176419847582242
      ],
      [
        "произ",
        -10.177943526938382
      ],
      [
        "наставни",
        -10.178280062511293
      ],
      [
        "близ",
        -10.178376835559396
      ],
      [
        "америк",
        -10.178603496628622
      ],
      [
        "молодеж",
        -10.178753887844982
      ],
      [
        "последствия",
        -10.179232696102398
      ],
      [
        "недополучи",
        -10.179441124728577
      ],
      [
        "веще",
        -10.180269489778938
      ],
      [
        "обслужива",
        -10.181520186544482
      ],
      [
        "ты",
        -10.181901646031026
      ],
      [
        "лава",
        -10.182300207995358
      ],
      [
        "производит",
        -10.183061597032482
      ],
      [
        "дор",
        -10.184832417904024
      ],
      [
        "окруж",
        -10.185094503858693
      ],
      [
        "исполня",
        -10.185542696309092
      ],
      [
        "автомобильны",
        -10.18628035477192
      ],
      [
        "зывает",
        -10.186561982701235
      ],
      [
        "кла",
        -10.187225842558654
      ],
      [
        "опасност",
        -10.18731152857344
      ],
      [
        "архан",
        -10.188940800668554
      ],
      [
        "жаловал",
        -10.190298434772934
      ],
      [
        "ступления",
        -10.190762699511623
      ],
      [
        "соответству",
        -10.1907814720449
      ],
      [
        "остал",
        -10.190796807477222
      ],
      [
        "инклер",
        -10.19114342515605
      ],
      [
        "аль",
        -10.191264762738012
      ],
      [
        "герои",
        -10.191733897023065
      ],
      [
        "русско",
        -10.192132324506751
      ],
      [
        "участву",
        -10.192555923525614
      ],
      [
        "лес",
        -10.193004095185556
      ],
      [
        "гран",
        -10.19357561895867
      ],
      [
        "причина",
        -10.193941186777959
      ],
      [
        "сте",
        -10.193974564542895
      ],
      [
        "интер",
        -10.194625174607797
      ],
      [
        "союз",
        -10.194714689801152
      ],
      [
        "атарстан",
        -10.195343826185072
      ],
      [
        "регистр",
        -10.195620779223777
      ],
      [
        "ровски",
        -10.19587354003351
      ],
      [
        "донск",
        -10.196774003875287
      ],
      [
        "oo",
        -10.196862941084568
      ],
      [
        "опасны",
        -10.197675108327893
      ],
      [
        "вероятно",
        -10.19832506191419
      ],
      [
        "увеличен",
        -10.198436916920716
      ],
      [
        "существу",
        -10.198444822254933
      ],
      [
        "чал",
        -10.198556715195938
      ],
      [
        "трат",
        -10.198754599109279
      ],
      [
        "вице-",
        -10.199080100490594
      ],
      [
        "итета",
        -10.199191015757014
      ],
      [
        "следовател",
        -10.199291599696902
      ],
      [
        "стве",
        -10.199311801079507
      ],
      [
        "правда",
        -10.199357160842496
      ],
      [
        "пытк",
        -10.19947061251347
      ],
      [
        "учител",
        -10.199540736983682
      ],
      [
        "собира",
        -10.199713928092454
      ],
      [
        "ъезд",
        -10.199722240763872
      ],
      [
        "флагман",
        -10.199746272551696
      ],
      [
        "конструкци",
        -10.19985629576109
      ],
      [
        "инди",
        -10.199925491818984
      ],
      [
        "сельхоз",
        -10.199977715552048
      ],
      [
        "фляци",
        -10.200004013787847
      ],
      [
        "аэрофлот",
        -10.200080232491162
      ],
      [
        "традици",
        -10.200104414543269
      ],
      [
        "академи",
        -10.200149795428727
      ],
      [
        "vit",
        -10.200173187075572
      ],
      [
        "Э",
        -10.200175222855064
      ],
      [
        "бенефициар",
        -10.200175233276894
      ],
      [
        "…",
        -10.200175233316793
      ],
      [
        "соответстви",
        -10.200175233323284
      ],
      [
        "справедливо",
        -10.200175233380726
      ],
      [
        "литературны",
        -10.200175233381476
      ],
      [
        "субъект",
        -10.200175233412464
      ],
      [
        "ДСНВ",
        -10.20017523347991
      ],
      [
        "окончательно",
        -10.200175233572127
      ],
      [
        "дюсапен",
        -10.200175233612446
      ],
      [
        "юридически",
        -10.200175233967606
      ],
      [
        "презентаци",
        -10.200175234046469
      ],
      [
        "конфликт",
        -10.20017523405784
      ],
      [
        "бакалинск",
        -10.200175234186037
      ],
      [
        "сурдоперевод",
        -10.20017523469729
      ],
      [
        "сооружени",
        -10.200175234814948
      ],
      [
        "патриотическо",
        -10.200175235861607
      ],
      [
        "диверсант",
        -10.200175239289155
      ],
      [
        "собственник",
        -10.200175243618585
      ],
      [
        "Саратов",
        -10.20017524856233
      ],
      [
        "профессор",
        -10.200175262068141
      ],
      [
        "апарт-комплекс",
        -10.200175266832437
      ],
      [
        "Прокур",
        -10.200175273258571
      ],
      [
        "противостояни",
        -10.200175288144528
      ],
      [
        "Кубан",
        -10.200175294160601
      ],
      [
        "эксперимент",
        -10.200175311177821
      ],
      [
        "краснокнижн",
        -10.200175311693501
      ],
      [
        "отражает",
        -10.200175314775162
      ],
      [
        "инспектор",
        -10.20017532890948
      ],
      [
        "тюрьм",
        -10.200175330681551
      ],
      [
        "мишустин",
        -10.200175422887003
      ],
      [
        "совещани",
        -10.200175427926858
      ],
      [
        "кариотип",
        -10.200175440218306
      ],
      [
        "фотографи",
        -10.200175477729445
      ],
      [
        "анастаси",
        -10.200175496207128
      ],
      [
        "обстановк",
        -10.200175508333349
      ],
      [
        "автоваз",
        -10.20017557890201
      ],
      [
        "лестничн",
        -10.200175686489834
      ],
      [
        "косметик",
        -10.200175780541855
      ],
      [
        "заинтересован",
        -10.200175828014121
      ],
      [
        "молча",
        -10.200175836144918
      ],
      [
        "соблюдени",
        -10.200175837168127
      ],
      [
        "вертолет",
        -10.200175852157187
      ],
      [
        "несовершеннолетн",
        -10.200175898673965
      ],
      [
        "стрелецко",
        -10.200176228028777
      ],
      [
        "Новороссийск",
        -10.200176260603637
      ],
      [
        "мальчик",
        -10.200176510080183
      ],
      [
        "нижнекамск",
        -10.2001765262977
      ],
      [
        "лекарств",
        -10.200176562962195
      ],
      [
        "репутаци",
        -10.200177116758972
      ],
      [
        "прежде",
        -10.200177168169056
      ],
      [
        "грипп",
        -10.200177343641386
      ],
      [
        "посеща",
        -10.20017746521722
      ],
      [
        "оздоровлени",
        -10.200178200476964
      ],
      [
        "арабски",
        -10.200178550431977
      ],
      [
        "группировк",
        -10.200179715528282
      ],
      [
        "улибин",
        -10.200179884451119
      ],
      [
        "собеседни",
        -10.20018004070399
      ],
      [
        "флакон",
        -10.200180432110718
      ],
      [
        "прежне",
        -10.200180443122665
      ],
      [
        "конституционно",
        -10.200180536902153
      ],
      [
        "титул",
        -10.200180831416276
      ],
      [
        "горовиц",
        -10.200181891927837
      ],
      [
        "Екатеринбург",
        -10.200182004746404
      ],
      [
        "жертв",
        -10.200183376674671
      ],
      [
        "дерипаск",
        -10.200183645656406
      ],
      [
        "птенц",
        -10.200183834515322
      ],
      [
        "гимнастик",
        -10.20018452088304
      ],
      [
        "пандеми",
        -10.200184864810357
      ],
      [
        "морозов",
        -10.200186324868204
      ],
      [
        "auto",
        -10.200187429339925
      ],
      [
        "волгоград",
        -10.200188824650317
      ],
      [
        "разнообрази",
        -10.200189097094125
      ],
      [
        "расширя",
        -10.20018920312313
      ],
      [
        "взгляд",
        -10.200189289682072
      ],
      [
        "баранов",
        -10.200189472109342
      ],
      [
        "значительно",
        -10.20019025357908
      ],
      [
        "форвард",
        -10.200190344656244
      ],
      [
        "уникальны",
        -10.200191394561386
      ],
      [
        "проверяет",
        -10.200191578242935
      ],
      [
        "матиас",
        -10.200194176839004
      ],
      [
        "значимо",
        -10.200194995052652
      ],
      [
        "предусматрива",
        -10.200196411868347
      ],
      [
        "дешево",
        -10.200197387178147
      ],
      [
        "цивил",
        -10.200205381121656
      ],
      [
        "птиц",
        -10.20020709006112
      ],
      [
        "гимнастк",
        -10.200209321677253
      ],
      [
        "гимна",
        -10.200213123711968
      ],
      [
        "импровиз",
        -10.20021431484661
      ],
      [
        "содержащи",
        -10.20021476492484
      ],
      [
        "диплом",
        -10.200215040726189
      ],
      [
        "болельщик",
        -10.200222100269833
      ],
      [
        "доллар",
        -10.200226914639135
      ],
      [
        "миллиардеро",
        -10.20023908267761
      ],
      [
        "груд",
        -10.20025809821006
      ],
      [
        "слабос",
        -10.20026508500989
      ],
      [
        "импорт",
        -10.200265188973221
      ],
      [
        "выставочн",
        -10.200269882056848
      ],
      [
        "постановлени",
        -10.200272141217972
      ],
      [
        "инстанци",
        -10.200276729447562
      ],
      [
        "столично",
        -10.200281050088892
      ],
      [
        "алкогол",
        -10.200282435622606
      ],
      [
        "подконтрольны",
        -10.200282861842101
      ],
      [
        "проспект",
        -10.200283365595118
      ],
      [
        "обновля",
        -10.200294754664078
      ],
      [
        "stra",
        -10.200304489899754
      ],
      [
        "эрофлота",
        -10.200320352334927
      ],
      [
        "трамва",
        -10.200321879325866
      ],
      [
        "комбинат",
        -10.200327396711815
      ],
      [
        "гербер",
        -10.20033708541519
      ],
      [
        "15",
        -10.200348281781247
      ],
      [
        "валери",
        -10.200361628761966
      ],
      [
        "светлан",
        -10.200371701821254
      ],
      [
        "девелопмент",
        -10.200374957329846
      ],
      [
        "максимум",
        -10.200393643776088
      ],
      [
        "вице-мэр",
        -10.200394215555995
      ],
      [
        "трансфер",
        -10.200395389390366
      ],
      [
        "удобн",
        -10.200397102831102
      ],
      [
        "возрождени",
        -10.200403761158665
      ],
      [
        "масла",
        -10.20040964799815
      ],
      [
        "шеф-",
        -10.200409917267999
      ],
      [
        "27",
        -10.200424225782886
      ],
      [
        "церк",
        -10.200424723825684
      ],
      [
        "раунд",
        -10.20042904594491
      ],
      [
        "вышл",
        -10.200430363465932
      ],
      [
        "поднял",
        -10.200438361488372
      ],
      [
        "нелегальны",
        -10.200452580060087
      ],
      [
        "oca-",
        -10.20046292801998
      ],
      [
        "пользовани",
        -10.200479206163802
      ],
      [
        "локомотив",
        -10.200486254697532
      ],
      [
        "экспорт",
        -10.200503450319646
      ],
      [
        "запуск",
        -10.200521291319909
      ],
      [
        "отличает",
        -10.200524079707359
      ],
      [
        "обзор",
        -10.200529217610804
      ],
      [
        "ученик",
        -10.200535048534881
      ],
      [
        "теплоснабжающ",
        -10.200535895780847
      ],
      [
        "диспле",
        -10.20053957866646
      ],
      [
        "уфимско",
        -10.200542148415582
      ],
      [
        "эксплуатаци",
        -10.200567806969865
      ],
      [
        "памятник",
        -10.200575537298867
      ],
      [
        "интеграци",
        -10.200576052941694
      ],
      [
        "слушани",
        -10.200581898692612
      ],
      [
        "нагрузк",
        -10.200588995762322
      ],
      [
        "поезд",
        -10.200608753439274
      ],
      [
        "экстрем",
        -10.200614810976083
      ],
      [
        "надцат",
        -10.20062028142398
      ],
      [
        "авшая",
        -10.200632844533022
      ],
      [
        "катун",
        -10.200651858730188
      ],
      [
        "желани",
        -10.20066595547802
      ],
      [
        "павл",
        -10.20068041562802
      ],
      [
        "декор",
        -10.200698743517803
      ],
      [
        "пензен",
        -10.20071058075283
      ],
      [
        "русал",
        -10.200740423022546
      ],
      [
        "соединен",
        -10.200744651684724
      ],
      [
        "объясняет",
        -10.200746067427463
      ],
      [
        "комлев",
        -10.200752779043365
      ],
      [
        "гордум",
        -10.20082358055644
      ],
      [
        "расписани",
        -10.200832561166331
      ],
      [
        "Дани",
        -10.200832633872153
      ],
      [
        "медучреждени",
        -10.20083979040379
      ],
      [
        "содействи",
        -10.200849829256489
      ],
      [
        "отмечают",
        -10.200863382952178
      ],
      [
        "цикл",
        -10.20086656927517
      ],
      [
        "покупател",
        -10.200900625423534
      ],
      [
        "пристав",
        -10.200938811406663
      ],
      [
        "СИ",
        -10.200940006701863
      ],
      [
        "тренер",
        -10.201000983913952
      ],
      [
        "художник",
        -10.201011321204621
      ],
      [
        "рыжк",
        -10.20102813076138
      ],
      [
        "спецтехник",
        -10.201035288743096
      ],
      [
        "Мин",
        -10.201036987407061
      ],
      [
        "укрепля",
        -10.201053202053107
      ],
      [
        "ks",
        -10.201081080434431
      ],
      [
        "уголовны",
        -10.201108654188387
      ],
      [
        "любим",
        -10.201154192809518
      ],
      [
        "стреми",
        -10.201158869844923
      ],
      [
        "телесн",
        -10.201162850796274
      ],
      [
        "господдержк",
        -10.201239640519388
      ],
      [
        "закрыт",
        -10.201247181031475
      ],
      [
        "отход",
        -10.201255637676473
      ],
      [
        "критическ",
        -10.201259897269384
      ],
      [
        "обсуд",
        -10.201282665837837
      ],
      [
        "воло",
        -10.201297373425636
      ],
      [
        "выраст",
        -10.201304532849491
      ],
      [
        "by",
        -10.201317238264572
      ],
      [
        "деклараци",
        -10.201345256954609
      ],
      [
        "оссе",
        -10.20135637174028
      ],
      [
        "бокса",
        -10.201364995086927
      ],
      [
        "диалог",
        -10.201370221300223
      ],
      [
        "arto",
        -10.201382701788676
      ],
      [
        "кейс",
        -10.201477214021534
      ],
      [
        "гибел",
        -10.201486711830908
      ],
      [
        "bl",
        -10.201488315564038
      ],
      [
        "отец",
        -10.201563679574328
      ],
      [
        "экс-президент",
        -10.201600425663248
      ],
      [
        "орлов",
        -10.20164575567653
      ],
      [
        "ment",
        -10.20169352520969
      ],
      [
        "осуществляет",
        -10.201724871578405
      ],
      [
        "ветеран",
        -10.201727149997065
      ],
      [
        "осипов",
        -10.20173180197667
      ],
      [
        "ba",
        -10.201739903094788
      ],
      [
        "наград",
        -10.201759766502452
      ],
      [
        "осторожност",
        -10.201808425349705
      ],
      [
        "фото",
        -10.201818891840539
      ],
      [
        "составляют",
        -10.20182549899413
      ],
      [
        "челябинск",
        -10.201831392941813
      ],
      [
        "поясня",
        -10.201857004333611
      ],
      [
        "дагестан",
        -10.201901521692225
      ],
      [
        "пресс-конференци",
        -10.201924609560908
      ],
      [
        "выражени",
        -10.201947001938693
      ],
      [
        "определяет",
        -10.202043212723263
      ],
      [
        "эпох",
        -10.202082512988815
      ],
      [
        "жительниц",
        -10.202098347669143
      ],
      [
        "щего",
        -10.202142893002645
      ],
      [
        "джо",
        -10.20217680476201
      ],
      [
        "успех",
        -10.202304127209873
      ],
      [
        "отменил",
        -10.202319862483858
      ],
      [
        "правонарушени",
        -10.202344750812987
      ],
      [
        "всероссийски",
        -10.202362496397406
      ],
      [
        "приходит",
        -10.202377739680024
      ],
      [
        "формируют",
        -10.202377858768592
      ],
      [
        "хочет",
        -10.20238396004756
      ],
      [
        "бург",
        -10.20241414173202
      ],
      [
        "ошел",
        -10.202433804050997
      ],
      [
        "женском",
        -10.202458047021771
      ],
      [
        "охват",
        -10.202488913692166
      ],
      [
        "дочерн",
        -10.202503911303063
      ],
      [
        "аварийны",
        -10.202624854820243
      ],
      [
        "госзакуп",
        -10.202832544880835
      ],
      [
        "занимают",
        -10.202854248415127
      ],
      [
        "fa",
        -10.20310233666128
      ],
      [
        "получаю",
        -10.20315482566431
      ],
      [
        "чистот",
        -10.203246484944156
      ],
      [
        "утвердил",
        -10.203325468586739
      ],
      [
        "вызвал",
        -10.203329994962802
      ],
      [
        "фактическ",
        -10.203360916925062
      ],
      [
        "истц",
        -10.203468370783677
      ],
      [
        "поступа",
        -10.203497750641207
      ],
      [
        "возглавлял",
        -10.203515802748925
      ],
      [
        "потрати",
        -10.203530035837609
      ],
      [
        "преступник",
        -10.203644179337225
      ],
      [
        "представляет",
        -10.203695513618259
      ],
      [
        "становят",
        -10.20385339835442
      ],
      [
        "ответил",
        -10.203894603183846
      ],
      [
        "имеющи",
        -10.204066333000043
      ],
      [
        "нанесен",
        -10.20406718022019
      ],
      [
        "веков",
        -10.204195817875684
      ],
      [
        "предпочита",
        -10.204348694593556
      ],
      [
        "напряжен",
        -10.204394625687183
      ],
      [
        "музыкально",
        -10.204442974487977
      ],
      [
        "ционны",
        -10.204535468886577
      ],
      [
        "точно",
        -10.204628711065006
      ],
      [
        "ды",
        -10.20464990813599
      ],
      [
        "пропавш",
        -10.204656608240983
      ],
      [
        "лита",
        -10.204716837775893
      ],
      [
        "сведениям",
        -10.204728287756629
      ],
      [
        "желающи",
        -10.204826075560316
      ],
      [
        "устрои",
        -10.204871812698563
      ],
      [
        "формирует",
        -10.20494954772182
      ],
      [
        "повлия",
        -10.20504160101968
      ],
      [
        "евич",
        -10.205427455932426
      ],
      [
        "ассам",
        -10.205444078459069
      ],
      [
        "хотел",
        -10.205465754300302
      ],
      [
        "лазерн",
        -10.205580453835898
      ],
      [
        "поиска",
        -10.205592918016732
      ],
      [
        "аспект",
        -10.205696148508066
      ],
      [
        "изменил",
        -10.205872860102037
      ],
      [
        "ником",
        -10.205902310136217
      ],
      [
        "волк",
        -10.20599285312707
      ],
      [
        "потерял",
        -10.20609708257418
      ],
      [
        "говорили",
        -10.206178781406996
      ],
      [
        "пятер",
        -10.206211115810298
      ],
      [
        "гусев",
        -10.206279092821239
      ],
      [
        "глаз",
        -10.206328546981428
      ],
      [
        "обсудил",
        -10.206378929078799
      ],
      [
        "глубоко",
        -10.206388070192826
      ],
      [
        "стратеги",
        -10.206684742783194
      ],
      [
        "прекращени",
        -10.206763548641561
      ],
      [
        "управляющи",
        -10.206845103732704
      ],
      [
        "минувши",
        -10.207287496263376
      ],
      [
        "обвинил",
        -10.207445519838684
      ],
      [
        "деревн",
        -10.207518598725997
      ],
      [
        "трупп",
        -10.207697651179378
      ],
      [
        "наибол",
        -10.207731242421447
      ],
      [
        "продлени",
        -10.207822552320666
      ],
      [
        "скорость",
        -10.207837610478201
      ],
      [
        "СВ",
        -10.208059992613155
      ],
      [
        "тест",
        -10.2082409887703
      ],
      [
        "водителя",
        -10.208246733003906
      ],
      [
        "сможе",
        -10.208341821133121
      ],
      [
        "офис",
        -10.208391374496173
      ],
      [
        "леви",
        -10.20852277610882
      ],
      [
        "комнатн",
        -10.20856635016801
      ],
      [
        "угольн",
        -10.208604382462829
      ],
      [
        "выпустил",
        -10.20862292665269
      ],
      [
        "паспорт",
        -10.208664265666144
      ],
      [
        "причини",
        -10.208826648252245
      ],
      [
        "эт",
        -10.208946490382797
      ],
      [
        "раздел",
        -10.209052867891575
      ],
      [
        "маленьки",
        -10.209302511924031
      ],
      [
        "ачев",
        -10.209509672760142
      ],
      [
        "изотов",
        -10.210745888106993
      ],
      [
        "представля",
        -10.210973958242082
      ],
      [
        "лион",
        -10.211139754298177
      ],
      [
        "чист",
        -10.211155234338456
      ],
      [
        "трудно",
        -10.211347336344971
      ],
      [
        "лош",
        -10.21161078841807
      ],
      [
        "амбо",
        -10.211829637454905
      ],
      [
        "улучшен",
        -10.21199346086713
      ],
      [
        "имел",
        -10.21205213730128
      ],
      [
        "тройк",
        -10.212134488466313
      ],
      [
        "полут",
        -10.212354081753187
      ],
      [
        "эп",
        -10.212389528848128
      ],
      [
        "зрени",
        -10.212688426537815
      ],
      [
        "ляев",
        -10.212907709023167
      ],
      [
        "драк",
        -10.212958740704067
      ],
      [
        "гура",
        -10.21307078662386
      ],
      [
        "ксен",
        -10.213261036278809
      ],
      [
        "улете",
        -10.213385449734508
      ],
      [
        "свойств",
        -10.213469664557794
      ],
      [
        "хищени",
        -10.213840741563608
      ],
      [
        "стратегическ",
        -10.213877836397415
      ],
      [
        "магнитогорск",
        -10.213967614117786
      ],
      [
        "реев",
        -10.214196937043202
      ],
      [
        "ушедш",
        -10.214333770504865
      ],
      [
        "краев",
        -10.214370613074852
      ],
      [
        "эр",
        -10.214382926132945
      ],
      [
        "меть",
        -10.214651221079123
      ],
      [
        "лок",
        -10.214796920969116
      ],
      [
        "дают",
        -10.214827304631324
      ],
      [
        "ока-",
        -10.214913127694471
      ],
      [
        "руководству",
        -10.214988901913795
      ],
      [
        "панель",
        -10.215091338531671
      ],
      [
        "заряд",
        -10.2159107988297
      ],
      [
        "молодежь",
        -10.216011571122355
      ],
      [
        "vi",
        -10.216173117614447
      ],
      [
        "удовлетворени",
        -10.216212410794906
      ],
      [
        "сф",
        -10.216462092761223
      ],
      [
        "выбира",
        -10.216594905649345
      ],
      [
        "мостово",
        -10.21672107862279
      ],
      [
        "нынешни",
        -10.216927640260982
      ],
      [
        "существующи",
        -10.217003904561011
      ],
      [
        "окса",
        -10.217978060257012
      ],
      [
        "уплат",
        -10.218186221530267
      ],
      [
        "вела",
        -10.219471308980166
      ],
      [
        "известны",
        -10.219515857729622
      ],
      [
        "минпро",
        -10.219676766849751
      ],
      [
        "голы",
        -10.219784484835555
      ],
      [
        "вспомина",
        -10.219825344119961
      ],
      [
        "лидерств",
        -10.220352393653975
      ],
      [
        "ила",
        -10.2207484573258
      ],
      [
        "опрошенны",
        -10.220784490932344
      ],
      [
        "чебанов",
        -10.220859492618231
      ],
      [
        "авария",
        -10.22173175748595
      ],
      [
        "осети",
        -10.222046598064015
      ],
      [
        "кубг",
        -10.222147858651123
      ],
      [
        "пич",
        -10.22223121261628
      ],
      [
        "возведени",
        -10.222323567755467
      ],
      [
        "анти",
        -10.222375864456044
      ],
      [
        "предоставлени",
        -10.222460575524655
      ],
      [
        "индивидуальны",
        -10.223119585349517
      ],
      [
        "мок",
        -10.223264752982592
      ],
      [
        "распространен",
        -10.224507149518669
      ],
      [
        "коммерческом",
        -10.224551344871669
      ],
      [
        "онлайн-т",
        -10.224628742003384
      ],
      [
        "осуди",
        -10.224650709735657
      ],
      [
        "ответственност",
        -10.225135808050725
      ],
      [
        "профильны",
        -10.225452947973459
      ],
      [
        "подробно",
        -10.22568913681461
      ],
      [
        "индивидуально",
        -10.225926944309323
      ],
      [
        "издани",
        -10.226034186624409
      ],
      [
        "собрания",
        -10.226065114021246
      ],
      [
        "dan",
        -10.226601195412773
      ],
      [
        "ание",
        -10.226632905069028
      ],
      [
        "исключа",
        -10.22687483010196
      ],
      [
        "представлени",
        -10.227866497229329
      ],
      [
        "огн",
        -10.227905434382134
      ],
      [
        "верхне",
        -10.228011329767497
      ],
      [
        "нгельс",
        -10.229266799699936
      ],
      [
        "арх",
        -10.229737385328088
      ],
      [
        "wi",
        -10.23002829637724
      ],
      [
        "покупа",
        -10.230318943600324
      ],
      [
        "села",
        -10.231233480026159
      ],
      [
        "лы",
        -10.231328110215935
      ],
      [
        "документаци",
        -10.231424496229142
      ],
      [
        "af",
        -10.231629813724854
      ],
      [
        "ши",
        -10.231823893815742
      ],
      [
        "заключ",
        -10.231871688677218
      ],
      [
        "lad",
        -10.231918338326166
      ],
      [
        "подан",
        -10.231965901940919
      ],
      [
        "осужденны",
[...]
