{
  "version": "1.0",
  "truncation": null,
  "padding": null,
  "added_tokens": [
    {
      "id": 0,
      "content": "[UNK]",
      "single_word": false,
      "lstrip": false,
      "rstrip": false,
      "normalized": false,
      "special": true
    },
    {
      "id": 1,
      "content": "[PAD]",
      "single_word": false,
      "lstrip": false,
      "rstrip": false,
      "normalized": false,
      "special": true
    },
    {
      "id": 2,
      "content": "[CLS]",
      "single_word": false,
      "lstrip": false,
      "rstrip": false,
      "normalized": false,
      "special": true
    },
    {
      "id": 3,
      "content": "[SEP]",
      "single_word": false,
      "lstrip": false,
      "rstrip": false,
      "normalized": false,
      "special": true
    },
    {
      "id": 4,
      "content": "[MASK]",
      "single_word": false,
      "lstrip": false,
      "rstrip": false,
      "normalized": false,
      "special": true
    }
  ],
  "normalizer": {
    "type": "NFC"
  },
  "pre_tokenizer": {
    "type": "WhitespaceSplit"
  },
  "post_processor": null,
  "decoder": null,
  "model": {
    "type": "Unigram",
    "unk_id": 0,
    "vocab": [
      [
        "[UNK]",
        0.0
      ],
      [
        "[PAD]",
        0.0
      ],
      [
        "[CLS]",
        0.0
      ],
      [
        "[SEP]",
        0.0
      ],
      [
        "[MASK]",
        0.0
      ],
      [
        ",",
        -3.207582022643166
      ],
      [
        ".",
        -3.293738909131415
      ],
      [
        "и",
        -3.4237133924223215
      ],
      [
        "е",
        -3.437736274866122
      ],
      [
        "а",
        -3.5863585212200526
      ],
      [
        "m",
        -3.782777115861471
      ],
      [
        "n",
        -3.787549926990722
      ],
      [
        "u",
        -3.798769859587157
      ],
      [
        "<",
        -3.8053708751500563
      ],
      [
        ">",
        -3.8053708751500563
      ],
      [
        "й",
        -4.046557734612521
      ],
      [
        "я",
        -4.175900125221828
      ],
      [
        "ы",
        -4.30366742437627
      ],
      [
        "м",
        -4.5331977908762155
      ],
      [
        "х",
        -4.5871862910860175
      ],
      [
        "у",
        -4.614188427060636
      ],
      [
        "»",
        -4.665070203338689
      ],
      [
        "«",
        -4.6981221183226785
      ],
      [
        "о",
        -4.834227261852792
      ],
      [
        "ов",
        -4.878871938815285
      ],
      [
        "ся",
        -4.8856283810247305
      ],
      [
        "ой",
        -5.069722255358077
      ],
      [
        "—",
        -5.250924285552655
      ],
      [
        "ю",
        -5.273817147495203
      ],
      [
        "ого",
        -5.31253756315419
      ],
      [
        "т",
        -5.318718040620373
      ],
      [
        "в",
        -5.351013808727539
      ],
      [
        "ь",
        -5.433400405313707
      ],
      [
        "го",
        -5.45270542934258
      ],
      [
        "ом",
        -5.495739565299965
      ],
      [
        "с",
        -5.535754459768928
      ],
      [
        "ая",
        -5.749607125696531
      ],
      [
        "ть",
        -5.754344138537784
      ],
      [
        "(",
        -5.84642259106537
      ],
      [
        ")",
        -5.850126294769074
      ],
      [
        "года",
        -5.8861764799070055
      ],
      [
        "ет",
        -6.012023021103992
      ],
      [
        "на",
        -6.041193378958335
      ],
      [
        "ых",
        -6.048442110337683
      ],
      [
        "ей",
        -6.104142624791367
      ],
      [
        "н",
        -6.137685245731635
      ],
      [
        "ую",
        -6.153294942066809
      ],
      [
        "руб",
        -6.161538512499911
      ],
      [
        "к",
        -6.178475028119057
      ],
      [
        ":",
        -6.191806313992836
      ],
      [
        "%",
        -6.207479856647955
      ],
      [
        "ми",
        -6.321895923638737
      ],
      [
        "так",
        -6.324799140114036
      ],
      [
        "году",
        -6.369070369389772
      ],
      [
        "област",
        -6.372641406532992
      ],
      [
        "л",
        -6.375310489803673
      ],
      [
        "же",
        -6.41256194019086
      ],
      [
        "ных",
        -6.426128258361597
      ],
      [
        "тыс",
        -6.443634720647229
      ],
      [
        "п",
        -6.466000279455772
      ],
      [
        "это",
        -6.53062269651354
      ],
      [
        "росси",
        -6.543907203895086
      ],
      [
        "сь",
        -6.546259830555452
      ],
      [
        "за",
        -6.558682480630715
      ],
      [
        "ли",
        -6.5749271160651555
      ],
      [
        "не",
        -6.596664691572212
      ],
      [
        "по",
        -6.637874262415262
      ],
      [
        "д",
        -6.638938514203884
      ],
      [
        "сентябр",
        -6.646810144789332
      ],
      [
        "которы",
        -6.6934294574916695
      ],
      [
        "но",
        -6.694003868034316
      ],
      [
        "ый",
        -6.699425003118577
      ],
      [
        "ий",
        -6.725167383857355
      ],
      [
        "-",
        -6.748407032015399
      ],
      [
        "ской",
        -6.752510163623389
      ],
      [
        "рф",
        -6.77610939607965
      ],
      [
        "млн",
        -6.77704504157856
      ],
      [
        "б",
        -6.805388036825561
      ],
      [
        "работ",
        -6.82321846330808
      ],
      [
        "ами",
        -6.830618490565558
      ],
      [
        "их",
        -6.845316210854503
      ],
      [
        "р",
        -6.856018818345096
      ],
      [
        "ют",
        -6.904986003507456
      ],
      [
        "сообщил",
        -6.909199551353321
      ],
      [
        "ки",
        -6.938615152716802
      ],
      [
        "ного",
        -6.94431699718911
      ],
      [
        "ч",
        -6.9459608332997265
      ],
      [
        "лет",
        -6.963810376122296
      ],
      [
        "ах",
        -6.972207316189219
      ],
      [
        "ка",
        -6.976683785425261
      ],
      [
        "млрд",
        -7.0099387393990975
      ],
      [
        "ко",
        -7.032849703261163
      ],
      [
        "ст",
        -7.068774334419948
      ],
      [
        "нов",
        -7.092780161791171
      ],
      [
        "ем",
        -7.108592352175767
      ],
      [
        "год",
        -7.112732079478243
      ],
      [
        "г",
        -7.150096025906328
      ],
      [
        "ок",
        -7.155757344150037
      ],
      [
        "ые",
        -7.225951274848554
      ],
      [
        "суд",
        -7.226928318007844
      ],
      [
        "ны",
        -7.231495413077088
      ],
      [
        "В",
        -7.246688986485198
      ],
      [
        "ный",
        -7.260041550499108
      ],
      [
        "господин",
        -7.295657714525345
      ],
      [
        "котор",
        -7.3005089289503635
      ],
      [
        "ъ",
        -7.306311604734761
      ],
      [
        "пресс-служб",
        -7.311709440878825
      ],
      [
        "проект",
        -7.329332320664821
      ],
      [
        "президент",
        -7.338711927538482
      ],
      [
        "компании",
        -7.340653215688705
      ],
      [
        "развити",
        -7.346652063703989
      ],
      [
        "глав",
        -7.354925325154138
      ],
      [
        "стран",
        -7.39533558015979
      ],
      [
        "ить",
        -7.398798911889951
      ],
      [
        "данным",
        -7.407225484730755
      ],
      [
        "сообщает",
        -7.412694368355404
      ],
      [
        "из",
        -7.438920753448417
      ],
      [
        "лось",
        -7.44811836784837
      ],
      [
        "му",
        -7.4663970891506946
      ],
      [
        "район",
        -7.46903910446081
      ],
      [
        "раз",
        -7.475346288935622
      ],
      [
        "ла",
        -7.486353879181804
      ],
      [
        "заявил",
        -7.487927301606174
      ],
      [
        "врем",
        -7.499739693695332
      ],
      [
        "з",
        -7.507564164590354
      ],
      [
        "про",
        -7.512990176567252
      ],
      [
        "ят",
        -7.528089917920468
      ],
      [
        "ам",
        -7.532386246513809
      ],
      [
        "совет",
        -7.535321358675876
      ],
      [
        "`",
        -7.5447055853708465
      ],
      [
        "'",
        -7.5447055853708465
      ],
      [
        "ым",
        -7.584911878248416
      ],
      [
        "ского",
        -7.5952075152444385
      ],
      [
        "ись",
        -7.5988868617551955
      ],
      [
        "объект",
        -7.5989221910887155
      ],
      [
        "ране",
        -7.609263474803674
      ],
      [
        "ш",
        -7.613135203307286
      ],
      [
        "региона",
        -7.61391972668372
      ],
      [
        "ать",
        -7.6151822894965076
      ],
      [
        "директор",
        -7.640997366213316
      ],
      [
        "под",
        -7.659938517258022
      ],
      [
        "центр",
        -7.670031835655028
      ],
      [
        "информаци",
        -7.6738362541934775
      ],
      [
        "дело",
        -7.675589989707536
      ],
      [
        "человек",
        -7.696454451127781
      ],
      [
        "связ",
        -7.705977444364541
      ],
      [
        "материал",
        -7.707907415245918
      ],
      [
        "территори",
        -7.7153472734548885
      ],
      [
        "безопасност",
        -7.72576374900955
      ],
      [
        "сред",
        -7.7263745241471575
      ],
      [
        "период",
        -7.7454536418872015
      ],
      [
        "отметил",
        -7.746951112351658
      ],
      [
        "сша",
        -7.751287581292499
      ],
      [
        "сочи",
        -7.770309688177448
      ],
      [
        "август",
        -7.77036934859184
      ],
      [
        "составил",
        -7.775254804704421
      ],
      [
        "против",
        -7.778955843875487
      ],
      [
        "начал",
        -7.783576016388418
      ],
      [
        "та",
        -7.785406240661072
      ],
      [
        "отношени",
        -7.793594408700737
      ],
      [
        "–",
        -7.796008910404922
      ],
      [
        "кра",
        -7.811734973579605
      ],
      [
        "комплекс",
        -7.812590306819807
      ],
      [
        "при",
        -7.813609697758693
      ],
      [
        "ф",
        -7.813960127706979
      ],
      [
        "сти",
        -7.819402619632729
      ],
      [
        "ук",
        -7.823542662962415
      ],
      [
        "ж",
        -7.828203318808305
      ],
      [
        "являет",
        -7.831421158926645
      ],
      [
        "жител",
        -7.838675979727833
      ],
      [
        "други",
        -7.8479643839063495
      ],
      [
        "александр",
        -7.849910114241949
      ],
      [
        "пол",
        -7.852351411309276
      ],
      [
        "пример",
        -7.858924617631354
      ],
      [
        "цен",
        -7.860011571699626
      ],
      [
        "мест",
        -7.861708807437401
      ],
      [
        "ения",
        -7.866581050424692
      ],
      [
        "“",
        -7.877129504683411
      ],
      [
        "ях",
        -7.881119929474989
      ],
      [
        "регион",
        -7.882424704990829
      ],
      [
        "данны",
        -7.885466350311345
      ],
      [
        "кв",
        -7.900519232487965
      ],
      [
        "москв",
        -7.901798783630048
      ],
      [
        "сказал",
        -7.9017995094299485
      ],
      [
        "ают",
        -7.904031694550802
      ],
      [
        "те",
        -7.910686132821466
      ],
      [
        "пере",
        -7.913136517446132
      ],
      [
        "ц",
        -7.914050587800668
      ],
      [
        "вопрос",
        -7.9158141649477365
      ],
      [
        "ку",
        -7.918178744119329
      ],
      [
        "А",
        -7.921382080308068
      ],
      [
        "буду",
        -7.924644413555363
      ],
      [
        "около",
        -7.931804889808805
      ],
      [
        "последни",
        -7.93339501080904
      ],
      [
        "обще",
        -7.935223028531878
      ],
      [
        "андре",
        -7.940669259839191
      ],
      [
        "российски",
        -7.9416807136326275
      ],
      [
        "С",
        -7.946602612607542
      ],
      [
        "проекта",
        -7.951566830681741
      ],
      [
        "бюджет",
        -7.953099936532943
      ],
      [
        "города",
        -7.9551611840827405
      ],
      [
        "компания",
        -7.957576315779134
      ],
      [
        "должност",
        -7.958380932464706
      ],
      [
        "s",
        -7.961330138563293
      ],
      [
        "ия",
        -7.961474854881978
      ],
      [
        "сегодня",
        -7.965276709541757
      ],
      [
        "двух",
        -7.965335131306999
      ],
      [
        "”",
        -7.965415728263752
      ],
      [
        "словам",
        -7.968652079806107
      ],
      [
        "владимир",
        -7.970554624665964
      ],
      [
        "первы",
        -7.971217288606922
      ],
      [
        "об",
        -7.980766231206429
      ],
      [
        "суда",
        -7.983499432606468
      ],
      [
        "групп",
        -7.9915205048541855
      ],
      [
        "от",
        -7.99385948620002
      ],
      [
        "председател",
        -7.996687712417394
      ],
      [
        "новы",
        -8.005217352828335
      ],
      [
        "ло",
        -8.008127041694816
      ],
      [
        "завод",
        -8.015751558050006
      ],
      [
        "ности",
        -8.020675602347007
      ],
      [
        "результат",
        -8.022413670148305
      ],
      [
        "говорит",
        -8.024715775418443
      ],
      [
        "сотрудник",
        -8.02733901268359
      ],
      [
        "ность",
        -8.02796814794469
      ],
      [
        "аэропорт",
        -8.031645105809252
      ],
      [
        "объем",
        -8.032872593621452
      ],
      [
        "ости",
        -8.035241387305412
      ],
      [
        "его",
        -8.035449181303822
      ],
      [
        "строительств",
        -8.038779999284516
      ],
      [
        "ведомства",
        -8.043003882524255
      ],
      [
        "получил",
        -8.04475330333684
      ],
      [
        "соглас",
        -8.046822985371854
      ],
      [
        "из-",
        -8.048429441684604
      ],
      [
        "ому",
        -8.05097028565984
      ],
      [
        "дома",
        -8.060293846141342
      ],
      [
        "ре",
        -8.061459435867238
      ],
      [
        "ое",
        -8.062547005767877
      ],
      [
        "столиц",
        -8.063761348720918
      ],
      [
        "уголовно",
        -8.07413297164079
      ],
      [
        "краснодар",
        -8.091602580460666
      ],
      [
        "ра",
        -8.09400242982851
      ],
      [
        "культур",
        -8.09427843396424
      ],
      [
        "режим",
        -8.094543181503793
      ],
      [
        "сторон",
        -8.094885095590527
      ],
      [
        "им",
        -8.096123165523066
      ],
      [
        "сезон",
        -8.101010629978708
      ],
      [
        "руководител",
        -8.10177270516209
      ],
      [
        "сам",
        -8.102144709566472
      ],
      [
        "рейс",
        -8.109582111935229
      ],
      [
        "свое",
        -8.111575328025104
      ],
      [
        "числе",
        -8.116475694453865
      ],
      [
        "ным",
        -8.12716408538584
      ],
      [
        "одно",
        -8.127183870801417
      ],
      [
        "сть",
        -8.130372407469938
      ],
      [
        "само",
        -8.130645070495865
      ],
      [
        "ен",
        -8.131902300299824
      ],
      [
        "сообщал",
        -8.133790411507476
      ],
      [
        "рассказал",
        -8.135417571983043
      ],
      [
        "ию",
        -8.136410593267676
      ],
      [
        "сфер",
        -8.136906415251698
      ],
      [
        "-за",
        -8.137594690376927
      ],
      [
        "республик",
        -8.145308585424374
      ],
      [
        "работа",
        -8.147330182727373
      ],
      [
        "стал",
        -8.15517602460636
      ],
      [
        "П",
        -8.16445905760193
      ],
      [
        "рам",
        -8.16523546659922
      ],
      [
        "услуг",
        -8.167089423543665
      ],
      [
        "ации",
        -8.174694803367156
      ],
      [
        "стоимость",
        -8.1771546470044
      ],
      [
        "па",
        -8.18617808597092
      ],
      [
        "могу",
        -8.188201488512195
      ],
      [
        "российск",
        -8.191790608595328
      ],
      [
        "f",
        -8.193499673984125
      ],
      [
        "стали",
        -8.194272709302737
      ],
      [
        "компани",
        -8.197241545193519
      ],
      [
        "доход",
        -8.202981439915629
      ],
      [
        "до",
        -8.205391627925248
      ],
      [
        "№",
        -8.207952745946764
      ],
      [
        "момент",
        -8.207986478554286
      ],
      [
        "продаж",
        -8.2081876614416
      ],
      [
        "О",
        -8.214484442961668
      ],
      [
        "участие",
        -8.218192426240767
      ],
      [
        "москвы",
        -8.22148156416414
      ],
      [
        "действия",
        -8.221640679760094
      ],
      [
        "Б",
        -8.222927547835365
      ],
      [
        "федераци",
        -8.222960814026212
      ],
      [
        "рубле",
        -8.224995384739108
      ],
      [
        "ном",
        -8.225357551339656
      ],
      [
        "x",
        -8.22865763401202
      ],
      [
        "правительств",
        -8.229540222427602
      ],
      [
        "-летн",
        -8.229546798789235
      ],
      [
        "дем",
        -8.232436566052392
      ],
      [
        "срок",
        -8.23570767039969
      ],
      [
        "одна",
        -8.236706468639191
      ],
      [
        "ск",
        -8.237578254316478
      ],
      [
        "ходе",
        -8.239191029626195
      ],
      [
        "международн",
        -8.23993931777467
      ],
      [
        "пла",
        -8.24302055741994
      ],
      [
        "бел",
        -8.24630498647767
      ],
      [
        "прокуратур",
        -8.247845425450958
      ],
      [
        "губернатор",
        -8.247955157160616
      ],
      [
        "сотрудничеств",
        -8.248043175629661
      ],
      [
        "э",
        -8.250122293547587
      ],
      [
        "ями",
        -8.252033279733306
      ],
      [
        "программ",
        -8.257078590938288
      ],
      [
        "ает",
        -8.257630874678467
      ],
      [
        "депутат",
        -8.262643101125928
      ],
      [
        "га",
        -8.262771151812352
      ],
      [
        "поддержк",
        -8.26532447451262
      ],
      [
        "района",
        -8.268255273564066
      ],
      [
        "пока",
        -8.271169672470844
      ],
      [
        "часть",
        -8.27750978960618
      ],
      [
        "средств",
        -8.278784486311826
      ],
      [
        "ут",
        -8.288844541130006
      ],
      [
        "город",
        -8.289583843269321
      ],
      [
        "администраци",
        -8.28988909336103
      ],
      [
        "нескольк",
        -8.290314704187118
      ],
      [
        "права",
        -8.29071869500893
      ],
      [
        "кром",
        -8.291911439598518
      ],
      [
        "именно",
        -8.292250026103716
      ],
      [
        "политик",
        -8.293696497003292
      ],
      [
        "во",
        -8.297585057368392
      ],
      [
        "спорт",
        -8.300720563222901
      ],
      [
        "основ",
        -8.30291986893891
      ],
      [
        "средства",
        -8.304614623535446
      ],
      [
        "-то",
        -8.307896894724044
      ],
      [
        "фонд",
        -8.311679026247969
      ],
      [
        "подробн",
        -8.314520822377588
      ],
      [
        "ситуаци",
        -8.315467259032728
      ],
      [
        "ле",
        -8.31602227116043
      ],
      [
        "де",
        -8.316284574826746
      ],
      [
        "дела",
        -8.31994176921455
      ],
      [
        "перв",
        -8.327066690393114
      ],
      [
        "ось",
        -8.327552781748931
      ],
      [
        "оставляет",
        -8.330871598905732
      ],
      [
        "орган",
        -8.33153293452582
      ],
      [
        "?",
        -8.333097673482998
      ],
      [
        "дмитри",
        -8.333099685126717
      ],
      [
        "реализаци",
        -8.333436808331795
      ],
      [
        "алексе",
        -8.333732442489737
      ],
      [
        "создани",
        -8.336461687597113
      ],
      [
        "снижени",
        -8.336630540900874
      ],
      [
        "организации",
        -8.338367245848382
      ],
      [
        "специалист",
        -8.340758689284474
      ],
      [
        "место",
        -8.340997806222608
      ],
      [
        "курорт",
        -8.343519124330856
      ],
      [
        "вы",
        -8.345814739991665
      ],
      [
        "стало",
        -8.346613701090893
      ],
      [
        "К",
        -8.354711679009068
      ],
      [
        "стать",
        -8.356592448397496
      ],
      [
        "вой",
        -8.363349115764098
      ],
      [
        "предприяти",
        -8.363523232343908
      ],
      [
        "систем",
        -8.373217810483753
      ],
      [
        "или",
        -8.374777168042149
      ],
      [
        "беспилотник",
        -8.374912996769755
      ],
      [
        "ряд",
        -8.375729859276683
      ],
      [
        "y",
        -8.376677877038563
      ],
      [
        "лов",
        -8.376828204280583
      ],
      [
        "начала",
        -8.377161434742781
      ],
      [
        "октябр",
        -8.377976756277205
      ],
      [
        "+",
        -8.378552218937543
      ],
      [
        "тысяч",
        -8.378719002790678
      ],
      [
        "трамп",
        -8.3789892652544
      ],
      [
        "которо",
        -8.379204445976907
      ],
      [
        "подчеркнул",
        -8.379964370352102
      ],
      [
        "человека",
        -8.38034608089039
      ],
      [
        "таки",
        -8.381795906508852
      ],
      [
        "ков",
        -8.383196278234342
      ],
      [
        "дут",
        -8.383250235393083
      ],
      [
        "решение",
        -8.391396735252133
      ],
      [
        "кова",
        -8.394060786164179
      ],
      [
        "служб",
        -8.394386391826906
      ],
      [
        "серге",
        -8.398960256005351
      ],
      [
        "парк",
        -8.39997821203061
      ],
      [
        "министр",
        -8.401537459056122
      ],
      [
        "министра",
        -8.402065441652926
      ],
      [
        "кубан",
        -8.406397729351424
      ],
      [
        "свои",
        -8.406425181926615
      ],
      [
        "d",
        -8.4131059643602
      ],
      [
        "нарушения",
        -8.414419804264696
      ],
      [
        "недвижимост",
        -8.417271770930315
      ],
      [
        "ском",
        -8.42107625372142
      ],
      [
        "выставк",
        -8.421083919872217
      ],
      [
        "считает",
        -8.426831601965405
      ],
      [
        "ит",
        -8.427546948569795
      ],
      [
        "соглашени",
        -8.429463653754578
      ],
      [
        "Р",
        -8.431097993264633
      ],
      [
        "комитет",
        -8.433362274576087
      ],
      [
        "транспорт",
        -8.434667667262511
      ],
      [
        "перво",
        -8.4352563339885
      ],
      [
        "банк",
        -8.435289002995836
      ],
      [
        "прошл",
        -8.436371834500864
      ],
      [
        "выше",
        -8.436524516490286
      ],
      [
        "граждан",
        -8.437357140624984
      ],
      [
        "енко",
        -8.438710058387567
      ],
      [
        "ие",
        -8.440146641985683
      ],
      [
        "кой",
        -8.442985676120486
      ],
      [
        "фон",
        -8.445158520926196
      ],
      [
        "путин",
        -8.445358594242341
      ],
      [
        "ново",
        -8.4463332353808
      ],
      [
        "да",
        -8.446375758678501
      ],
      [
        "семь",
        -8.448552503673685
      ],
      [
        "регионально",
        -8.44935159159177
      ],
      [
        "ма",
        -8.460515811022844
      ],
      [
        "школ",
        -8.462764143712663
      ],
      [
        "договор",
        -8.465258589199516
      ],
      [
        "ъ-",
        -8.470217780083797
      ],
      [
        "ии",
        -8.472167132748897
      ],
      [
        "люд",
        -8.475148614248848
      ],
      [
        "a",
        -8.475932171112095
      ],
      [
        "участник",
        -8.476423854605414
      ],
      [
        "планирует",
        -8.477434478112071
      ],
      [
        "ограничени",
        -8.478401917782572
      ],
      [
        "помощь",
        -8.480643085018993
      ],
      [
        "дет",
        -8.480956303278552
      ],
      [
        "случае",
        -8.482176260935702
      ],
      [
        "без",
        -8.484953874598599
      ],
      [
        "дел",
        -8.486556000427747
      ],
      [
        "товар",
        -8.490383844547262
      ],
      [
        "направлени",
        -8.492318215187392
      ],
      [
        "заседани",
        -8.492448441974304
      ],
      [
        "рынке",
        -8.497149910304636
      ],
      [
        "федеральн",
        -8.500119049173119
      ],
      [
        "фильм",
        -8.500802918970347
      ],
      [
        "оказал",
        -8.50953710514653
      ],
      [
        "анна",
        -8.512505543714214
      ],
      [
        "второ",
        -8.515137099982566
      ],
      [
        "дом",
        -8.517561889514504
      ],
      [
        "ует",
        -8.519121250763282
      ],
      [
        "истори",
        -8.520594664417459
      ],
      [
        "власт",
        -8.5210736915741
      ],
      [
        "су",
        -8.522115415720968
      ],
      [
        "отмечает",
        -8.528925269510392
      ],
      [
        "со",
        -8.529973567239058
      ],
      [
        "вечер",
        -8.530182642241776
      ],
      [
        "счет",
        -8.532503893050313
      ],
      [
        "мэр",
        -8.533823363585466
      ],
      [
        "втор",
        -8.536147419860807
      ],
      [
        "предложени",
        -8.537733828756263
      ],
      [
        "жил",
        -8.54038393139712
      ],
      [
        "ля",
        -8.540633667057884
      ],
      [
        "проверк",
        -8.542007626128603
      ],
      [
        "домов",
        -8.545033429942972
      ],
      [
        "ни",
        -8.547314449219277
      ],
      [
        "ке",
        -8.547488829383068
      ],
      [
        "фигурант",
        -8.552647676150725
      ],
      [
        "един",
        -8.552881881306899
      ],
      [
        "ния",
        -8.558408449856866
      ],
      [
        "крупны",
        -8.559283322479795
      ],
      [
        "принят",
        -8.56205099364675
      ],
      [
        "мира",
        -8.562192079321083
      ],
      [
        "эксперт",
        -8.573311610458681
      ],
      [
        "g",
        -8.574301463912214
      ],
      [
        "r",
        -8.575060289555662
      ],
      [
        "четыре",
        -8.57881853936355
      ],
      [
        "$",
        -8.584358401059516
      ],
      [
        "инфраструктур",
        -8.58436303285626
      ],
      [
        "екатеринбург",
        -8.584379973256034
      ],
      [
        "деньги",
        -8.584487194328668
      ],
      [
        "генпрокуратур",
        -8.584508725580307
      ],
      [
        "законодательств",
        -8.584713544680142
      ],
      [
        "задержал",
        -8.585425281881452
      ],
      [
        "ение",
        -8.586948561453012
      ],
      [
        "то",
        -8.587188734045268
      ],
      [
        "жизни",
        -8.588565447834723
      ],
      [
        "улиц",
        -8.596156035623508
      ],
      [
        "установил",
        -8.598066330357703
      ],
      [
        "больш",
        -8.600635412132446
      ],
      [
        "части",
        -8.601225946083881
      ],
      [
        "количество",
        -8.604935271934828
      ],
      [
        "пространств",
        -8.60568715989892
      ],
      [
        "Д",
        -8.606056029166158
      ],
      [
        "деятельност",
        -8.611317204874224
      ],
      [
        "полици",
        -8.611365354516987
      ],
      [
        "штраф",
        -8.612509392356618
      ],
      [
        "центра",
        -8.613931437461776
      ],
      [
        "золото",
        -8.615613949620354
      ],
      [
        "государств",
        -8.616302211770758
      ],
      [
        "деятельность",
        -8.616506780124054
      ],
      [
        "прокурор",
        -8.616534985986917
      ],
      [
        "i",
        -8.620115553319087
      ],
      [
        "ость",
        -8.620877512511257
      ],
      [
        "пост",
        -8.62149167011918
      ],
      [
        "строительство",
        -8.62349558905478
      ],
      [
        "свобод",
        -8.624284816170253
      ],
      [
        "лучши",
        -8.625182091159537
      ],
      [
        "рынк",
        -8.630581907927024
      ],
      [
        "актив",
        -8.63260598907928
      ],
      [
        "вд",
        -8.636393777093247
      ],
      [
        "идет",
        -8.638232093976402
      ],
      [
        "дол",
        -8.643036292699406
      ],
      [
        "санкт-петербург",
        -8.64318194062583
      ],
      [
        "telegram-канал",
        -8.643181950173235
      ],
      [
        "возбудил",
        -8.643182159024903
      ],
      [
        "отменен",
        -8.6442278272565
      ],
      [
        "премьер",
        -8.644238374966017
      ],
      [
        "производств",
        -8.64464383120721
      ],
      [
        "состояни",
        -8.645174373025668
      ],
      [
        "трех",
        -8.645706243928053
      ],
      [
        "представитель",
        -8.647782950676206
      ],
      [
        "назвал",
        -8.648603825691458
      ],
      [
        "иск",
        -8.649655260513455
      ],
      [
        "находит",
        -8.65072749551781
      ],
      [
        "активно",
        -8.650845321520412
      ],
      [
        "этим",
        -8.653908345093383
      ],
      [
        "самолет",
        -8.654011271651113
      ],
      [
        "сумм",
        -8.655619200952206
      ],
      [
        "виктор",
        -8.657819844733043
      ],
      [
        "включа",
        -8.658087769007704
      ],
      [
        "ставк",
        -8.658089844584438
      ],
      [
        "региональн",
        -8.65816055353886
      ],
      [
        "некоторы",
        -8.658320206320791
      ],
      [
        "украин",
        -8.659077839517469
      ],
      [
        "удмурти",
        -8.65945440553629
      ],
      [
        "международно",
        -8.660756514630961
      ],
      [
        "оборон",
        -8.66276872635759
      ],
      [
        "предприятия",
        -8.663111267686226
      ],
      [
        "лиц",
        -8.663660488054393
      ],
      [
        "бизнес",
        -8.667189060962702
      ],
      [
        "5",
        -8.667428973062115
      ],
      [
        "многи",
        -8.670138861144128
      ],
      [
        "министерств",
        -8.670301848361465
      ],
      [
        "вод",
        -8.67136946724428
      ],
      [
        "нато",
        -8.671572981298148
      ],
      [
        "стала",
        -8.671657690205599
      ],
      [
        "али",
        -8.6719569917358
      ],
      [
        "рек",
        -8.674666501306179
      ],
      [
        "площадь",
        -8.676401071979146
      ],
      [
        "очен",
        -8.676436360824349
      ],
      [
        "необходимо",
        -8.677068823171396
      ],
      [
        "ять",
        -8.677124055993872
      ],
      [
        "недел",
        -8.677376263624607
      ],
      [
        "запрет",
        -8.67931347957212
      ],
      [
        "чен",
        -8.68156292157443
      ],
      [
        "вид",
        -8.683817131418667
      ],
      [
        "вская",
        -8.684539208841581
      ],
      [
        "лиш",
        -8.686045603988518
      ],
      [
        "ил",
        -8.692259680307544
      ],
      [
        "гу",
        -8.69353422404737
      ],
      [
        "развитие",
        -8.695774510938126
      ],
      [
        "готов",
        -8.696350450819292
      ],
      [
        "причин",
        -8.696862673241638
      ],
      [
        "защит",
        -8.699334681533442
      ],
      [
        "p",
        -8.69965598484441
      ],
      [
        "кажды",
        -8.700212829879348
      ],
      [
        "t",
        -8.701537129857245
      ],
      [
        "ремонт",
        -8.705801707021134
      ],
      [
        "од",
        -8.706071980512814
      ],
      [
        "артем",
        -8.707592761748739
      ],
      [
        "асс",
        -8.70787882283176
      ],
      [
        "наш",
        -8.70884582410128
      ],
      [
        "2",
        -8.709035480081875
      ],
      [
        "усман",
        -8.709113150666205
      ],
      [
        "контрол",
        -8.71468201096764
      ],
      [
        "направил",
        -8.71685515769576
      ],
      [
        "татьян",
        -8.718096337057034
      ],
      [
        "ова",
        -8.718308536961157
      ],
      [
        "скольк",
        -8.719077770600263
      ],
      [
        "w",
        -8.721454757806534
      ],
      [
        "представител",
        -8.721807395274556
      ],
      [
        "женщин",
        -8.72241858357943
      ],
      [
        "ина",
        -8.724739828877397
      ],
      [
        "российско",
        -8.725223393222366
      ],
      [
        "эта",
        -8.726914932693655
      ],
      [
        "месяц",
        -8.72804587853012
      ],
      [
        "роста",
        -8.730255822469768
      ],
      [
        "енных",
        -8.734422654664161
      ],
      [
        "ющих",
        -8.734827204045224
      ],
      [
        "прошло",
        -8.73516605018441
      ],
      [
        "меры",
        -8.736716956745449
      ],
      [
        "l",
        -8.739168996454232
      ],
      [
        "сил",
        -8.740179180422949
      ],
      [
        "июл",
        -8.74241909847439
      ],
      [
        "атак",
        -8.742533045634193
      ],
      [
        "источник",
        -8.743225290525203
      ],
      [
        "встреч",
        -8.745698752811705
      ],
      [
        "ев",
        -8.746229078276542
      ],
      [
        "показател",
        -8.747221963618216
      ],
      [
        "спортивны",
        -8.747483289943094
      ],
      [
        "опыт",
        -8.748007785391263
      ],
      [
        "секретар",
        -8.749192590487858
      ],
      [
        "ник",
        -8.754917317724924
      ],
      [
        "феврал",
        -8.761106370533778
      ],
      [
        "управлени",
        -8.761968429387348
      ],
      [
        "течени",
        -8.762831165808612
      ],
      [
        "дум",
        -8.763792695431667
      ],
      [
        "чи",
        -8.765245131316806
      ],
      [
        "важно",
        -8.766657938614154
      ],
      [
        "зад",
        -8.769077767266163
      ],
      [
        "етс",
        -8.76918575815427
      ],
      [
        "отдыха",
        -8.76945431968362
      ],
      [
        "Ф",
        -8.769820158536454
      ],
      [
        "обеспечени",
        -8.770628805340642
      ],
      [
        "ал",
        -8.770754775741366
      ],
      [
        "оста",
        -8.772148020429857
      ],
      [
        "предусмотрен",
        -8.772348648264312
      ],
      [
        "декабр",
        -8.772357402273379
      ],
      [
        "кандидатур",
        -8.77254450369132
      ],
      [
        "форум",
        -8.772571610004665
      ],
      [
        "продукци",
        -8.772781984214264
      ],
      [
        "укреплени",
        -8.773548565363592
      ],
      [
        "татарстан",
        -8.77358101799406
      ],
      [
        "связан",
        -8.773663857589952
      ],
      [
        "туризм",
        -8.773754143307501
      ],
      [
        "наталь",
        -8.77378361891683
      ],
      [
        "добавил",
        -8.77411630403987
      ],
      [
        "ировать",
        -8.776528562170313
      ],
      [
        "день",
        -8.777168163789389
      ],
      [
        "котором",
        -8.780737344587243
      ],
      [
        "парти",
        -8.7817774993568
      ],
      [
        "взрыв",
        -8.78228728137343
      ],
      [
        "on",
        -8.782496882010438
      ],
      [
        "оборот",
        -8.78362801767738
      ],
      [
        "наше",
        -8.783958407045722
      ],
      [
        "возможность",
        -8.783995626546925
      ],
      [
        "нии",
        -8.786843677162068
      ],
      [
        "установлен",
        -8.788112505967993
      ],
      [
        "c",
        -8.788800042430537
      ],
      [
        "организаци",
        -8.789475589588545
      ],
      [
        "государственн",
        -8.79324501562571
      ],
      [
        "уровн",
        -8.79351969890475
      ],
      [
        "документ",
        -8.795393834728952
      ],
      [
        "все",
        -8.797038157230695
      ],
      [
        "структур",
        -8.797723415845823
      ],
      [
        "-м",
        -8.798336765740045
      ],
      [
        "ин",
        -8.80552757984124
      ],
      [
        "судов",
        -8.807714168027548
      ],
      [
        "назначен",
        -8.808089894454564
      ],
      [
        "направления",
        -8.811617872639346
      ],
      [
        "здоровь",
        -8.813024373305534
      ],
      [
        "акци",
        -8.813884354991934
      ],
      [
        "мар",
        -8.814470773087391
      ],
      [
        "ген",
        -8.81506586383459
      ],
      [
        "бывши",
        -8.816999728728938
      ],
      [
        "пер",
        -8.818604841034483
      ],
      [
        "труд",
        -8.818758571973632
      ],
      [
        "мнени",
        -8.81880385818005
      ],
      [
        "мин",
        -8.818913731990428
      ],
      [
        "персонал",
        -8.819393313523406
      ],
      [
        "wa",
        -8.820616322250325
      ],
      [
        "лина",
        -8.82117402192534
      ],
      [
        "ень",
        -8.823558563545383
      ],
      [
        "ва",
        -8.8277716175565
      ],
      [
        "М",
        -8.827878458279862
      ],
      [
        "ров",
        -8.828080621982913
      ],
      [
        "ски",
        -8.828834931768245
      ],
      [
        "груз",
        -8.83044546661177
      ],
      [
        "рина",
        -8.833237546365325
      ],
      [
        "дс",
        -8.837107605854122
      ],
      [
        "прав",
        -8.837443684756693
      ],
      [
        "задержан",
        -8.837605369639636
      ],
      [
        "процесс",
        -8.838521462573219
      ],
      [
        "сумма",
        -8.842584337336628
      ],
      [
        "ведомств",
        -8.843593159580259
      ],
      [
        "/",
        -8.843777164633286
      ],
      [
        "девочк",
        -8.843778772812538
      ],
      [
        "момотов",
        -8.843797890745108
      ],
      [
        "движения",
        -8.843871348321146
      ],
      [
        "контракт",
        -8.843879954118416
      ],
      [
        "саратов",
        -8.84388464559522
      ],
      [
        "предложил",
        -8.844505588540656
      ],
      [
        "госпож",
        -8.84452606652668
      ],
      [
        "экономик",
        -8.84517433219401
      ],
      [
        "обратил",
        -8.845286699614912
      ],
      [
        "внимани",
        -8.845572092773573
      ],
      [
        "снизил",
        -8.846284625855043
      ],
      [
        "следствие",
        -8.847272561477336
      ],
      [
        "ное",
        -8.847537686645381
      ],
      [
        "сохранени",
        -8.847626608524845
      ],
      [
        "ребен",
        -8.847871666338335
      ],
      [
        "поэтом",
        -8.85129122210554
      ],
      [
        "природ",
        -8.853135449548109
      ],
      [
        "пик",
        -8.853895708716456
      ],
      [
        "проводит",
        -8.854777849060813
      ],
      [
        "партнер",
        -8.854851951173478
      ],
      [
        "требования",
        -8.855931332317741
      ],
      [
        "уда",
        -8.856790259131742
      ],
      [
        "бренд",
        -8.857559472109514
      ],
      [
        "пор",
        -8.857778569322779
      ],
      [
        "оборудовани",
        -8.859087383756808
      ],
      [
        "судей",
        -8.863853976243526
      ],
      [
        "нужн",
        -8.866675391035184
      ],
      [
        "парламент",
        -8.868395212647997
      ],
      [
        "начальник",
        -8.868631900720029
      ],
      [
        "вести",
        -8.86948148423302
      ],
      [
        "пострадал",
        -8.87044622174534
      ],
      [
        "цел",
        -8.872547925944518
      ],
      [
        "нижне",
        -8.874816604800351
      ],
      [
        "краснодарском",
        -8.875335280079923
      ],
      [
        "мене",
        -8.875387062331642
      ],
      [
        "вых",
        -8.8757905438882
      ],
      [
        "условия",
        -8.876252578258242
      ],
      [
        "чу",
        -8.877383487514466
      ],
      [
        "ссыл",
        -8.877480369330046
      ],
      [
        "b",
        -8.878152953403884
      ],
      [
        "ние",
        -8.878543331527716
      ],
      [
        "торгов",
        -8.879661184757397
      ],
      [
        "состав",
        -8.87969011396796
      ],
      [
        "ких",
        -8.880488219736286
      ],
      [
        "баз",
        -8.881376887741512
      ],
      [
        "прием",
        -8.881474610174406
      ],
      [
        "рас",
        -8.884620012674413
      ],
      [
        "аренд",
        -8.88489609420758
      ],
      [
        "стратегически",
        -8.888032406713023
      ],
      [
        "дня",
        -8.89247117790199
      ],
      [
        "изо",
        -8.894689467945842
      ],
      [
        "Г",
        -8.895013489832479
      ],
      [
        "должн",
        -8.895468797744815
      ],
      [
        "чай",
        -8.895658583178482
      ],
      [
        "следуе",
        -8.89913430932371
      ],
      [
        "имуществ",
        -8.902526029325085
      ],
      [
        "кон",
        -8.904570443398793
      ],
      [
        "открыл",
        -8.907502249586992
      ],
      [
        "ская",
        -8.908422703446252
      ],
      [
        "ью",
        -8.909766482195577
      ],
      [
        "зон",
        -8.909853186324643
      ],
      [
        "ников",
        -8.913285936640694
      ],
      [
        "объекта",
        -8.915146925960293
      ],
      [
        "две",
        -8.915246624859106
      ],
      [
        "площад",
        -8.916372770061647
      ],
      [
        "прост",
        -8.918276875274895
      ],
      [
        "ти",
        -8.919365527556444
      ],
      [
        "качестве",
        -8.920424105973646
      ],
      [
        "зарплат",
        -8.920702877598098
      ],
      [
        "константин",
        -8.920799170569527
      ],
      [
        "дональд",
        -8.92081828706258
      ],
      [
        "возбужден",
        -8.920998501244494
      ],
      [
        "вячеслав",
        -8.92102971189064
      ],
      [
        "пояснил",
        -8.921160302791057
      ],
      [
        "созда",
        -8.92117709157969
      ],
      [
        "интерфакс",
        -8.921477324904677
      ],
      [
        "букмекер",
        -8.922156402082171
      ],
      [
        "созыв",
        -8.923309964473795
      ],
      [
        "моты",
        -8.924126524978124
      ],
      [
        "содержани",
        -8.924631229720813
      ],
      [
        "одн",
        -8.924698166433544
      ],
      [
        "вооружения",
        -8.925728223286882
      ],
      [
        "спрос",
        -8.926559902515791
      ],
      [
        "должен",
        -8.927256514211638
      ],
      [
        "вмест",
        -8.927580317536604
      ],
      [
        "ции",
        -8.931378273148614
      ],
      [
        "особенно",
        -8.932116488925166
      ],
      [
        "рабоч",
        -8.93216847224466
      ],
      [
        "У",
        -8.93594039063694
      ],
      [
        "вс",
        -8.940216306088752
      ],
      [
        "модел",
        -8.9421304651318
      ],
      [
        "ерте",
        -8.942856485699767
      ],
      [
        "итога",
        -8.945485618355548
      ],
      [
        "ства",
        -8.948130299119466
      ],
      [
        "выросл",
        -8.948292800680681
      ],
      [
        "шест",
        -8.948357089349392
      ],
      [
        "ируют",
        -8.948791599051594
      ],
      [
        "са",
        -8.949244888132554
      ],
      [
        "ше",
        -8.949879254950059
      ],
      [
        "общ",
        -8.951031774421704
      ],
      [
        "необходимы",
        -8.951625850186012
      ],
      [
        "зам",
        -8.951802276931776
      ],
      [
        "марте",
        -8.953137673654728
      ],
      [
        "ситуация",
        -8.95323654345069
      ],
      [
        "использовани",
        -8.953377695479102
      ],
      [
        "-й",
        -8.953467188188391
      ],
      [
        "размер",
        -8.953911103808156
      ],
      [
        "находя",
        -8.956313018013631
      ],
      [
        "зле",
        -8.956598705292395
      ],
      [
        "предложение",
        -8.960597475502308
      ],
      [
        "автомобиле",
        -8.961445487839875
      ],
      [
        "ответчик",
        -8.961633673715543
      ],
      [
        "белгород",
        -8.96177396694653
      ],
      [
        "месяца",
        -8.961830258688416
      ],
      [
        "отдел",
        -8.964834894421433
      ],
      [
        "верси",
        -8.965743050675686
      ],
      [
        "h",
        -8.966143335284663
      ],
      [
        "инициатив",
        -8.967222233643163
      ],
      [
        "что",
        -8.969582272066972
      ],
      [
        "тех",
        -8.971139498366629
      ],
      [
        "ирует",
        -8.972223178975284
      ],
      [
        "пиш",
        -8.974706226115078
      ],
      [
        "ль",
        -8.977360200876488
      ],
      [
        "класса",
        -8.977779647892646
      ],
      [
        "таким",
        -8.97858160737544
      ],
      [
        "нарушени",
        -8.978644859627847
      ],
      [
        "удар",
        -8.98001644881583
      ],
      [
        "образ",
        -8.983389995271367
      ],
      [
        "пс",
        -8.984313672256793
      ],
      [
        "заместител",
        -8.985194642685581
      ],
      [
        "налогов",
        -8.986121214371456
      ],
      [
        "част",
        -8.986204497644456
      ],
      [
        "in",
        -8.987354090564132
      ],
      [
        "нами",
        -8.988786852353995
      ],
      [
        "турист",
        -8.989474144920433
      ],
      [
        "ком",
        -8.990956486446368
      ],
      [
        "пят",
        -8.993222898944403
      ],
      [
        "дрон",
        -8.99467686523795
      ],
      [
        "хранени",
        -8.994970932904153
      ],
      [
        "цев",
        -8.99824792462736
      ],
      [
        "правления",
        -8.998456143986964
      ],
      [
        "мир",
        -8.999928801567878
      ],
      [
        "ростовско",
        -9.003038155840986
      ],
      [
        "количеств",
        -9.003064524637413
      ],
      [
        "апартамент",
        -9.00403429997743
      ],
      [
        "объявил",
        -9.004043150868938
      ],
      [
        "благодар",
        -9.004043964475233
      ],
      [
        "ноябр",
        -9.004052540954977
      ],
      [
        "законопроект",
        -9.00405753209553
      ],
      [
        "переговор",
        -9.00408472855621
      ],
      [
        "павел",
        -9.00408607942362
      ],
      [
        "аналогичны",
        -9.004192932732549
      ],
      [
        "взаимодействи",
        -9.00445535422477
      ],
      [
        "статус",
        -9.004583238650094
      ],
      [
        "госсовет",
        -9.004673883894977
      ],
      [
        "башкир",
        -9.004834548643167
      ],
      [
        "приостановил",
        -9.005080586253673
      ],
      [
        "сайт",
        -9.00527223819421
      ],
      [
        "выдач",
        -9.005297095505094
      ],
      [
        "изменения",
        -9.005870021971855
      ],
      [
        "ереван",
        -9.007198651890523
      ],
      [
        "ночь",
        -9.00758885219839
      ],
      [
        "фестиваля",
        -9.008672154266566
      ],
      [
        "мо",
        -9.008941645093163
      ],
      [
        "практически",
        -9.009884768695917
      ],
      [
        "пункт",
        -9.010619301586342
      ],
      [
        "помещения",
        -9.011000765090861
      ],
      [
        "попытк",
        -9.011746310510791
      ],
      [
        "девят",
        -9.01258015483007
      ],
      [
        "выступлени",
        -9.014096895683927
      ],
      [
        "ба",
        -9.015226934296093
      ],
      [
        "гор",
        -9.015234376462535
      ],
      [
        "иванов",
        -9.015736834925436
      ],
      [
        "строительн",
        -9.017700799982062
      ],
      [
        "конца",
        -9.018845952250821
      ],
      [
        "ну",
        -9.021652669455525
      ],
      [
        "признан",
        -9.022227649001756
      ],
      [
        "места",
        -9.02504331156115
      ],
      [
        "участ",
        -9.027855334424757
      ],
      [
        "уверен",
        -9.02973367264001
      ],
      [
        "пар",
        -9.03289824999307
      ],
      [
        "пермск",
        -9.03337382307014
      ],
      [
        "являют",
        -9.034922201713174
      ],
      [
        "оборудование",
        -9.03509882558922
      ],
      [
        "клиент",
        -9.037116680252899
      ],
      [
        "ци",
        -9.037923121045376
      ],
      [
        "сво",
        -9.038012158217859
      ],
      [
        "оо",
        -9.038182184518739
      ],
      [
        "доступ",
        -9.039200102182718
      ],
      [
        "крае",
        -9.041681088671808
      ],
      [
        "задержанны",
        -9.042127523084725
      ],
      [
        "писал",
        -9.043708234486886
      ],
      [
        "категори",
        -9.043810523354594
      ],
      [
        "стан",
        -9.043931380258911
      ],
      [
        "он",
        -9.04440907344324
      ],
      [
        "госте",
        -9.04515294338523
      ],
      [
        "гос",
        -9.04619933548725
      ],
      [
        "иску",
        -9.047056661162785
      ],
      [
        "институт",
        -9.047289923477512
      ],
      [
        "всем",
        -9.047402985809393
      ],
      [
        "университета",
        -9.047876329040575
      ],
      [
        "лишени",
        -9.048469682356258
      ],
      [
        "тем",
        -9.049293976477415
      ],
      [
        "ду",
        -9.050543497209484
      ],
      [
        "машин",
        -9.052146643314165
      ],
      [
        "слав",
        -9.055553051118107
      ],
      [
        "кажд",
        -9.055873928296194
      ],
      [
        "лини",
        -9.056035362552986
      ],
      [
        "ik",
        -9.056120419519157
      ],
      [
        "ками",
        -9.057564052148646
      ],
      [
        "есмотр",
        -9.059458085256333
      ],
      [
        "Н",
        -9.060083886312178
      ],
      [
        "мус",
        -9.061014191187871
      ],
      [
        "июн",
        -9.061568926825199
      ],
      [
        "составит",
        -9.061671178299735
      ],
      [
        "автомобиль",
        -9.06237386422432
      ],
      [
        "следственны",
        -9.06314641161553
      ],
      [
        "март",
        -9.064738270158692
      ],
      [
        "олег",
        -9.065276916524729
      ],
      [
        "la",
        -9.065972479944287
      ],
      [
        "получила",
        -9.066657753464296
      ],
      [
        "род",
        -9.067368867670803
      ],
      [
        "имени",
        -9.069488706595592
      ],
      [
        "надзорно",
        -9.07013165208075
      ],
      [
        "o",
        -9.071083501444498
      ],
      [
        "признал",
        -9.071207840811855
      ],
      [
        "совместно",
        -9.072211778766762
      ],
      [
        "интерес",
        -9.074000340407464
      ],
      [
        "стр",
        -9.07536955804104
      ],
      [
        "ста",
        -9.080151022607453
      ],
      [
        "задач",
        -9.083333929381844
      ],
      [
        "площадк",
        -9.0839072266589
      ],
      [
        "кита",
        -9.08418648257392
      ],
      [
        "решения",
        -9.085000345436445
      ],
      [
        "ики",
        -9.086679842110346
      ],
      [
        "футбол",
        -9.087485231899963
      ],
      [
        "ве",
        -9.09090451084242
      ],
      [
        "отрасл",
        -9.091152976018645
      ],
      [
        "тур",
        -9.092426378358093
      ],
      [
        "e",
        -9.093757172401792
      ],
      [
        "пассажир",
        -9.09494267286518
      ],
      [
        "барселон",
        -9.094942720485705
      ],
      [
        "ущерб",
        -9.094942791788975
      ],
      [
        "препарат",
        -9.094944121919687
      ],
      [
        "борьб",
        -9.094972349702235
      ],
      [
        "клуб",
        -9.095058687706942
      ],
      [
        "инвалидность",
        -9.095068975422704
      ],
      [
        "корпораци",
        -9.09507191305076
      ],
      [
        "одним",
        -9.095142931946622
      ],
      [
        "верховн",
        -9.095464333740415
      ],
      [
        "минимум",
        -9.095594953013414
      ],
      [
        "возраст",
        -9.095694717581141
      ],
      [
        "имеет",
        -9.096257639449924
      ],
      [
        "продолжает",
        -9.0962820522793
      ],
      [
        "занимает",
        -9.096300602068737
      ],
      [
        "итог",
        -9.096401159179967
      ],
      [
        "публикаци",
        -9.09670418267237
      ],
      [
        "ежегодн",
        -9.097085463979269
      ],
      [
        "подписал",
        -9.098890906026506
      ],
      [
        "рассказыва",
        -9.099270122739771
      ],
      [
        "Москв",
        -9.099974513466888
      ],
      [
        "пр",
        -9.100504437023293
      ],
      [
        "ям",
        -9.100645693645742
      ],
      [
        "виде",
        -9.100911547132263
      ],
      [
        "самар",
        -9.101061862841396
      ],
      [
        "наказани",
        -9.101611226928185
      ],
      [
        "музе",
        -9.101663886371881
      ],
      [
        "учреждения",
        -9.101667908108027
      ],
      [
        "весь",
        -9.101894608240864
      ],
      [
        "схем",
        -9.102399479753524
      ],
      [
        "ро",
        -9.102658571304897
      ],
      [
        "поступил",
        -9.10332317745568
      ],
      [
        "колонии",
        -9.103732027827986
      ],
      [
        "пред",
        -9.104377628716458
      ],
      [
        "поддержал",
        -9.104543337945572
      ],
      [
        "бы",
        -9.105315668518564
      ],
      [
        "выход",
        -9.105440673531747
      ],
      [
        "армени",
        -9.10626593758357
      ],
      [
        "покупк",
        -9.107031666458479
      ],
      [
        "ведет",
        -9.107352576589872
      ],
      [
        "четырех",
        -9.108426690164071
      ],
      [
        "смерт",
        -9.110795075655005
      ],
      [
        "месяце",
        -9.111295597588771
      ],
      [
        "рыно",
        -9.111353698378247
      ],
      [
        "реч",
        -9.112103100191922
      ],
      [
        "роман",
        -9.112249575640877
      ],
      [
        "преступления",
        -9.113502013388594
      ],
      [
        "отсутстви",
        -9.113680593058556
      ],
      [
        "наши",
        -9.113892223335377
      ],
      [
        "апсу",
        -9.11471517675706
      ],
      [
        "краснодарск",
        -9.11606291951026
      ],
      [
        "ап",
        -9.116334110424532
      ],
      [
        "мая",
        -9.116737493497231
      ],
      [
        "кр",
        -9.117802039729558
      ],
      [
        "известно",
        -9.117975690049839
      ],
      [
        "исследования",
        -9.118126617229219
      ],
      [
        "ты",
        -9.11813476002773
      ],
      [
        "ру",
        -9.118478284207232
      ],
      [
        "люде",
        -9.118978010692228
      ],
      [
        "Л",
        -9.12048734464595
      ],
      [
        "наркотик",
        -9.120861924710937
      ],
      [
        "технологи",
        -9.121122272779711
      ],
      [
        "модель",
        -9.124537830052363
      ],
      [
        "кино",
        -9.126827373744058
      ],
      [
        "исследовани",
        -9.127768665599982
      ],
      [
        "рост",
        -9.127978559531657
      ],
      [
        "южно",
        -9.133815241619144
      ],
      [
        "выпуск",
        -9.134044170960482
      ],
      [
        "своем",
        -9.134571804201556
      ],
      [
        "округ",
        -9.136673283374133
      ],
      [
        "цена",
        -9.137552547460473
      ],
      [
        "темп",
        -9.138859850870483
      ],
      [
        "новгород",
        -9.13901676700159
      ],
      [
        "находил",
        -9.139193890296541
      ],
      [
        "мероприятия",
        -9.140010151870712
      ],
      [
        "кол",
        -9.141192646161036
      ],
      [
        "игр",
        -9.141957546953924
      ],
      [
        "лечени",
        -9.142848522040412
      ],
      [
        "региональны",
        -9.143836526388926
      ],
      [
        "социальны",
        -9.144118231136016
      ],
      [
        "много",
        -9.145528684768832
      ],
      [
        "приговор",
        -9.147039479576756
      ],
      [
        "участка",
        -9.147480275398086
      ],
      [
        "третье",
        -9.147519021297908
      ],
      [
        "сложно",
        -9.150710869316088
      ],
      [
        "продолжит",
        -9.152022887039733
      ],
      [
        "особо",
        -9.15229438935922
      ],
      [
        "свой",
        -9.153319095079521
      ],
      [
        "бизнес-",
        -9.153859779874885
      ],
      [
        "сп",
        -9.154179037886472
      ],
      [
        "которым",
        -9.15461004150165
      ],
      [
        "возможност",
        -9.155691968913608
      ],
      [
        "январ",
        -9.156203953290348
      ],
      [
        "скр",
        -9.156467743778284
      ],
      [
        "федерация",
        -9.157255525353232
      ],
      [
        "незаконно",
        -9.158525839157086
      ],
      [
        "травм",
        -9.158883535533777
      ],
      [
        "разработк",
        -9.160072857342183
      ],
      [
        "свердловск",
        -9.160164534450145
      ],
      [
        "здани",
        -9.163336503284947
      ],
      [
        "ца",
        -9.163613772127452
      ],
      [
        "московск",
        -9.163696633535771
      ],
      [
        "обвинения",
        -9.164121576615365
      ],
      [
        "средни",
        -9.164158161323117
      ],
      [
        "нв",
        -9.165352729074517
      ],
      [
        "овать",
        -9.168025234135685
      ],
      [
        "аутизм",
        -9.16858600181874
      ],
      [
        "че",
        -9.170068431159553
      ],
      [
        "заместителя",
        -9.172836480565236
      ],
      [
        "уровне",
        -9.172990138080548
      ],
      [
        "бес",
        -9.174135605867203
      ],
      [
        "гски",
        -9.175214491599723
      ],
      [
        "погиб",
        -9.178157244551159
      ],
      [
        "дорог",
        -9.17892309229187
      ],
      [
        "федеральны",
        -9.179187412551036
      ],
      [
        "новым",
        -9.180523796414205
      ],
      [
        "мужчин",
        -9.184414766915971
      ],
      [
        "расположен",
        -9.188241871863184
      ],
      [
        "полицейски",
        -9.189349584464056
      ],
      [
        "ресурс",
        -9.191418546711416
      ],
      [
        "движение",
        -9.194779074934132
      ],
      [
        "менеджер",
        -9.194856482127582
      ],
      [
        "екатерин",
        -9.194920951321437
      ],
      [
        "здравоохранени",
        -9.194942669733837
      ],
      [
        "парацетамол",
        -9.194942671324304
      ],
      [
        "дефицит",
        -9.194942765613808
      ],
      [
        "атмосфер",
        -9.19494325713854
      ],
      [
        "соцсет",
        -9.194944651547033
      ],
      [
        "сравнени",
        -9.194952586203723
      ],
      [
        "больниц",
        -9.194986602847425
      ],
      [
        "двум",
        -9.195004336839897
      ],
      [
        "газпром",
        -9.195072696610701
      ],
      [
        "уполномоченны",
        -9.195168615858979
      ],
      [
        "нижегородск",
        -9.195295297085734
      ],
      [
        "населения",
        -9.19554071090501
      ],
      [
        "подозреваемы",
        -9.195591273944009
      ],
      [
        "команд",
        -9.196105110618552
      ],
      [
        "подозрени",
        -9.196161974121939
      ],
      [
        "Т",
        -9.196265751959057
      ],
      [
        "нем",
        -9.196395629389169
      ],
      [
        "самарск",
        -9.196832583930483
      ],
      [
        "одежд",
        -9.197128573866731
      ],
      [
        "ипоте",
        -9.198465364354167
      ],
      [
        "угроз",
        -9.198487118565875
      ],
      [
        "операци",
        -9.199186678496133
      ],
      [
        "красот",
        -9.199283693649534
      ],
      [
        "выплат",
        -9.199569448240178
      ],
      [
        "квартир",
        -9.200035559591143
      ],
      [
        "увеличение",
        -9.200157673760055
      ],
      [
        "минут",
        -9.200313616663468
      ],
      [
        "назначил",
        -9.200998521463665
      ],
      [
        "сери",
        -9.201498109034286
      ],
      [
        "королев",
        -9.201547156421285
      ],
      [
        "отчислени",
        -9.202471880814963
      ],
      [
        "честь",
        -9.203111344399321
      ],
      [
        "представил",
        -9.203400515916591
      ],
      [
        "числ",
        -9.204511522726108
      ],
      [
        "ниже",
        -9.205670146334194
      ],
      [
        "стране",
        -9.206848768603646
      ],
      [
        "дает",
        -9.206964851556528
      ],
      [
        "видео",
        -9.20713787032897
      ],
      [
        "фестиваль",
        -9.207177206565593
      ],
      [
        "зарегистрирован",
        -9.20752753963399
      ],
      [
        "средне",
        -9.209046404250032
      ],
      [
        "происходи",
        -9.20906200885296
      ],
      [
        "земельны",
        -9.210377341051935
      ],
      [
        "шин",
        -9.211433811347328
      ],
      [
        "закон",
        -9.213539242430585
      ],
      [
        "3",
        -9.21498290377665
      ],
      [
        "властям",
        -9.215148487060475
      ],
      [
        "заявк",
        -9.216328564912313
      ],
      [
        "иностранным",
        -9.217383585083482
      ],
      [
        "украински",
        -9.217856902278342
      ],
      [
        "нова",
        -9.21880576492855
      ],
      [
        "8",
        -9.218923039131306
      ],
      [
        "маршрут",
        -9.21920122730015
      ],
      [
        "житель",
        -9.221844894094358
      ],
      [
        "речи",
        -9.221887367752009
      ],
      [
        "цита",
        -9.221987578389552
      ],
      [
        "шести",
        -9.222531211444679
      ],
      [
        "городов",
        -9.223860887521184
      ],
      [
        "избран",
        -9.225702399290054
      ],
      [
        "десят",
        -9.225874836582713
      ],
      [
        "дона",
        -9.22650769024905
      ],
      [
        "карт",
        -9.226677429306482
      ],
      [
        "филин",
        -9.22721449377057
      ],
      [
        "главн",
        -9.227318561494027
      ],
      [
        "характер",
        -9.227325325007545
      ],
      [
        "спортивн",
        -9.227865161628348
      ],
      [
        "ростовск",
        -9.228128481968717
      ],
      [
        "американск",
        -9.22853738239505
      ],
      [
        "том",
        -9.22923403421293
      ],
      [
        "анап",
        -9.233062265293768
      ],
      [
        "число",
        -9.235866146083616
      ],
      [
        "важны",
        -9.236027324578092
      ],
      [
        "обща",
        -9.23618685111485
      ],
      [
        "россия",
        -9.2369914764006
      ],
      [
        "здания",
        -9.238250663781681
      ],
      [
        "член",
        -9.239936825546014
      ],
      [
        "мск",
        -9.241992864604821
      ],
      [
        "свет",
        -9.244073947524711
      ],
      [
        "проблем",
        -9.244360622780214
      ],
      [
        "поли",
        -9.244389673166145
      ],
      [
        "дин",
        -9.245264223498076
      ],
      [
        "судебны",
        -9.246217235321357
      ],
      [
        "нных",
        -9.246316626876968
      ],
      [
        "международны",
        -9.2466369495869
      ],
      [
        "вшего",
        -9.24816326657963
      ],
      [
        "текуще",
        -9.248307407773384
      ],
      [
        "жен",
        -9.24831241536527
      ],
      [
        "социальн",
        -9.248562074975318
      ],
      [
        "различны",
        -9.249435751934381
      ],
      [
        "мероприяти",
        -9.253065981186232
      ],
      [
        "артист",
        -9.253839210676242
      ],
      [
        "эти",
        -9.254701417770246
      ],
      [
        "министерство",
        -9.255780123428522
      ],
      [
        "арбитражны",
        -9.256404951847479
      ],
      [
        "рейтинг",
        -9.256430151768036
      ],
      [
        "обмен",
        -9.256708119854373
      ],
      [
        "подростк",
        -9.257528926938686
      ],
      [
        "омимо",
        -9.257809159371677
      ],
      [
        "влия",
        -9.258264024263775
      ],
      [
        "производство",
        -9.259092400670923
      ],
      [
        "З",
        -9.260643894768794
      ],
      [
        "вред",
        -9.262729748529933
      ],
      [
        "управление",
        -9.264144517994335
      ],
      [
        "ди",
        -9.264177484024273
      ],
      [
        "собственност",
        -9.264844686544963
      ],
      [
        "иска",
        -9.26489351966292
      ],
      [
        "намерен",
        -9.265479852990104
      ],
      [
        "Ш",
        -9.266310686565241
      ],
      [
        "временно",
        -9.266453386730733
      ],
      [
        "цель",
        -9.266866882779343
      ],
      [
        "организован",
        -9.267106189094841
      ],
      [
        "боле",
        -9.267591016360978
      ],
      [
        "ец",
        -9.268946070519505
      ],
      [
        "получат",
        -9.269190564355172
      ],
      [
        "решени",
        -9.269445210492485
      ],
      [
        "позици",
        -9.269893411878778
      ],
      [
        "автомобили",
        -9.270556835669172
      ],
      [
        "краснов",
        -9.276639755358769
      ],
      [
        "треть",
        -9.276719854389741
      ],
      [
        "позволи",
        -9.277328896529356
      ],
      [
        "автор",
        -9.277891058694458
      ],
      [
        "иде",
        -9.28074633611101
      ],
      [
        "краснодарски",
        -9.28146498807535
      ],
      [
        "di",
        -9.28336249026576
      ],
      [
        "лидер",
        -9.284307153373074
      ],
      [
        "стоит",
        -9.28660621758965
      ],
      [
        "бо",
        -9.287872261377197
      ],
      [
        "молод",
        -9.288406527756061
      ],
      [
        "оно",
        -9.289544315398897
      ],
      [
        "работал",
        -9.289548560088686
      ],
      [
        "повреждени",
        -9.29023046409776
      ],
      [
        "занимал",
        -9.290716297518193
      ],
      [
        "объема",
        -9.292353784287307
      ],
      [
        "бу",
        -9.293157377629383
      ],
      [
        "интернет",
        -9.295121787153054
      ],
      [
        "ний",
        -9.298940701015132
      ],
      [
        "авто",
        -9.30046582572336
      ],
      [
        "топлив",
        -9.302926189639084
      ],
      [
        "три",
        -9.30396753717669
      ],
      [
        "хозяйств",
        -9.304004151336608
      ],
      [
        "вошл",
        -9.30425688046935
      ],
      [
        "метро",
        -9.30439703121867
      ],
      [
        "инфляци",
        -9.305634862528482
      ],
      [
        "инвестици",
        -9.305811217294107
      ],
      [
        "€",
        -9.30605378084683
      ],
      [
        "Челябинск",
        -9.3060537809637
      ],
      [
        "сегмент",
        -9.30605400200595
      ],
      [
        "михаил",
        -9.306057438689564
      ],
      [
        "санкци",
        -9.306063756375213
      ],
      [
        "квартал",
        -9.306066745927009
      ],
      [
        "штейн",
        -9.306084143176598
      ],
      [
        "филиппин",
        -9.30610052092921
      ],
      [
        "карьер",
        -9.306106842199494
      ],
      [
        "евгени",
        -9.306182871462491
      ],
      [
        "the",
        -9.306234767868364
      ],
      [
        "виновным",
        -9.306237940810389
      ],
      [
        "res",
        -9.306292651323556
      ],
      [
        "манжерок",
        -9.306376695275247
      ],
      [
        "имеют",
        -9.306581403468682
      ],
      [
        "воронеж",
        -9.307002021128351
      ],
      [
        "чемпионат",
        -9.307274902963556
      ],
      [
        "выступа",
        -9.30739911074867
      ],
      [
        "кирилл",
        -9.30744834855762
      ],
      [
        "На",
        -9.307534247472697
      ],
      [
        "отказал",
        -9.308506639099273
      ],
      [
        "пекар",
        -9.30859126427482
      ],
      [
        "наличи",
        -9.309744687479531
      ],
      [
        "основн",
        -9.30992994178474
      ],
      [
        "часов",
        -9.309975939417786
      ],
      [
        "мария",
        -9.310249661166548
      ],
      [
        "се",
        -9.310353320265666
      ],
      [
        "бонд",
        -9.310489203660486
      ],
      [
        "готовность",
        -9.311126704757664
      ],
      [
        "хотя",
        -9.311230960503034
      ],
      [
        "заказ",
        -9.312706942074248
      ],
      [
        "язык",
        -9.313625482550734
      ],
      [
        "ры",
        -9.313961233243758
      ],
      [
        "заявления",
        -9.314771294802975
      ],
      [
        "апреле",
        -9.314823486367564
      ],
      [
        "поселк",
        -9.314836538880705
      ],
      [
        "расследование",
        -9.315667024122986
      ],
      [
        "тел",
        -9.316184636184236
      ],
      [
        "большо",
        -9.31621472559839
      ],
      [
        "одном",
        -9.316473709083755
      ],
      [
        "крым",
        -9.316524497942087
      ],
      [
        "метьев",
        -9.317804121692898
      ],
      [
        "отношения",
        -9.3181327224794
      ],
      [
        "аналитик",
        -9.318869615149485
      ],
      [
        "заявление",
        -9.318996399898975
      ],
      [
        "урал",
        -9.31951150438021
      ],
      [
        "адрес",
        -9.31965392376116
      ],
      [
        "высот",
        -9.321920049881975
      ],
      [
        "получение",
        -9.322043431955755
      ],
      [
        "самым",
        -9.324242680441415
      ],
      [
        "подход",
        -9.325678581527896
      ],
      [
        "202",
        -9.325707971057138
      ],
      [
        "переда",
        -9.325814719497973
      ],
      [
        "говоря",
        -9.325968791212883
      ],
      [
        "воз",
        -9.327270278912334
      ],
      [
        "обращени",
        -9.327898975360172
      ],
      [
        "сдела",
        -9.327952269845426
      ],
      [
        "действи",
        -9.32819468577173
      ],
      [
        "фестивале",
        -9.328954615938217
      ],
      [
        "конце",
        -9.328991709450312
      ],
      [
        "недвижимость",
        -9.331314615387681
      ],
      [
        "новост",
        -9.331967502983549
      ],
      [
        "франц",
        -9.332068196271518
      ],
      [
        "первом",
        -9.334088116540835
      ],
      [
        "комплект",
        -9.334221836026844
      ],
      [
        "проведен",
        -9.334384398217155
      ],
      [
        "игрок",
        -9.334540225989768
      ],
      [
        "повышени",
        -9.334550267196157
      ],
      [
        "пяти",
        -9.335592222472872
      ],
      [
        "надзор",
        -9.337594885794095
      ],
      [
        "расход",
        -9.337664102214767
      ],
      [
        "магазин",
        -9.339978038382338
      ],
      [
        "каса",
        -9.341392682057805
      ],
      [
        "инцидент",
        -9.342028905381465
      ],
      [
        "k",
        -9.342339514883765
      ],
      [
        "слова",
        -9.34350561115355
      ],
      [
        "судь",
        -9.343914185222658
      ],
      [
        "марк",
        -9.345382394312146
      ],
      [
        "отдых",
        -9.345807090549286
      ],
      [
        "политическо",
        -9.346686288502486
      ],
      [
        "предмет",
        -9.347458003382764
      ],
      [
        "мощность",
        -9.34839309375645
      ],
      [
        "уют",
        -9.348440825658335
      ],
      [
        "ведомстве",
        -9.34846021940199
      ],
      [
        "рассмотрени",
        -9.348681594610706
      ],
      [
        "ru",
        -9.350664463039667
      ],
      [
        "питани",
        -9.351655835413165
      ],
      [
        "продукт",
        -9.35382170477758
      ],
      [
        "учет",
        -9.35436587858555
      ],
      [
        "жиль",
        -9.356127077433584
      ],
      [
        "проведени",
        -9.356945497590793
      ],
      [
        "аэропорта",
        -9.358376916112718
      ],
      [
        "ограничения",
        -9.358731371970164
      ],
      [
        "выбор",
        -9.360364422826176
      ],
      [
        "научны",
        -9.361869039355916
      ],
      [
        "пресс-",
        -9.364215737977105
      ],
      [
        "пожар",
        -9.364848822124927
      ],
      [
        "количественны",
        -9.364890642750087
      ],
      [
        "пострадавши",
        -9.36499548693092
      ],
      [
        "настояще",
        -9.365350124452167
      ],
      [
        "сцен",
        -9.365723846528326
      ],
      [
        "z",
        -9.365888819464573
      ],
      [
        "челябинско",
        -9.366454534107325
      ],
      [
        "ответственно",
        -9.366515064320936
      ],
      [
        "исторически",
        -9.37009590539722
      ],
      [
        "официальны",
        -9.370547102243636
      ],
      [
        "упал",
        -9.37082131193058
      ],
      [
        "нарушение",
        -9.37100327456658
      ],
      [
        "этаж",
        -9.372465675389149
      ],
      [
        "йдут",
        -9.372938660316864
      ],
      [
        "изъя",
        -9.374428040576031
      ],
      [
        "мае",
        -9.375147782529485
      ],
      [
        "дорож",
        -9.376294643132276
      ],
      [
        "риск",
        -9.376769645115779
      ],
      [
        "оп",
        -9.377326000827663
      ],
      [
        "май",
        -9.377541595774995
      ],
      [
        "мат",
        -9.377659578054963
      ],
      [
        "трети",
        -9.377772053720124
      ],
      [
        "горь",
        -9.3784710668163
      ],
      [
        "ее",
        -9.379559764784203
      ],
      [
        "склад",
        -9.379730189566278
      ],
      [
        "времен",
        -9.379965750392943
      ],
      [
        "размещен",
        -9.381598618600439
      ],
      [
        "центральны",
        -9.383289072130975
      ],
      [
        "илья",
        -9.384452481242619
      ],
      [
        "участи",
        -9.385263229079024
      ],
      [
        "дон",
        -9.38735982938989
      ],
      [
        "мер",
        -9.387685337490705
      ],
      [
        "куп",
        -9.388022070889079
      ],
      [
        "электро",
        -9.38889507365078
      ],
      [
        "селе",
        -9.390002112675166
      ],
      [
        "амка",
        -9.390454129066123
      ],
      [
        "сбор",
        -9.391707959083178
      ],
      [
        "очеред",
        -9.393054441887472
      ],
      [
        "использование",
        -9.393465583599882
      ],
      [
        "генеральны",
        -9.393774467157641
      ],
      [
        "арест",
        -9.395433934105657
      ],
      [
        "ша",
        -9.39722108831964
      ],
      [
        "слов",
        -9.397222384270862
      ],
      [
        "сети",
        -9.397235257606376
      ],
      [
        "работник",
        -9.397487418217695
      ],
      [
        "совершен",
        -9.399652394747614
      ],
      [
        "стане",
        -9.400283814917184
      ],
      [
        "годов",
        -9.401231895884186
      ],
      [
        "конференци",
        -9.401609236815048
      ],
      [
        "специально",
        -9.403043366174218
      ],
      [
        "вылет",
        -9.404114989229534
      ],
      [
        "сесси",
        -9.404401583194328
      ],
      [
        "смотр",
        -9.404923265419047
      ],
      [
        "ранения",
        -9.405405969146363
      ],
      [
        "разны",
        -9.406321971993872
      ],
      [
        "бело",
        -9.406621157353213
      ],
      [
        "применени",
        -9.40878841588658
      ],
      [
        "ост",
        -9.409225383431243
      ],
      [
        "услови",
        -9.409287556757148
      ],
      [
        "разу",
        -9.412010624302177
      ],
      [
        "ходят",
        -9.413336425269899
      ],
      [
        "чиновник",
        -9.413972003855562
      ],
      [
        "сми",
        -9.415176146101906
      ],
      [
        "но-",
        -9.416625986804481
      ],
      [
        "смог",
        -9.418955129697427
      ],
      [
        "щих",
        -9.419162710681103
      ],
      [
        "блок",
        -9.4230158787793
      ],
      [
        "Росси",
        -9.42404626892405
      ],
      [
        "кредитов",
        -9.426367843373004
      ],
      [
        "9",
        -9.426534366392197
      ],
      [
        "дорого",
        -9.427182951794771
      ],
      [
        "биен",
        -9.429639311976143
      ],
      [
        "отделени",
        -9.429759958611823
      ],
      [
        ";",
        -9.431053780855933
      ],
      [
        "водоснабжени",
        -9.43105378086706
      ],
      [
        "гуманитарн",
        -9.431053780895027
      ],
      [
        "происшестви",
        -9.43105378102082
      ],
      [
        "роспотребнадзор",
        -9.431053781956926
      ],
      [
        "блкоммунэнерго",
        -9.431053789311232
      ],
      [
        "факультет",
        -9.43105381326022
      ],
      [
        "субсиди",
        -9.431053814640599
      ],
      [
        "картофел",
        -9.431053882141308
      ],
      [
        "соловьев",
        -9.431053935799746
      ],
      [
        "событие",
        -9.431054043707205
      ],
      [
        "индустри",
        -9.43105413351976
      ],
      [
        "водохранилищ",
        -9.431054522661134
      ],
      [
        "гладков",
        -9.431063067884802
      ],
      [
        "обязанност",
        -9.431071715347075
      ],
      [
        "бобров",
        -9.431077218032517
      ],
      [
        "совхоз",
        -9.431078655243056
      ],
      [
        "воздух",
        -9.431106609074646
      ],
      [
        "нескольки",
        -9.431110358125496
      ],
      [
        "террористическ",
        -9.431113241639562
      ],
      [
        "песков",
        -9.431144754091031
      ],
      [
        "границ",
        -9.431148490870736
      ],
      [
        "экспозици",
        -9.431168128439051
      ],
      [
        "ber",
        -9.431222572371164
      ],
      [
        "недавн",
        -9.431316531946662
      ],
      [
        "принимать",
        -9.431357999139701
      ],
      [
        "топ-",
        -9.431473670216363
      ],
      [
        "продолжают",
        -9.431539855353957
      ],
      [
        "обратить",
        -9.431543331341425
      ],
      [
        "ассоциаци",
        -9.43162362061357
      ],
      [
        "приводит",
        -9.43164924669925
      ],
      [
        "гендиректор",
        -9.431663385918231
      ],
      [
        "ипотечн",
        -9.43177425376156
      ],
      [
        "прибыль",
        -9.43240117917003
      ],
      [
        "техник",
        -9.432577971816954
      ],
      [
        "получит",
        -9.432592447405968
      ],
      [
        "регистраци",
        -9.432612738022005
      ],
      [
        "срока",
        -9.432994601700244
      ],
      [
        "высоки",
        -9.433668525163903
      ],
      [
        "действительно",
        -9.433978736585994
      ],
      [
        "выбрал",
        -9.435296088127824
      ],
      [
        "замедлени",
        -9.435765894737576
      ],
      [
        "анатол",
        -9.436209754274266
      ],
      [
        "порядк",
        -9.436273906779725
      ],
      [
        "ближайше",
        -9.436842339319453
      ],
      [
        "диверси",
        -9.437795732773873
      ],
      [
        "це",
        -9.439188346620936
      ],
      [
        "эт",
        -9.439304909024832
      ],
      [
        "строительны",
        -9.439427789554397
      ],
      [
        "стабильност",
        -9.439623338544436
      ],
      [
        "произошло",
        -9.439703471508714
      ],
      [
        "группа",
        -9.440226328979573
      ],
      [
        "фо",
        -9.44034802575868
      ],
      [
        "превысил",
        -9.440428635787459
      ],
      [
        "меж",
        -9.440524797321496
      ],
      [
        "русск",
        -9.44058767851287
      ],
      [
        "скоре",
        -9.441866852819699
      ],
      [
        "соответствующ",
        -9.442054496569796
      ],
      [
        "века",
        -9.44298306854103
      ],
      [
        "участк",
        -9.44304562911614
      ],
      [
        "выступил",
        -9.443557640001734
      ],
      [
        "среднем",
        -9.444182663927823
      ],
      [
        "ющий",
        -9.444941203048336
      ],
      [
        "основан",
        -9.445085466298297
      ],
      [
        "нале",
        -9.446410478165781
      ],
      [
        "тип",
        -9.449317458336946
      ],
      [
        "запас",
        -9.450376156368229
      ],
      [
        "охран",
        -9.450588206784246
      ],
      [
        "значение",
        -9.450847428146671
      ],
      [
        "обвиняемы",
        -9.451025142406479
      ],
      [
        "превыша",
        -9.45133200504975
      ],
      [
        "4",
        -9.451581195790347
      ],
      [
        "принял",
        -9.451912604705594
      ],
      [
        "образовани",
        -9.452739511280212
      ],
      [
        "о-",
        -9.452874732799364
      ],
      [
        "университет",
        -9.453815899872355
      ],
      [
        "курьер",
        -9.45383714673429
      ],
      [
        "ор",
        -9.453986562156418
      ],
      [
        "составлял",
        -9.454584160698804
      ],
      [
        "ему",
        -9.455519712908291
      ],
      [
        "пациента",
        -9.456905832607228
      ],
      [
        "большинство",
        -9.458513775015263
      ],
      [
        "привел",
        -9.460449334233632
      ],
      [
        "учены",
        -9.460547261163557
      ],
      [
        "жк",
        -9.460561458169519
      ],
      [
        "мере",
        -9.461110310948566
      ],
      [
        "план",
        -9.461177387507108
      ],
      [
        "автобус",
        -9.461217460541183
      ],
      [
        "елена",
        -9.461492838644396
      ],
      [
        "ne",
        -9.461759215470794
      ],
      [
        "ники",
        -9.461936058479136
      ],
      [
        "бор",
        -9.462100499265572
      ],
      [
        "иностранны",
        -9.46252268188438
      ],
      [
        "роли",
        -9.462668716105886
      ],
      [
        "аутизма",
        -9.465471628516083
      ],
      [
        "ii",
        -9.465554080315917
      ],
      [
        "сложн",
        -9.465803671342565
      ],
      [
        "произоше",
        -9.466529159139164
      ],
      [
        "пре",
        -9.466945261151187
      ],
      [
        "физическ",
        -9.467152238771236
      ],
      [
        "ран",
        -9.469908558672016
      ],
      [
        "очередно",
        -9.470957392906021
      ],
      [
        "запад",
        -9.471881884505967
      ],
      [
        "нако",
        -9.472153410300802
      ],
      [
        "дрона",
        -9.47227322643249
      ],
      [
        "общества",
        -9.474525300434463
      ],
      [
        "январе",
        -9.47532133787941
      ],
      [
        "яя",
        -9.476155889114107
      ],
      [
        "помог",
        -9.4765084988942
      ],
      [
        "исполнени",
        -9.477576464947502
      ],
      [
        "шаг",
        -9.477722954622564
      ],
      [
        "лесов",
        -9.477813258032999
      ],
      [
        "вне",
        -9.47927693917596
      ],
      [
        "провел",
        -9.479762535602902
      ],
      [
        "точк",
        -9.480197548175136
      ],
      [
        "зал",
        -9.480851963162069
      ],
      [
        "агент",
        -9.481003678038988
      ],
      [
        "достиг",
        -9.48131642763539
      ],
      [
        "журналиста",
        -9.481348487095282
      ],
      [
        "медик",
        -9.481879412170354
      ],
      [
        "кубанск",
        -9.482125186200397
      ],
      [
        "кладов",
        -9.482364781682904
      ],
      [
        "бархатн",
        -9.482543021146867
      ],
      [
        "лидера",
        -9.482993501320255
      ],
      [
        "россиян",
        -9.483639577319812
      ],
      [
        "требовани",
        -9.483649543597258
      ],
      [
        "правил",
        -9.484507916777993
      ],
      [
        "маркетплейс",
        -9.485138534860067
      ],
      [
        "передал",
        -9.485673285539578
      ],
      [
        "фас",
        -9.486010313611553
      ],
      [
        "нашим",
        -9.48661885011937
      ],
      [
        "рекорд",
        -9.487225589836548
      ],
      [
        "золота",
        -9.488654319388521
      ],
      [
        "спортсмен",
        -9.488976293992458
      ],
      [
        "знак",
        -9.489331775298773
      ],
      [
        "инициатива",
        -9.490213903965962
      ],
      [
        "иван",
        -9.490293878221603
      ],
      [
        "отеле",
        -9.490468974168227
      ],
      [
        "смогл",
        -9.490748674295768
      ],
      [
        "рождени",
        -9.491106740018648
      ],
      [
        "обычно",
        -9.491971503947799
      ],
      [
        "тренд",
        -9.49251222269006
      ],
      [
        "ради",
        -9.492729187711864
      ],
      [
        "фр",
        -9.493170302402048
      ],
      [
        "появил",
        -9.494206591347242
      ],
      [
        "наук",
        -9.494643041597554
      ],
      [
        "поставк",
        -9.49579258767838
      ],
      [
        "чащ",
        -9.495903740945744
      ],
      [
        "военнослужащи",
        -9.49690199284047
      ],
      [
        "ядерны",
        -9.498369118897166
      ],
      [
        "ющие",
        -9.499438603179165
      ],
      [
        "турнир",
        -9.499790780010004
      ],
      [
        "основно",
        -9.501624509435167
      ],
      [
        "формат",
        -9.502088783653585
      ],
      [
        "коллектив",
        -9.502706891935148
      ],
      [
        "всероссийско",
        -9.503140672053963
      ],
      [
        "бло",
        -9.50330774793466
      ],
      [
        "мало",
        -9.503688890579108
      ],
      [
        "площадка",
        -9.504962924650451
      ],
      [
        "отправ",
        -9.50706463458233
      ],
      [
        "нака",
        -9.508378175726621
      ],
      [
        "деле",
        -9.50845596384543
      ],
      [
        "введен",
        -9.5098752666185
      ],
      [
        "принадлеж",
        -9.512910445197988
      ],
      [
        "вклад",
        -9.513831163398526
      ],
      [
        "адвокат",
        -9.514845287181727
      ],
      [
        "казн",
        -9.51491935216284
      ],
      [
        "миров",
        -9.515192540742625
      ],
      [
        "ги",
        -9.52015424651147
      ],
      [
        "поддержива",
        -9.520516004577216
      ],
      [
        "тельно",
        -9.52107616588385
      ],
      [
        "скую",
        -9.521197622119047
      ],
      [
        "потенциал",
        -9.521411382790399
      ],
      [
        "мощност",
        -9.523978829127518
      ],
      [
        "уз",
        -9.52640125933476
      ],
      [
        "очно",
        -9.53139800725113
      ],
      [
        "создал",
        -9.532243497424808
      ],
      [
        "баб",
        -9.533970767068055
      ],
      [
        "ья",
        -9.534019494071526
      ],
      [
        "иса",
        -9.538410905549323
      ],
      [
        "устройств",
        -9.539098673281583
      ],
      [
        "усилия",
        -9.539203042415814
      ],
      [
        "воздушно",
        -9.53933378321264
      ],
      [
        "дизайн",
        -9.539544707618521
      ],
      [
        "fi",
        -9.540621522209914
      ],
      [
        "направлен",
        -9.542747805403824
      ],
      [
        "кар",
        -9.54301627572623
      ],
      [
        "мост",
        -9.544342444802872
      ],
      [
        "стратегическ",
        -9.545035009288531
      ],
      [
        "бывше",
        -9.545359547838725
      ],
      [
        "казани",
        -9.546253102255433
      ],
      [
        "запланирован",
        -9.54741489504591
      ],
      [
        "самы",
        -9.548176940195212
      ],
      [
        "соответствующе",
        -9.548323689080412
      ],
      [
        "четвер",
        -9.549464460874232
      ],
      [
        "действу",
        -9.551122229836865
      ],
      [
        "вооружени",
        -9.551861340296306
      ],
      [
        "ще",
        -9.553133942524218
      ],
      [
        "краево",
        -9.554096169045687
      ],
      [
        "исков",
        -9.554146634143317
      ],
      [
        "восстановлени",
        -9.55431525950242
      ],
      [
        "взят",
        -9.556700857411917
      ],
      [
        "лей",
        -9.556762952108633
      ],
      [
        "И",
        -9.557263574647726
      ],
      [
        "национальн",
        -9.558387413177423
      ],
      [
        "камер",
        -9.558492314309682
      ],
      [
        "ведут",
        -9.561285639848574
      ],
      [
        "финал",
        -9.562428310948668
      ],
      [
        "ска",
        -9.562983138809937
      ],
      [
        "нам",
        -9.563990928240937
      ],
      [
        "строго",
        -9.564244216263782
      ],
      [
        "знаком",
        -9.567685381632028
      ],
      [
        "спор",
        -9.568235463647117
      ],
      [
        "металл",
        -9.568491131719915
      ],
      [
        "предоставит",
        -9.571235268129618
      ],
      [
        "стро",
        -9.571623969847543
      ],
      [
        "завершит",
        -9.572351068557403
      ],
      [
        "достаточно",
        -9.57294961304583
      ],
      [
        "экологи",
        -9.57357318395017
      ],
      [
        "самостоятельно",
        -9.573910932074298
      ],
      [
        "координ",
        -9.573911092049553
      ],
      [
        "повестк",
        -9.573921219800273
      ],
      [
        "правоохранител",
        -9.573921926838615
      ],
      [
        "бермон",
        -9.573927841039598
      ],
      [
        "капремонт",
        -9.573940652689824
      ],
      [
        "беременности",
        -9.573941006983908
      ],
      [
        "акционер",
        -9.573945441345945
      ],
      [
        "десятилети",
        -9.573956633330532
      ],
      [
        "челябинск",
        -9.574004561443733
      ],
      [
        "относительно",
        -9.574013207789015
      ],
      [
        "зависимост",
        -9.574056172034883
      ],
      [
        "книг",
        -9.574090579346917
      ],
      [
        "лексик",
        -9.574092577119591
      ],
      [
        "начина",
        -9.574121840329404
      ],
      [
        "платформ",
        -9.574125780972796
      ],
      [
        "госдум",
        -9.574222373858488
      ],
      [
        "совфед",
        -9.574226654564596
      ],
      [
        "поколени",
        -9.574233855423046
      ],
      [
        "Сочи",
        -9.574247462671334
      ],
      [
        "частично",
        -9.574298359148058
      ],
      [
        "доктор",
        -9.574540131087364
      ],
      [
        "наде",
        -9.574647924721292
      ],
      [
        "кадров",
        -9.574886546538721
      ],
      [
        "пада",
        -9.57513429722057
      ],
      [
        "выразил",
        -9.575402099883656
      ],
      [
        "люб",
        -9.575650882685501
      ],
      [
        "зна",
        -9.575788397601066
      ],
      [
        "ационном",
        -9.575951681845291
      ],
      [
        "произошл",
        -9.576024885892778
      ],
      [
        "-министр",
        -9.576779113772258
      ],
      [
        "мусор",
        -9.577008827169138
      ],
      [
        "напомни",
        -9.577009117082696
      ],
      [
        "экспертиз",
        -9.57713842848571
      ],
      [
        "причастн",
        -9.577242485226073
      ],
      [
        "земли",
        -9.577265232575924
      ],
      [
        "торг",
        -9.5772997347448
      ],
      [
        "агентств",
        -9.577555826487362
      ],
      [
        "крайне",
        -9.577953548899737
      ],
      [
        "представлен",
        -9.578462865839935
      ],
      [
        "заболевани",
        -9.578583071319034
      ],
      [
        "помощник",
        -9.578613216384873
      ],
      [
        "переход",
        -9.578728809661058
      ],
      [
        "требует",
        -9.578767636719535
      ],
      [
        "методик",
        -9.579179566491655
      ],
      [
        "коммунальн",
        -9.579242513544667
      ],
      [
        "финансировани",
        -9.579248746422747
      ],
      [
        "какие",
        -9.579336124842188
      ],
      [
        "нева",
        -9.579577899327237
      ],
      [
        "алексеев",
        -9.580503340047759
      ],
      [
        "ответственность",
        -9.580999975031965
      ],
      [
        "занял",
        -9.58144998608488
      ],
      [
        "условно",
        -9.581584761126704
      ],
      [
        "жильц",
        -9.5818139685042
      ],
      [
        "режиссер",
        -9.582625913406103
      ],
      [
        "факту",
        -9.582751803828428
      ],
      [
        "ри",
        -9.583078682239805
      ],
      [
        "подготовк",
        -9.583240837921053
      ],
      [
        "уров",
        -9.58368189048764
      ],
      [
        "расходов",
        -9.584177106191099
      ],
      [
        "мяч",
        -9.584244245499823
      ],
      [
        "км",
        -9.58447215719292
      ],
      [
        "поздне",
        -9.58485498953978
      ],
      [
        "уточня",
        -9.585921607450041
      ],
      [
        "линейк",
        -9.586120572764033
      ],
      [
        "обсуждени",
        -9.586443466649472
      ],
      [
        "ул",
        -9.586722421769219
      ],
      [
        "любо",
        -9.58673509370231
      ],
      [
        "показал",
        -9.586922775000726
      ],
      [
        "небольш",
        -9.587199808514265
      ],
      [
        "eon",
        -9.587202727199895
      ],
      [
        "ешетников",
        -9.587617286372373
      ],
      [
        "туристов",
        -9.587955497755692
      ],
      [
        "посещени",
        -9.588041479336708
      ],
      [
        "трем",
        -9.58818857921882
      ],
      [
        "лазаревск",
        -9.588891022678173
      ],
      [
        "дали",
        -9.589889680993481
      ],
      [
        "бала",
        -9.59020160816015
      ],
      [
        "оды",
        -9.590440843185135
      ],
      [
        "высок",
        -9.591189783761457
      ],
      [
        "комиссии",
        -9.59130286749013
      ],
      [
        "подобны",
        -9.591839941486214
      ],
      [
        "судьб",
        -9.592975830999784
      ],
      [
        "соответствующи",
        -9.593056449782093
      ],
      [
        "открыто",
        -9.593497177187624
      ],
      [
        "назначени",
        -9.593540718215607
      ],
      [
        "другим",
        -9.593551940900692
      ],
      [
        "палат",
        -9.593581510541483
      ],
      [
        "ввод",
        -9.594958151568264
      ],
      [
        "гар",
        -9.59527791879557
      ],
      [
        "поврежден",
        -9.595379250778947
      ],
      [
        "щего",
        -9.596083907547953
      ],
      [
        "сформирован",
        -9.596905971717419
      ],
      [
        "пе",
        -9.598592496658307
      ],
      [
        "дал",
        -9.60001261169621
      ],
      [
        "зоне",
        -9.600776126829427
      ],
      [
        "зафиксирован",
        -9.60097164114283
      ],
      [
        "гре",
        -9.60228635193635
      ],
      [
        "цело",
        -9.602767648050445
      ],
      [
        "местны",
        -9.605326091180272
      ],
      [
        "лечение",
        -9.605547043004192
      ],
      [
        "современн",
        -9.606055260530756
      ],
      [
        "списк",
        -9.60699219342758
      ],
      [
        "закупк",
        -9.608225514522704
      ],
      [
        "предварительно",
        -9.61223922416539
      ],
      [
        "распределени",
        -9.612694723982935
      ],
      [
        "страж",
        -9.613601195666938
      ],
      [
        "норм",
        -9.614205124610097
      ],
      [
        "увеличил",
        -9.614792397274003
      ],
      [
        "жилье",
        -9.615174467522268
      ],
      [
        "дете",
        -9.615312275780479
      ],
      [
        "военно",
        -9.616023917200337
      ],
      [
        "качество",
        -9.616933449885416
      ],
      [
        "ожида",
        -9.618130748609042
      ],
      [
        "ярославл",
        -9.618247311545122
      ],
      [
        "инском",
        -9.619376305388759
      ],
      [
        "ева",
        -9.621589396323932
      ],
      [
        "следующе",
        -9.623968785398931
      ],
      [
        "подал",
        -9.623975400168687
      ],
      [
        "высши",
        -9.624392423934657
      ],
      [
        "стра",
        -9.62454201640351
      ],
      [
        "сделал",
        -9.625035218270497
      ],
      [
        "яги",
        -9.625265739606718
      ],
      [
        "основны",
        -9.627224294369427
      ],
      [
        "ды",
        -9.62724338619937
      ],
      [
        "замен",
        -9.627579078530445
      ],
      [
        "действующи",
        -9.628134905337559
      ],
      [
        "er",
        -9.62927307388385
      ],
      [
        "проходит",
        -9.629346193029082
      ],
      [
        "ch",
        -9.629770084451064
      ],
      [
        "внедря",
        -9.630642232411443
      ],
      [
        "высоко",
        -9.630795968032784
      ],
      [
        "незаконн",
        -9.631686440083238
      ],
      [
        "создан",
        -9.632744797550503
      ],
      [
        "чер",
        -9.633515464707306
      ],
      [
        "вес",
        -9.63436881629089
      ],
      [
        "творчески",
        -9.634635069245412
      ],
      [
        "особ",
        -9.634764526469677
      ],
      [
        "сын",
        -9.635389376864218
      ],
      [
        "американско",
        -9.635793948253813
      ],
      [
        "установк",
        -9.636697829482594
      ],
      [
        "лица",
        -9.637316617457557
      ],
      [
        "друг",
        -9.637853834190746
      ],
      [
        "счита",
        -9.637861687099033
      ],
      [
        "тяжело",
        -9.638141365080504
      ],
      [
        "доб",
        -9.639597982498058
      ],
      [
        "программам",
        -9.640090304512212
      ],
      [
        "пром",
        -9.640318583659399
      ],
      [
        "подробно",
        -9.640938075754715
      ],
      [
        "стен",
        -9.641378935296524
      ],
      [
        "завершени",
        -9.641774807541868
      ],
      [
        "100",
        -9.642256456290257
      ],
      [
        "нской",
        -9.642759862016579
      ],
      [
        "общественн",
        -9.645451494834756
      ],
      [
        "тата",
        -9.645753391310059
      ],
      [
        "факт",
        -9.646369506194569
      ],
      [
        "объектам",
        -9.64786800702256
      ],
      [
        "официально",
        -9.647979420130731
      ],
      [
        "ту",
        -9.649067207979924
      ],
      [
        "край",
        -9.649534160018629
      ],
      [
        "своим",
        -9.650524345375892
      ],
      [
        "лице",
        -9.651140001517302
      ],
      [
        "лучше",
        -9.651580876807646
      ],
      [
        "аль",
        -9.652190075282256
      ],
      [
        "стани",
        -9.65337655763592
      ],
      [
        "инской",
        -9.653605154879573
      ],
      [
        "страна",
        -9.655165040421345
      ],
      [
        "фактор",
        -9.656788745558632
      ],
      [
        "приш",
        -9.657571403362557
      ],
      [
        "оснащен",
        -9.658956896309459
      ],
      [
        "urus",
        -9.658993705109324
      ],
      [
        "электромобил",
        -9.659037627596025
      ],
      [
        "антон",
        -9.660559922057232
      ],
      [
        "туристически",
        -9.661931483149486
      ],
      [
        "современны",
        -9.663359593197743
      ],
      [
        "галин",
        -9.663758772741984
      ],
      [
        "посадк",
        -9.664173814967164
      ],
      [
        "ограничен",
        -9.664603032093282
      ],
      [
        "способ",
        -9.665141648839793
      ],
      [
        "размещени",
        -9.665529583409796
      ],
      [
        "вынес",
        -9.665960689930962
      ],
      [
        "лус",
        -9.66729072517784
      ],
      [
        "сток",
        -9.667412345568568
      ],
      [
        "апелляционн",
        -9.668459941197241
      ],
      [
        "научно-",
        -9.670039070973363
      ],
      [
        "необходим",
        -9.670059056692162
      ],
      [
        "настоящи",
        -9.67192072625314
      ],
      [
        "ra",
        -9.672481803900963
      ],
      [
        "контроль",
        -9.673187204364917
      ],
      [
        "игра",
        -9.673890808151842
      ],
      [
        "устройство",
        -9.676681897490353
      ],
      [
        "конкретны",
        -9.676902123768578
      ],
      [
        "следственн",
        -9.677670941029977
      ],
      [
        "экс-",
        -9.679762893833106
      ],
      [
        "последующе",
        -9.679793577648697
      ],
      [
        "вший",
        -9.682035644283753
      ],
      [
        "построи",
        -9.682155867119814
      ],
      [
        "ходит",
        -9.682445154719055
      ],
      [
        "служба",
        -9.682980387455105
      ],
      [
        "стройк",
        -9.683240608883082
      ],
      [
        "ающие",
        -9.683948718898463
      ],
      [
        "отчет",
        -9.685470074799468
      ],
      [
        "национально",
        -9.686457116323274
      ],
      [
        "ине",
        -9.686774215683121
      ],
      [
        "супруг",
        -9.687131179530748
      ],
      [
        "судебн",
        -9.687371031016834
      ],
      [
        "учитыва",
        -9.688097903819092
      ],
      [
        "подрост",
        -9.68826769839437
      ],
      [
        "риа",
        -9.689710572043039
      ],
      [
        "политически",
        -9.690268726633098
      ],
      [
        "мор",
        -9.691579947070228
      ],
      [
        "яют",
        -9.692691576861714
      ],
      [
        "должно",
        -9.693601569315645
      ],
      [
        "российском",
        -9.69373975713856
      ],
      [
        "ян",
        -9.695497004494058
      ],
      [
        "найт",
        -9.697037842750824
      ],
      [
        "предварительн",
        -9.697126208448141
      ],
      [
        "париж",
        -9.69955077446605
      ],
      [
        "красн",
        -9.700751016838847
      ],
      [
        "возможно",
        -9.702051368895704
      ],
      [
        "тов",
        -9.703351427169135
      ],
      [
        "оружи",
        -9.70344172722063
      ],
      [
        "тр",
        -9.704063227405115
      ],
      [
        "искусств",
        -9.704203802909484
      ],
      [
        "стоимост",
        -9.704619072565984
      ],
      [
        "сторона",
        -9.704831171956425
      ],
      [
        "возможны",
        -9.704928314938185
      ],
      [
        "др",
        -9.706967787086114
      ],
      [
        "мен",
        -9.708030460866912
      ],
      [
        "ce",
        -9.70898836008228
      ],
      [
        "et",
        -9.709138815294425
      ],
      [
        "максим",
        -9.710785940832865
      ],
      [
        "ан",
        -9.711248072607031
      ],
      [
        "пути",
        -9.711304282882796
      ],
      [
        "степен",
        -9.714566691005444
      ],
      [
        "дн",
        -9.715987775781503
      ],
      [
        "обеспечит",
        -9.716356894300644
      ],
      [
        "транс",
        -9.716448400708643
      ],
      [
        "подрыв",
        -9.71740611336244
      ],
      [
        "предпринимател",
        -9.722558786019263
      ],
      [
        "дани",
        -9.723812091277043
      ],
      [
        "сян",
        -9.727387185831873
      ],
      [
        "экономическо",
        -9.728393104005399
      ],
      [
        "шт",
        -9.728650317400495
      ],
      [
        "сказать",
        -9.72972048732947
      ],
      [
        "капитал",
        -9.730894139814687
      ],
      [
        "фро",
        -9.731578286921264
      ],
      [
        "садов",
        -9.731900617497619
      ],
      [
        "предлагаю",
        -9.732435611136573
      ],
      [
        "мэри",
        -9.735248571535488
      ],
      [
        "ших",
        -9.736261644155885
      ],
      [
        "миллион",
        -9.736679162958204
      ],
      [
        "меньше",
        -9.73849205503177
      ],
      [
        "осло",
        -9.73923907099618
      ],
      [
        "принцип",
        -9.740033377846492
      ],
      [
        "жар",
        -9.740033467253403
      ],
      [
        "-антуанетт",
        -9.740577590381074
      ],
      [
        "библиотек",
        -9.740577590387828
      ],
      [
        "6",
        -9.740577590419704
      ],
      [
        "инструмент",
        -9.74057759054391
      ],
      [
        "присутстви",
        -9.740577590980982
      ],
      [
        "муниципально",
        -9.740577591017706
      ],
      [
        "цимлянско",
        -9.740577605458865
      ],
      [
        "вынужден",
        -9.740577615684392
      ],
      [
        "середюк",
        -9.740577649812689
      ],
      [
        "копенгаген",
        -9.740577665417533
      ],
      [
        "инспекци",
        -9.740577669216703
      ],
      [
        "выручк",
        -9.740577875334372
      ],
      [
        "предыдущ",
        -9.74057822034692
      ],
      [
        "инфекци",
        -9.7405784014518
      ],
      [
        "однократно",
        -9.74057917436301
      ],
      [
        "возглавил",
        -9.740579490654348
      ],
      [
        "мошенничеств",
        -9.740579640557621
      ],
      [
        "аппарат",
        -9.740580657784257
      ],
      [
        "прошунин",
        -9.7405816035934
      ],
      [
        "дискусси",
        -9.740583180880579
      ],
      [
        "соревнования",
        -9.740583453986378
      ],
      [
        "изготовлени",
        -9.740584743670153
      ],
      [
        "альянс",
        -9.74058852291556
      ],
      [
        "росавиаци",
        -9.740592681447758
      ],
      [
        "Краснодар",
        -9.740598939699767
      ],
      [
        "статистик",
        -9.740602256160425
      ],
      [
        "кутюр",
        -9.740604625628382
      ],
      [
        "pro",
        -9.74062032056465
      ],
      [
        "бюро",
        -9.74062680094572
      ],
      [
        "электроэнерги",
        -9.740628283837477
      ],
      [
        "мастер-класс",
        -9.740631042853817
      ],
      [
        "архитектур",
        -9.740635010158353
      ],
      [
        "кластер",
        -9.740635132452047
      ],
      [
        "полугоди",
        -9.740646604106294
      ],
      [
        "берегов",
        -9.74066008464683
      ],
      [
        "Удмуртии",
        -9.740664826772425
      ],
      [
        "доказательств",
        -9.740690183297193
      ],
      [
        "классическ",
        -9.740720443490087
      ],
      [
        "ваканси",
        -9.740724309534922
      ],
      [
        "топ-менеджер",
        -9.740727454080176
      ],
      [
        "украшени",
        -9.740729310612489
      ],
      [
        "жалоб",
        -9.740736205686211
      ],
      [
        "euters",
        -9.740739106736921
      ],
      [
        "подстанци",
        -9.740742574405019
      ],
      [
        "обязательств",
        -9.740769729324285
      ],
      [
        "нецензурн",
        -9.740790276865969
      ],
      [
        "xvi",
        -9.74081167972271
      ],
      [
        "новосибирск",
        -9.740814826493978
      ],
      [
        "проводят",
        -9.740826617224906
      ],
      [
        "попросил",
        -9.740840397040143
      ],
      [
        "контакт",
        -9.740866594020709
      ],
      [
        "предназначен",
        -9.74087714678676
      ],
      [
        "Жител",
        -9.740885127322857
      ],
      [
        "реконструкци",
        -9.740958753331027
      ],
      [
        "генпрокурор",
        -9.740961139579905
      ],
      [
        "состоит",
        -9.740993131376651
      ],
      [
        "ty",
        -9.741091848945718
      ],
      [
        "дельник",
        -9.741199895813628
      ],
      [
        "футболист",
        -9.741271354052998
      ],
      [
        "следствия",
        -9.74132790979639
      ],
      [
        "отмечен",
        -9.741343712658157
      ],
      [
        "ликвидаци",
        -9.741469344881672
      ],
      [
        "отвеча",
        -9.741483835803887
      ],
      [
        "призвал",
        -9.741619310714654
      ],
      [
        "разуме",
        -9.741658905275472
      ],
      [
        "одобрил",
        -9.741790286474945
      ],
      [
        "традиционно",
        -9.741840555857614
      ],
      [
        "динамик",
        -9.74193825577531
      ],
      [
        "реакци",
        -9.741951556661702
      ],
      [
        "новороссийск",
        -9.742117524813333
      ],
      [
        "объединения",
        -9.742207345788767
      ],
      [
        "способству",
        -9.742518054554077
      ],
      [
        "ронал",
        -9.74267645779046
      ],
      [
        "вернуть",
        -9.742724170716977
      ],
      [
        "глух",
        -9.742851047723427
      ],
      [
        "прокомментировал",
        -9.742855872143323
      ],
      [
        "половин",
        -9.742880322014024
      ],
      [
        "горичев",
        -9.743318531482137
      ],
      [
        "достижени",
        -9.743447800884493
      ],
      [
        "сократил",
        -9.743547252081715
      ],
      [
        "ex",
        -9.743569037320025
      ],
      [
        "над",
        -9.743649394242356
      ],
      [
        "видим",
        -9.744035198235466
      ],
      [
        "подтвердил",
        -9.744109473388967
      ],
      [
        "судостроени",
        -9.74487300578559
      ],
      [
        "роль",
        -9.745447593518852
      ],
      [
        "выступ",
        -9.74555617237917
      ],
      [
        "авиакомпани",
        -9.745901024774891
      ],
      [
        "обнаружил",
        -9.745929143000085
      ],
      [
        "рассчитыва",
        -9.746059620227587
      ],
      [
        "ног",
        -9.746091899790892
      ],
      [
        "льше",
        -9.746708895820177
      ],
      [
        "марии",
        -9.746837957580793
      ],
      [
        "газет",
        -9.74684405291711
      ],
      [
        "после",
        -9.74711437091289
      ],
      [
        "приступил",
        -9.747155762623487
      ],
      [
        "десятк",
        -9.747468824099172
      ],
      [
        "nis",
        -9.747603675454032
      ],
      [
        "сектор",
        -9.747811300776938
      ],
      [
        "падени",
        -9.74787349161898
      ],
      [
        "иц",
        -9.74795520312855
      ],
      [
        "обучени",
        -9.748065991052602
      ],
      [
        "мандат",
        -9.748265128362846
      ],
      [
        "захват",
        -9.748489400074824
      ],
      [
        "совместны",
        -9.748611579469133
      ],
      [
        "вернул",
        -9.748854488865911
      ],
      [
        "генеральн",
        -9.749123891006471
      ],
      [
        "приобрел",
        -9.749504459048861
      ],
      [
        "бле",
        -9.749714321762447
      ],
      [
        "кольц",
        -9.749946964137127
      ],
      [
        "взял",
        -9.750423832795791
      ],
      [
        "ство",
        -9.750520662897237
      ],
      [
        "щи",
        -9.750666539902065
      ],
      [
        "заключил",
        -9.751014624200327
      ],
      [
        "опубликовал",
        -9.75118446099352
      ],
      [
        "завершил",
        -9.751283795593954
      ],
      [
        "устранени",
        -9.751403226343847
      ],
      [
        "тяжени",
        -9.751430258298717
      ],
      [
        "выбора",
        -9.751560482401894
      ],
      [
        "обвиняемых",
        -9.75223277391405
      ],
      [
        "кур",
        -9.752243103612445
      ],
      [
        "северно",
        -9.75290708670001
      ],
      [
        "уточнил",
        -9.75313387204544
      ],
      [
        "французско",
        -9.753508129416955
      ],
      [
        "проходил",
        -9.75351273858774
      ],
      [
        "цов",
        -9.75386936005811
      ],
      [
        "спользовать",
        -9.75413109843482
      ],
      [
        "старше",
        -9.754219755101648
      ],
      [
        "com",
        -9.75437787469236
      ],
      [
        "упатель",
        -9.754843999610971
      ],
      [
        "здоров",
        -9.755073584702037
      ],
      [
        "лота",
        -9.75545031134403
      ],
      [
        "повыша",
        -9.756524558922639
      ],
      [
        "доступны",
        -9.75686691296664
      ],
      [
        "повод",
        -9.757020380467571
      ],
      [
        "lo",
        -9.757561369000904
      ],
      [
        "потребовала",
        -9.757925715841893
      ],
      [
        "ществ",
        -9.758268997453932
      ],
      [
        "дальнейше",
        -9.758653216202791
      ],
      [
        "зо",
        -9.758806457759729
      ],
      [
        "ально",
        -9.759200022602514
      ],
      [
        "этап",
        -9.75935785170714
      ],
      [
        "риго",
        -9.760178678757567
      ],
      [
        "подвеск",
        -9.760219450704213
      ],
      [
        "спин",
        -9.76023985162626
      ],
      [
        "вать",
        -9.760255108751279
      ],
      [
        "остова-на-",
        -9.760526194801198
      ],
      [
        "собственно",
        -9.760541500184573
      ],
      [
        "сервиса",
        -9.760722984891478
      ],
      [
        "республиканск",
        -9.760811729949825
      ],
      [
        "ведения",
        -9.761227886072422
      ],
      [
        "как",
        -9.761764275246689
      ],
      [
        "поступления",
        -9.761896321725452
      ],
      [
        "ня",
        -9.762030713192361
      ],
      [
        "петербург",
        -9.762914729052941
      ],
      [
        "ток",
        -9.76323993276929
      ],
      [
        "tex",
        -9.763804808063416
      ],
      [
        "финансов",
        -9.764459495059086
      ],
      [
        "подразделения",
        -9.76467180816573
      ],
      [
        "унци",
        -9.765540692952538
      ],
      [
        "спикер",
        -9.765975105873855
      ],
      [
        "ошибк",
        -9.766230786035587
      ],
      [
        "недополучил",
        -9.766540116326908
      ],
      [
        "объединенн",
        -9.767064687651212
      ],
      [
        "легко",
        -9.767065883611323
      ],
      [
        "прода",
        -9.767743334205852
      ],
      [
        "ограничива",
        -9.76811195597303
      ],
      [
        "крупн",
        -9.768222075395625
      ],
      [
        "постоянно",
        -9.768967405120087
      ],
      [
        "родил",
        -9.769121624953318
      ],
      [
        "обстоятельства",
        -9.769218258921152
      ],
      [
        "займ",
        -9.769653092839489
      ],
      [
        "автомобиля",
        -9.769660837435126
      ],
      [
        "довери",
        -9.769680483276726
      ],
      [
        "коре",
        -9.770349959127056
      ],
      [
        "советник",
        -9.770646855907952
      ],
      [
        "расширени",
        -9.770753965585222
      ],
      [
        "портал",
        -9.770874989779456
      ],
      [
        "изъяти",
        -9.771081357649223
      ],
      [
        "участникам",
        -9.771174301185622
      ],
      [
        "черн",
        -9.771475993580337
      ],
      [
        "изаци",
        -9.771553986264239
      ],
      [
        "le",
        -9.77198519362653
      ],
      [
        "внутренни",
        -9.772616870193888
      ],
      [
        "ъ-с",
        -9.773165177167435
      ],
      [
        "перенос",
        -9.776161544252478
      ],
      [
        "промышленност",
        -9.77637158634422
      ],
      [
        "воспитани",
        -9.7780992522369
      ],
      [
        "приговорил",
        -9.778613992828081
      ],
      [
        "сб",
        -9.778659509722356
      ],
      [
        "правила",
        -9.778821428613455
      ],
      [
        "дни",
        -9.778941347952497
      ],
      [
        "одну",
        -9.779270715645216
      ],
      [
        "золот",
        -9.779405759037294
      ],
      [
        "преми",
        -9.779422342761569
      ],
      [
        "изации",
        -9.780347924301509
      ],
      [
        "вших",
        -9.782027323118843
      ],
      [
        "наследи",
        -9.782696114960556
      ],
      [
        "посвященн",
        -9.783554131995853
      ],
      [
        "рос",
        -9.78367868990583
      ],
      [
        "сообщение",
        -9.784038949017273
      ],
      [
        "возвращени",
        -9.784631807380698
      ],
      [
        "занима",
        -9.786966566510957
      ],
      [
        "ически",
        -9.787546576494055
      ],
      [
        "производственны",
        -9.790411482087846
      ],
      [
        "система",
        -9.790914485854678
      ],
      [
        "путе",
        -9.79180687856844
      ],
      [
        "выявлен",
        -9.79213416530496
      ],
      [
        "коммерчески",
        -9.792579116066067
      ],
      [
        "букмекерски",
        -9.79391190169217
      ],
      [
        "мал",
        -9.793969318512186
      ],
      [
        "изъят",
        -9.795245728242275
      ],
      [
        "рик",
        -9.795824032573288
      ],
      [
        "bm",
        -9.796548392273737
      ],
      [
        "силу",
        -9.796842741411023
      ],
      [
        "взятк",
        -9.799582346196118
      ],
      [
        "семен",
        -9.799623169206175
      ],
      [
        "российским",
        -9.79999080716607
      ],
      [
        "масштаб",
        -9.80069122502604
      ],
      [
        "вали",
        -9.800739335781904
      ],
      [
        "ания",
        -9.800891993656897
      ],
      [
        "жителя",
        -9.801669078203444
      ],
      [
        "ольг",
        -9.802615882225554
      ],
      [
        "курс",
        -9.802649051453088
      ],
      [
        "ер",
        -9.804500349549473
      ],
      [
        "конкурс",
        -9.805273945065728
      ],
      [
        "син",
        -9.806046198124365
      ],
      [
        "ировали",
        -9.806177069496831
      ],
      [
        "шел",
        -9.806702384268858
      ],
      [
        "программа",
        -9.808258556107067
      ],
      [
        "красно",
        -9.808258723220321
      ],
      [
        "наст",
        -9.808306825846348
      ],
      [
        "подъезда",
        -9.80915868507323
      ],
      [
        "городск",
        -9.809914919290216
      ],
      [
        "вакцин",
        -9.81010509879335
      ],
      [
        "el",
        -9.810397776189884
      ],
      [
        "часто",
        -9.810816617821155
      ],
      [
        "ими",
        -9.810893369235998
      ],
      [
        "спорны",
        -9.811885885530595
      ],
      [
        "включен",
        -9.81216608539803
      ],
      [
        "поне",
        -9.812245507747752
      ],
      [
        "горя",
        -9.812937538875111
      ],
      [
        "административны",
        -9.813089107919938
      ],
      [
        "образовательны",
        -9.814880909911766
      ],
      [
        "введени",
        -9.815337928618273
      ],
      [
        "планирова",
        -9.81634478348041
      ],
      [
        "полученны",
        -9.816362546120283
      ],
      [
        "торговы",
        -9.816684207698097
      ],
      [
        "придержива",
        -9.81696948051391
      ],
      [
        "теле",
        -9.818988619512087
      ],
      [
        "штрафов",
        -9.819240915416321
      ],
      [
        "образование",
        -9.822142096404347
      ],
      [
        "рейтинга",
        -9.822327861955518
      ],
      [
        "to",
        -9.8226254948744
      ],
      [
        "европейски",
        -9.82349591675397
      ],
      [
        "учреждени",
        -9.824439739340285
      ],
      [
        "правительстве",
        -9.826861634216161
      ],
      [
        "начально",
        -9.826995315328615
      ],
      [
        "отделение",
        -9.82797271209537
      ],
      [
        "нефт",
        -9.828097203106282
      ],
      [
        "местн",
        -9.828623834317415
      ],
      [
        "шего",
        -9.829465739507851
      ],
      [
        "прим",
        -9.830006570467242
      ],
      [
        "исте",
        -9.830047489888408
      ],
      [
        "планиру",
        -9.830750200954427
      ],
      [
        "ким",
        -9.83110301224863
      ],
      [
        "подрядчик",
        -9.831200674153738
      ],
      [
        "00",
        -9.831610624335678
      ],
      [
        "ростов",
        -9.83265722928352
      ],
      [
        "цифров",
        -9.832712077417098
      ],
      [
        "рассмотр",
        -9.834185435097949
      ],
      [
        "широки",
        -9.837017399735197
      ],
      [
        "могл",
        -9.837285218101378
      ],
      [
        "привлекательност",
        -9.838410794500616
      ],
      [
        "постав",
        -9.83848483203436
      ],
      [
        "крупнейши",
        -9.840033465146586
      ],
      [
        "сов",
        -9.841358703751574
      ],
      [
        "технологическ",
        -9.842821850329285
      ],
      [
        "чь",
        -9.844105012776687
      ],
      [
        "начальн",
        -9.84505729770845
      ],
      [
        "провайдер",
        -9.84559773521719
      ],
      [
        "право",
        -9.846092977431786
      ],
      [
        "ила",
        -9.847050227077169
      ],
      [
        "десятка",
        -9.847164705219202
      ],
      [
        "оценива",
        -9.847181945344335
      ],
      [
        "важн",
        -9.84944194388171
      ],
      [
        "коми",
        -9.849473499512042
      ],
      [
        "став",
        -9.850034039367701
      ],
      [
        "воробьев",
        -9.850510518176309
      ],
      [
        "общи",
        -9.850838313512499
      ],
      [
        "ub",
        -9.85140856219868
      ],
      [
        "v",
        -9.851608618970035
      ],
      [
        "остальны",
        -9.852761137587063
      ],
      [
        "устройства",
        -9.85301231024329
      ],
      [
        "местно",
        -9.853150527529293
      ],
      [
        "республика",
        -9.853266739484472
      ],
      [
        "кто",
        -9.854337982597418
      ],
      [
        "зывают",
        -9.85508359657829
      ],
      [
        "торговл",
        -9.855280781821593
      ],
      [
        "невозможн",
        -9.855562404080324
      ],
      [
        "старт",
        -9.855729718660866
      ],
      [
        "нынешне",
        -9.856590394649444
      ],
      [
        "вер",
        -9.856859038646125
      ],
      [
        "специальны",
        -9.856872565602092
      ],
      [
        "геро",
        -9.85693256846927
      ],
      [
        "вал",
        -9.857324993955004
      ],
      [
        "эн",
        -9.85921073624308
      ],
      [
        "ясно",
        -9.85970498520609
      ],
      [
        "вин",
        -9.860608139843226
      ],
      [
        "ющего",
        -9.861216893877838
      ],
      [
        "овсе",
        -9.861853578467878
      ],
      [
        "граждански",
        -9.861867696635672
      ],
      [
        "ine",
        -9.86211138307059
      ],
      [
        "ис",
        -9.864443210445158
      ],
      [
        "ог",
        -9.864650675227379
      ],
      [
        "поставщик",
        -9.864689257194277
      ],
      [
        "заключен",
        -9.86608063742778
      ],
      [
        "выполнени",
        -9.867273849948532
      ],
      [
        "подсч",
        -9.867846010179264
      ],
      [
        "сообщени",
        -9.867861325377142
      ],
      [
        "человеч",
        -9.868246941437954
      ],
      [
        "пациент",
        -9.870319129628037
      ],
      [
        "вырос",
        -9.872004064206566
      ],
      [
        "пройд",
        -9.87227879774293
      ],
      [
        "овском",
        -9.872466335640391
      ],
      [
        "нанес",
        -9.874673565172564
      ],
      [
        "вопроса",
        -9.87579002518435
      ],
      [
        "изуч",
        -9.876330106785062
      ],
      [
        "полн",
        -9.876738068022412
      ],
      [
        "след",
        -9.877340351530242
      ],
      [
        "китай",
        -9.878127153033407
      ],
      [
        "заявлен",
        -9.878879396114003
      ],
      [
        "конц",
        -9.879737756413238
      ],
      [
        "театр",
        -9.880210619797717
      ],
      [
        "краснодарско",
        -9.880487156448583
      ],
      [
        "итали",
        -9.88183804659226
      ],
      [
        "главно",
        -9.882195996674483
      ],
      [
        "краев",
        -9.88238450410354
      ],
      [
        "закрыл",
        -9.884886993373092
      ],
      [
        "сы",
        -9.885337324718758
      ],
      [
        "куб",
        -9.88660656941724
      ],
      [
        "продава",
        -9.888673086943705
      ],
      [
        "вшем",
        -9.88992512748868
      ],
      [
        "средн",
        -9.890433369214588
      ],
      [
        "посвящен",
        -9.891054240623587
      ],
      [
        "рассматрива",
        -9.891093610830143
      ],
      [
        "поз",
        -9.893052872074188
      ],
      [
        "прожива",
        -9.893361706824383
      ],
      [
        "выпуска",
        -9.893483770671725
      ],
      [
        "застройщик",
        -9.894092471782612
      ],
      [
        "ap",
        -9.895481539223216
      ],
      [
        "производител",
        -9.898170142604398
      ],
      [
        "устойчиво",
        -9.898359042322365
      ],
      [
        "серьезно",
        -9.8993920802868
      ],
      [
        "русл",
        -9.900321199490168
      ],
      [
        "фирм",
        -9.901623871859892
      ],
      [
        "регулярно",
        -9.902724114985787
      ],
      [
        "музык",
        -9.904643170504512
      ],
      [
        "вели",
        -9.905625082145495
      ],
      [
        "гродн",
        -9.907084544950978
      ],
      [
        "аналог",
        -9.908188994378976
      ],
      [
        "опер",
        -9.908604216024816
      ],
      [
        "проезж",
        -9.911062131940152
      ],
      [
        "значени",
        -9.91152350027348
      ],
      [
        "заяв",
        -9.912096218865923
      ],
      [
        "определен",
        -9.913126135969277
      ],
      [
        "функци",
        -9.913413787014314
      ],
      [
        "оператор",
        -9.913822100928778
      ],
      [
        "сн",
        -9.91425504765722
      ],
      [
        "джа",
        -9.914274368456091
      ],
      [
        "актов",
        -9.914388695372034
      ],
      [
        "вая",
        -9.914508288378592
      ],
      [
        "кин",
        -9.915305175070788
      ],
      [
        "помощ",
        -9.91569132423859
      ],
      [
        "обвинени",
        -9.916504299575326
      ],
      [
        "ме",
        -9.91757743624824
      ],
      [
        "военны",
        -9.917769720540019
      ],
      [
        "оск",
        -9.919389680628102
      ],
      [
        "зи",
        -9.920597834003146
      ],
      [
        "оэ",
        -9.923994833080492
      ],
      [
        "дополнительны",
        -9.924967714205467
      ],
      [
        "указ",
        -9.92534764326387
      ],
      [
        "льных",
        -9.92598495472036
      ],
      [
        "носить",
        -9.926540481430761
      ],
      [
        "al",
        -9.926664446221096
      ],
      [
        "гроз",
        -9.928341596560548
      ],
      [
        "сотрудника",
        -9.928481837295777
      ],
      [
        "ответ",
        -9.928792417799869
      ],
      [
        "принимают",
        -9.929202868532636
      ],
      [
        "связанны",
        -9.929312454151177
      ],
      [
        "лено",
        -9.92993450153719
      ],
      [
        "получени",
        -9.930515622304638
      ],
      [
        "ред",
        -9.931009004467729
      ],
      [
        "стил",
        -9.931564039823972
      ],
      [
        "код",
        -9.931900365470533
      ],
      [
        "мк",
        -9.933767821407983
      ],
      [
        "явление",
        -9.9352936869044
      ],
      [
        "ключево",
        -9.93557262910328
      ],
      [
        "ско",
        -9.93598679979028
      ],
      [
        "поче",
        -9.936347343222842
      ],
      [
        "ьно",
        -9.9371037185127
      ],
      [
        "полно",
        -9.938516391927614
      ],
      [
        "освещени",
        -9.938898927883058
      ],
      [
        "ивал",
        -9.939171346837623
      ],
      [
        "апрел",
        -9.939213179292405
      ],
      [
        "туристическо",
        -9.939231770252263
      ],
      [
        "потенциала",
        -9.939337124485968
      ],
      [
        "дают",
        -9.939551695459006
      ],
      [
        "кремл",
        -9.940145038195457
      ],
      [
        "Ч",
        -9.940265516184304
      ],
      [
        "инвалид",
        -9.94028776419074
      ],
      [
        "исследовател",
        -9.940389860858751
      ],
      [
        "7",
        -9.940403678257725
      ],
      [
        "I",
        -9.940569733928164
      ],
      [
        "!",
        -9.940577590419704
      ],
      [
        "обозревател",
        -9.940577590675892
      ],
      [
        "превратил",
        -9.94057759070574
      ],
      [
        "мониторинг",
        -9.940577591004162
      ],
      [
        "вашингтон",
        -9.94057759139053
      ],
      [
        "минздрав",
        -9.940577591623434
      ],
      [
        "коммерсант",
        -9.940577597527465
      ],
      [
        "коронавирус",
        -9.940577599150695
      ],
      [
        "северодонецк",
        -9.940577599476285
      ],
      [
        "модернизаци",
        -9.940577603436727
      ],
      [
        "департамент",
        -9.940577611619966
      ],
      [
        "процедур",
        -9.940577616927204
      ],
      [
        "распоряжени",
        -9.940577617844058
      ],
      [
        "аудитори",
        -9.94057762046021
      ],
      [
        "ритейлер",
        -9.940577631593987
      ],
      [
        "единоборств",
        -9.940577631630886
      ],
      [
        "регулятор",
        -9.94057767325542
      ],
      [
        "збассразрезуголь",
        -9.940577687369332
      ],
      [
        "церемони",
        -9.940577721425658
      ],
      [
        "стабилизаци",
        -9.940577832717024
      ],
      [
        "диапазон",
        -9.940577875509042
      ],
      [
        "пашинян",
        -9.940577998635526
      ],
      [
        "прогноз",
        -9.940578047432377
      ],
      [
        "событий",
        -9.940578145956762
      ],
      [
        "голословны",
        -9.94057826929164
      ],
      [
        "вымогательств",
        -9.940578374741516
      ],
      [
        "события",
        -9.940578453917112
      ],
      [
        "возгорани",
        -9.940579359097622
      ],
      [
        "Песков",
        -9.940580685881397
      ],
      [
        "логистически",
        -9.940581217660963
      ],
      [
        "нейтральн",
        -9.940581506721204
      ],
      [
        "костюм",
        -9.940585306093821
      ],
      [
        "классификаци",
        -9.940587620872869
      ],
      [
        "покинул",
        -9.94058816705581
      ],
      [
        "множеств",
        -9.940589749762207
      ],
      [
        "обвиняют",
        -9.940591486403958
      ],
      [
        "обвиняет",
        -9.94059434707842
      ],
      [
        "смягчен",
        -9.940597254804176
      ],
      [
        "розничн",
        -9.940598063900707
      ],
      [
        "конкуренци",
        -9.940612931458215
      ],
      [
        "шестимиллионн",
        -9.940622922166064
      ],
      [
        "противоречи",
        -9.940626382504384
      ],
      [
        "гостиниц",
        -9.940628811723634
      ],
      [
        "интерьер",
        -9.940644770335886
      ],
      [
        "реабилитаци",
        -9.94065597672223
      ],
      [
        "голуб",
        -9.940661492478883
      ],
      [
        "реализуют",
        -9.940669248291474
      ],
      [
        "Самар",
        -9.940670204370367
      ],
      [
        "организатор",
        -9.940674491885183
      ],
      [
        "кузбасс",
        -9.940677742681963
      ],
      [
        "форсайт",
        -9.94069169879755
      ],
      [
        "геленджик",
        -9.940701710748602
      ],
      [
        "аромат",
        -9.940708685469186
      ],
      [
        "грибков",
        -9.940718829636902
      ],
      [
        "электрокар",
        -9.940721991089916
      ],
      [
        "просьб",
        -9.940723698374459
      ],
      [
        "квадрат",
        -9.940740705929983
      ],
      [
        "развлечени",
        -9.94074881268448
      ],
      [
        "реализован",
        -9.94077049984243
      ],
      [
        "независим",
        -9.940799117159074
      ],
      [
        "гуцан",
        -9.940804607683367
      ],
      [
        "посетител",
        -9.940809051589756
      ],
      [
        "праздник",
        -9.940814719364829
      ],
      [
        "набережн",
        -9.940877558800874
      ],
      [
        "автопарк",
        -9.94094704283665
      ],
      [
        "эмоци",
        -9.94105408468003
      ],
      [
        "обнаружен",
        -9.941070463610782
      ],
      [
        "гастрономи",
        -9.941150172495622
      ],
      [
        "салават",
        -9.94119955592089
      ],
      [
        "коллекци",
        -9.941215302217335
      ],
      [
        "порог",
        -9.941304474621226
      ],
      [
        "внутри",
        -9.941405216433703
      ],
      [
        "кремлев",
        -9.941452347620807
      ],
      [
        "нарушил",
        -9.9416701297344
      ],
      [
        "може",
        -9.941707596228563
      ],
      [
        "арапов",
        -9.942061272797487
      ],
      [
        "построен",
        -9.94222431617063
      ],
      [
        "конвой",
        -9.9422625471891
      ],
      [
        "филиал",
        -9.94229994271282
      ],
      [
        "спектр",
        -9.942402136585708
      ],
      [
        "индонези",
        -9.942736439847462
      ],
      [
        "вкус",
        -9.94330401191281
      ],
      [
        "эффективно",
        -9.943423296975675
      ],
      [
        "экспо",
        -9.943432770757354
      ],
      [
        "вступил",
        -9.943531639513852
      ],
      [
        "сбыт",
        -9.943832447367736
      ],
      [
        "логистик",
        -9.943944005216007
      ],
      [
        "затрат",
        -9.944093677449045
      ],
      [
        "сигнал",
        -9.944302623044594
      ],
      [
        "писатель",
        -9.944358144648668
      ],
      [
        "запрос",
        -9.944408654617888
      ],
      [
        "совершенно",
        -9.9447129865339
      ],
      [
        "стади",
        -9.944799406057014
      ],
      [
        "участвовал",
        -9.94480291538388
      ],
      [
        "сокращени",
        -9.944972755745324
      ],
      [
        "иркутск",
        -9.945081740269824
      ],
      [
        "age",
        -9.945288003488715
      ],
      [
        "отражен",
        -9.945737633165244
      ],
      [
        "ВС",
        -9.945842242923558
      ],
      [
        "шанс",
        -9.945941878862609
      ],
      [
        "столь",
        -9.946240513092427
      ],
      [
        "специализированн",
        -9.946348115261582
      ],
      [
        "стиль",
        -9.946632347666586
      ],
      [
        "арестант",
        -9.946703555225545
      ],
      [
        "угле",
        -9.947103900530749
      ],
      [
        "выяснил",
        -9.94755800744087
      ],
      [
        "алла",
        -9.947578843225594
      ],
      [
        "витали",
        -9.947868574267167
      ],
      [
        "обслуживание",
        -9.947891246464318
      ],
      [
        "носков",
        -9.94799357349245
      ],
      [
        "партнерств",
        -9.948347228772315
      ],
      [
        "пресс",
        -9.948361346952163
      ],
      [
        "удовлетворил",
        -9.948433685546787
      ],
      [
        "опубликован",
        -9.948690926935098
      ],
      [
        "частн",
        -9.949440277379535
      ],
      [
        "обо",
        -9.949717286279864
      ],
      [
        "выявил",
        -9.949874308924667
      ],
      [
        "поставил",
        -9.950572861166755
      ],
      [
        "мошенник",
        -9.950665518450764
      ],
      [
        "аукциона",
        -9.951004985365154
      ],
      [
        "жа",
        -9.951023339396162
      ],
      [
        "звонк",
        -9.951048410905033
      ],
      [
        "выполнил",
        -9.951286532727778
      ],
      [
        "перм",
        -9.95153773117012
      ],
      [
        "приоритет",
        -9.951542005500771
      ],
      [
        "дополнительно",
        -9.95242085662948
      ],
      [
        "вход",
        -9.9525819547832
      ],
      [
        "нец",
        -9.952727516127167
      ],
      [
        "клетки",
        -9.952756229782013
      ],
      [
        "echno",
        -9.952929608200726
      ],
      [
        "лиги",
        -9.953317156357857
      ],
      [
        "преступн",
        -9.9534149153964
      ],
      [
        "выпускник",
        -9.953512734338172
      ],
      [
        "сообществ",
        -9.954108739186223
      ],
      [
        "пресечени",
        -9.954600736525595
      ],
      [
        "хода",
        -9.955256574105087
      ],
      [
        "равно",
        -9.955324912462741
      ],
      [
        "усов",
        -9.955693473583135
      ],
      [
        "оперы",
        -9.95599216314148
      ],
      [
        "лидеров",
        -9.956175118989758
      ],
      [
        "игор",
        -9.956260457631375
      ],
      [
        "турци",
        -9.956430015593996
      ],
      [
        "si",
        -9.956796809365217
      ],
      [
        "борт",
        -9.956808561854645
      ],
      [
        "поражения",
        -9.957054772662595
      ],
      [
        "дат",
        -9.95732203187645
      ],
      [
        "россет",
        -9.957612943271904
      ],
      [
        "построит",
        -9.957633054303123
      ],
      [
        "кавказ",
        -9.958089042723195
      ],
      [
        "необходимость",
        -9.958240839674467
      ],
      [
        "ожидаем",
        -9.958456531123945
      ],
      [
        "поток",
        -9.958561673498714
      ],
      [
        "дале",
        -9.958774799092486
      ],
      [
        "доставк",
        -9.959283345969824
      ],
      [
        "buil",
        -9.960033477498028
      ],
      [
        "чко",
        -9.960527138995111
      ],
      [
        "зависи",
        -9.960884606618633
      ],
      [
        "11",
        -9.961501869254969
      ],
      [
        "лков",
        -9.962146862837933
      ],
      [
        "энерги",
        -9.962520921222318
      ],
      [
        "долго",
        -9.96257338862132
      ],
      [
        "мировы",
        -9.962635025022982
      ],
      [
        "напомнил",
        -9.963162147920517
      ],
      [
        "голов",
        -9.963223298920918
      ],
      [
        "стрел",
        -9.96354973047891
      ],
      [
        "ближайши",
        -9.964596101426686
      ],
      [
        "минэконом",
        -9.964780746849328
      ],
      [
        "чита",
        -9.965212834101685
      ],
      [
        "ключевым",
        -9.965421916646243
      ],
      [
        "голосовани",
        -9.965748320938296
      ],
      [
        "ча",
        -9.965820741233818
      ],
      [
        "образо",
        -9.96656031620366
      ],
      [
        "торы",
        -9.966722265400604
      ],
      [
        "держав",
        -9.966914475357033
      ],
      [
        "трое",
        -9.967096982853503
      ],
      [
        "1,",
        -9.96717839213677
      ],
      [
        "организовал",
        -9.968230555735929
      ],
      [
        "пользуют",
        -9.96864327873492
      ],
      [
        "мм",
        -9.969970802978404
      ],
      [
        "народны",
        -9.9703526489469
      ],
      [
        "беспилотника",
        -9.970431598172313
      ],
      [
        "дальнейшем",
        -9.970635423619068
      ],
      [
        "нефте",
        -9.970772859001448
      ],
      [
        "ведущи",
        -9.970983094373022
      ],
      [
        "труб",
        -9.971211528482238
      ],
      [
        "сто",
        -9.971915100558363
      ],
      [
        "награждени",
        -9.972135988245025
      ],
      [
        "овали",
        -9.97275235641477
      ],
      [
        "ени",
        -9.973221746617211
      ],
      [
        "ранены",
        -9.974004858757676
      ],
      [
        "лас",
        -9.9741692153955
      ],
      [
        "анализа",
        -9.97472794986188
      ],
      [
        "мать",
        -9.974769615299984
      ],
      [
        "огромно",
        -9.9748868885311
      ],
      [
        "коллег",
        -9.974991700069612
      ],
      [
        "пуст",
        -9.975146860634894
      ],
      [
        "личны",
        -9.975779364670075
      ],
      [
        "превыше",
        -9.975784859316338
      ],
      [
        "популярны",
        -9.97633434938565
      ],
      [
        "ция",
        -9.976526412136277
      ],
      [
        "организова",
        -9.976612694199169
      ],
      [
        "положительно",
        -9.977030154109254
      ],
      [
        "семей",
        -9.97770452794387
      ],
      [
        "олов",
        -9.977942868209945
      ],
      [
        "существенн",
        -9.978003334971394
      ],
      [
        "по-",
        -9.978113005222898
      ],
      [
        "очевид",
        -9.978765456809088
      ],
      [
        "получал",
        -9.979035069215382
      ],
      [
        "экономическ",
        -9.979207103838966
      ],
      [
        "орвегии",
        -9.979602334569593
      ],
      [
        "войск",
        -9.980270762527121
      ],
      [
        "тор",
        -9.980654503693566
      ],
      [
        "куз",
        -9.98138910251182
      ],
      [
        "далеко",
        -9.981749563812036
      ],
      [
        "фс",
        -9.981813465162459
      ],
      [
        "комисси",
        -9.981824261002593
      ],
      [
        "миру",
        -9.981964169990814
      ],
      [
        "раст",
        -9.982038923813409
      ],
      [
        "государственно",
        -9.982756822839843
      ],
      [
        "будуще",
        -9.983100241734146
      ],
      [
        "кого",
        -9.983277225824137
      ],
      [
        "атаку",
        -9.98404813669724
      ],
      [
        "тво",
        -9.984084375355241
      ],
      [
        "xt",
        -9.984556868270401
      ],
      [
        "0",
        -9.984859314355925
      ],
      [
        "инь",
        -9.984965629050766
      ],
      [
        "разрешение",
        -9.985096773872591
      ],
      [
        "оказали",
        -9.986260909670204
      ],
      [
        "устойчивы",
        -9.986390117295308
      ],
      [
        "слово",
        -9.986719705301152
      ],
      [
        "ходящих",
        -9.986848342439469
      ],
      [
        "последн",
        -9.987180054026743
      ],
      [
        "полицейским",
        -9.987408824198642
      ],
      [
        "глобальны",
        -9.987477282741995
      ],
      [
        "газов",
        -9.98774933787994
      ],
      [
        "кор",
        -9.988028800503947
      ],
      [
        "сила",
        -9.98835325410339
      ],
      [
        "жителям",
        -9.988482848347884
      ],
      [
        "относит",
        -9.988538843826557
      ],
      [
        "выделен",
        -9.989140191152542
      ],
      [
        "застройщика",
        -9.989321309294732
      ],
      [
        "позволя",
        -9.990120309412909
      ],
      [
        "направленно",
        -9.990965829348232
      ],
      [
        "ши",
        -9.991178165256446
      ],
      [
        "парфюмери",
        -9.991421896317235
      ],
      [
        "плане",
        -9.991736163549216
      ],
      [
        "ечь",
        -9.991807402909988
      ],
      [
        "совершил",
        -9.9918480754664
      ],
      [
        "музыкальны",
        -9.992123783651877
      ],
      [
        "делам",
        -9.992670318258703
      ],
      [
        "микро",
        -9.994200683185182
      ],
      [
        "смысл",
        -9.994892786730512
      ],
      [
        "молодежно",
        -9.995378330697413
      ],
      [
        "практик",
        -9.996562802428063
      ],
      [
        "причинени",
        -9.996571462597762
      ],
      [
        "«К",
        -9.996618036658267
      ],
      [
        "такую",
        -9.998139950557988
      ],
      [
        "кругло",
        -9.998589600829533
      ],
      [
        "зывает",
        -9.998881446695972
      ],
      [
        "южном",
        -9.999353658060803
      ],
      [
        "предел",
        -10.000033599396865
      ],
      [
        "когда-",
        -10.000293145221287
      ],
      [
        "продолжат",
        -10.000604593880311
      ],
      [
        "сами",
        -10.001065895333145
      ],
      [
        "обратно",
        -10.001382472605089
      ],
      [
        "гра",
        -10.002373703783823
      ],
      [
        "нег",
        -10.003175185896627
      ],
      [
        "морско",
        -10.003803940558155
      ],
      [
        "потерпевши",
        -10.00405445751031
      ],
      [
        "представителям",
        -10.006131059427666
      ],
      [
        "здели",
        -10.006563417112304
      ],
      [
        "нин",
        -10.006765675354712
      ],
      [
        "символи",
        -10.007036304161485
      ],
      [
        "лично",
        -10.007470442955459
      ],
      [
        "спортсменк",
        -10.007891546091162
      ],
      [
        "никит",
        -10.008097189017368
      ],
      [
        "полномочи",
        -10.008727069052036
      ],
      [
        "низки",
        -10.008865127560608
      ],
      [
        "оказала",
        -10.009294372159316
      ],
      [
        "лучшим",
        -10.009310871217295
      ],
      [
        "обе",
        -10.009665301455
      ],
      [
        "пут",
        -10.01141602026384
      ],
      [
        "признали",
        -10.011572273359036
      ],
      [
        "подписан",
        -10.01304292797812
      ],
      [
        "медицинск",
        -10.015241242360144
      ],
      [
        "чемпион",
        -10.015798871800223
      ],
      [
        "разрешени",
        -10.016859019563816
      ],
      [
        "семейн",
        -10.017572950442052
      ],
      [
        "представителе",
        -10.017686694903425
      ],
      [
        "тра",
        -10.019499361024433
      ],
      [
        "горяче",
        -10.019996429021626
      ],
      [
        "личн",
        -10.020285420229175
      ],
      [
        "общественно",
        -10.020441822390712
      ],
      [
        "специалиста",
        -10.020654586092245
      ],
      [
        "пытал",
        -10.020898997463904
      ],
      [
        "пыта",
        -10.02120506565303
      ],
      [
        "направля",
        -10.021536575461376
      ],
      [
        "андр",
        -10.022618180502382
      ],
      [
        "прямо",
        -10.022866957604538
      ],
      [
        "ключев",
        -10.022908724427491
      ],
      [
        "ярки",
        -10.023532421477912
      ],
      [
        "федерально",
        -10.023926967330008
      ],
      [
        "конкретн",
        -10.024209330415975
      ],
      [
        "нанесл",
        -10.024285908509531
      ],
      [
        "проб",
        -10.02592742357282
      ],
      [
        "получ",
        -10.02593237393973
      ],
      [
        "побед",
        -10.026959129134303
      ],
      [
        "достигл",
        -10.027002817006519
      ],
      [
        "управля",
        -10.027826624286288
      ],
      [
        "льготны",
        -10.028111446983218
      ],
      [
        "номер",
        -10.028461196189614
      ],
      [
        "суде",
        -10.028532535566452
      ],
      [
        "создава",
        -10.028780850321146
      ],
      [
        "максимальн",
        -10.028820841872427
      ],
      [
        "ального",
        -10.029152761143752
      ],
      [
        "историческ",
        -10.03022309979948
      ],
      [
        "необходимост",
        -10.031559857119777
      ],
      [
        "языка",
        -10.032114980474876
      ],
      [
        "нц",
        -10.032437497336664
      ],
      [
        "эффективност",
        -10.033343441104027
      ],
      [
        "гости",
        -10.033652746331766
      ],
      [
        "бри",
        -10.037211326674413
      ],
      [
        "хороши",
        -10.03724314762107
      ],
      [
        "помогл",
        -10.03772362727019
      ],
      [
        "обеспечил",
        -10.03963980604356
      ],
      [
        "дер",
        -10.039891337010983
      ],
      [
        "дан",
        -10.040004852230572
      ],
      [
        "кри",
        -10.040424398596578
      ],
      [
        "мирны",
        -10.042914337648366
      ],
      [
        "южн",
        -10.043541843050853
      ],
      [
        "уголовн",
        -10.045040250482069
      ],
      [
        "енны",
        -10.045047490166098
      ],
      [
        "лу",
        -10.045166676379162
      ],
      [
        "валют",
        -10.045282529711944
      ],
      [
        "ласти",
        -10.045681096904989
      ],
      [
        "час",
        -10.045819565187786
      ],
      [
        "машина",
        -10.045844823081385
      ],
      [
        "чены",
        -10.04633520779283
      ],
      [
        "отличи",
        -10.04731673023013
      ],
      [
        "областн",
        -10.04753663904061
      ],
      [
        "ka",
        -10.048773773601448
      ],
      [
        "всероссийск",
        -10.050915674212476
      ],
      [
        "олог",
        -10.051086414133142
      ],
      [
        "применение",
        -10.05126237996211
      ],
      [
        "тол",
        -10.052213139060967
      ],
      [
        "энерго",
        -10.052590502590164
      ],
      [
        "открыт",
        -10.052810408439486
      ],
      [
        "авари",
        -10.052960298376158
      ],
      [
        "коллективно",
        -10.053154311592088
      ],
      [
        "шения",
        -10.05376115497474
      ],
      [
        "хоккейн",
        -10.055680012540288
      ],
      [
        "выполнен",
        -10.05651479518008
      ],
      [
        "щик",
        -10.057653431204953
      ],
      [
        "челябинска",
        -10.057971420330077
      ],
      [
        "an",
        -10.058041990934827
      ],
      [
        "ере",
        -10.05850531746452
      ],
      [
        "серьезны",
        -10.060221865173585
      ],
      [
        "качеств",
        -10.060266170709795
      ],
      [
        "полет",
        -10.060952372063182
      ],
      [
        "сад",
        -10.0615819037994
      ],
      [
        "бранно",
        -10.061903264938882
      ],
      [
        "хват",
        -10.06243264845141
      ],
      [
        "начало",
        -10.062500710231687
      ],
      [
        "сте",
        -10.063072254892385
      ],
      [
        "задержани",
        -10.066382894747068
      ],
      [
        "ранение",
        -10.066581787439903
      ],
      [
        "отдельны",
        -10.06689798473548
      ],
      [
        "проблема",
        -10.068239884117666
      ],
      [
        "собран",
        -10.068362974752658
      ],
      [
        "остал",
        -10.068637298672956
      ],
      [
        "встреча",
        -10.069570018404534
      ],
      [
        "тром",
        -10.071719048871977
      ],
      [
        "установлени",
        -10.071742477133562
      ],
      [
        "еры",
        -10.072367030135041
      ],
      [
        "чат",
        -10.074959566363976
      ],
      [
        "крупно",
        -10.0750380927247
      ],
      [
        "ника",
        -10.077432032609062
      ],
      [
        "франс",
        -10.07989558877758
      ],
      [
        "восем",
        -10.079933591364213
      ],
      [
        "наблюда",
        -10.0807915093984
      ],
      [
        "призна",
        -10.0809411385086
      ],
      [
        "наибольш",
        -10.08097592822541
      ],
      [
        "массовы",
        -10.081893705630002
      ],
      [
        "пользу",
        -10.08193756599913
      ],
      [
        "семинар",
        -10.083332973096313
      ],
      [
        "субботник",
        -10.0837108006534
      ],
      [
        "делов",
        -10.083817501744855
      ],
      [
        "стратегическо",
        -10.084693909681883
      ],
      [
        "re",
        -10.08611977501279
      ],
      [
        "чески",
        -10.086752005662014
      ],
      [
        "вооруженны",
        -10.087085838157824
      ],
      [
        "философ",
        -10.087618643868375
      ],
      [
        "сообща",
        -10.088039290052668
      ],
      [
        "округа",
        -10.088504554561258
      ],
      [
        "военн",
        -10.088651808356701
      ],
      [
        "клиента",
        -10.089610965736476
      ],
      [
        "красивы",
        -10.090201432286275
      ],
      [
        "пространства",
        -10.090866672864514
      ],
      [
        "ас",
        -10.091126111397571
      ],
      [
        "арми",
        -10.091149018937033
      ],
      [
        "амбо",
        -10.091764256707782
      ],
      [
        "блока",
        -10.09274824504487
      ],
      [
        "домашни",
        -10.094001553382345
      ],
      [
        "завершен",
        -10.094789635176118
      ],
      [
        "часа",
        -10.095532638677504
      ],
      [
        "рупи",
        -10.09627486522667
      ],
      [
        "продуктов",
        -10.098706510994546
      ],
      [
        "корпус",
        -10.100011093436795
      ],
      [
        "смартфон",
        -10.100179401529513
      ],
      [
        "тематически",
        -10.100462681443698
      ],
      [
        "требование",
        -10.100757269637144
      ],
      [
        "назва",
        -10.101109595222686
      ],
      [
        "спортивно",
        -10.10165088302754
      ],
      [
        "гр",
        -10.102072226021956
      ],
      [
        "ала",
        -10.103204061139678
      ],
      [
        "мире",
        -10.103204612460026
      ],
      [
        "еле",
        -10.105502012941871
      ],
      [
        "отечественн",
        -10.105771014563489
      ],
      [
        "переч",
        -10.107005586229436
      ],
      [
        "денис",
        -10.10806487030139
      ],
      [
        "родов",
        -10.108266624539272
      ],
      [
        "тора",
        -10.112841030754039
      ],
      [
        "расте",
        -10.113996838659546
      ],
      [
        "кому",
        -10.11493869302355
      ],
      [
        "шо",
        -10.115481647709304
      ],
      [
        "хан",
        -10.117528867266463
      ],
      [
        "больше",
        -10.117569036175926
      ],
      [
        "популяр",
        -10.118468478656833
      ],
      [
        "договора",
        -10.118482369647468
      ],
      [
        "йти",
        -10.118722890157786
      ],
      [
        "спектакл",
        -10.118925592981057
      ],
      [
        "собственны",
        -10.119257477993187
      ],
      [
        "слу",
        -10.120037356034636
      ],
      [
        "кандидат",
        -10.120963332833522
      ],
      [
        "близ",
        -10.12106017964569
      ],
      [
        "грузов",
        -10.121576257276544
      ],
      [
        "кредит",
        -10.122871395488001
      ],
      [
        "стол",
        -10.1231625052218
      ],
      [
        "моск",
        -10.123322903087669
      ],
      [
        "изолятор",
        -10.123585215989777
      ],
      [
        "архан",
        -10.12452961960758
      ],
      [
        "знака",
        -10.124892220015937
      ],
      [
        "воронежск",
        -10.125201729468124
      ],
      [
        "това",
        -10.126904010785623
      ],
      [
        "детски",
        -10.127266683086107
      ],
      [
        "подчеркива",
        -10.127320145290863
      ],
      [
        "каких-",
        -10.129322291875487
      ],
      [
        "нормативн",
        -10.130519280918454
      ],
      [
        "наставни",
        -10.130612388644934
      ],
      [
        "рад",
        -10.13110703934549
      ],
      [
        "оба",
        -10.133442411240157
      ],
      [
        "натов",
        -10.133737517430387
      ],
      [
        "депутато",
        -10.134131448557754
      ],
      [
        "большинств",
        -10.134442757811474
      ],
      [
        "енн",
        -10.13490921702589
      ],
      [
        "дума",
        -10.13644655023409
      ],
      [
        "определенны",
        -10.137969995265168
      ],
      [
        "войны",
        -10.13828576252871
      ],
      [
        "обслужива",
        -10.140871972444728
      ],
      [
        "ti",
        -10.141909039302558
      ],
      [
        "зор",
        -10.141995484323635
      ],
      [
        "нимать",
        -10.14246194050503
      ],
      [
        "тьев",
        -10.143839428543984
      ],
      [
        "казал",
        -10.147382121160941
      ],
      [
        "вает",
        -10.147480700216034
      ],
      [
        "направленны",
        -10.147515264870762
      ],
      [
        "данн",
        -10.147675359049874
      ],
      [
        "лицо",
        -10.147795009873589
      ],
      [
        "ак",
        -10.148662014195244
      ],
      [
        "зло",
        -10.149638517375362
      ],
      [
        "аргентин",
        -10.150005576247896
      ],
      [
        "ошиб",
        -10.15175643877629
      ],
      [
        "подразделени",
        -10.153997015993495
      ],
      [
        "недополучи",
        -10.154208480002708
      ],
      [
        "петербургск",
        -10.156580815445402
      ],
      [
        "французск",
        -10.156888926954784
      ],
      [
        "широко",
        -10.157875811871873
      ],
      [
        "de",
        -10.157887636966338
      ],
      [
        "баланс",
        -10.15813732116689
      ],
      [
        "снизи",
        -10.158763023700246
      ],
      [
        "никаки",
        -10.159486601553752
      ],
      [
        "глобальн",
        -10.15995408525045
      ],
      [
        "чев",
        -10.16032946652949
      ],
      [
        "ден",
        -10.160569508880318
      ],
      [
        "Петербург",
        -10.160807587803784
      ],
      [
        "кул",
        -10.161574245936546
      ],
      [
        "ированны",
        -10.161695658732523
      ],
      [
        "заключ",
        -10.16200027296502
      ],
      [
        "ступления",
        -10.162182858500806
      ],
      [
        "овски",
        -10.163422581635691
      ],
      [
        "сло",
        -10.163467022860555
      ],
      [
        "демонстриру",
        -10.163915932036781
      ],
      [
        "ee",
        -10.164217450413254
      ],
      [
        "сохранит",
        -10.16445488676628
      ],
      [
        "биты",
        -10.16478011025142
      ],
      [
        "аренду",
        -10.165815908839035
      ],
      [
        "назнач",
        -10.165834475103715
      ],
      [
        "текст",
        -10.16598868955493
      ],
      [
        "Дон",
        -10.166073212736395
      ],
      [
        "опасност",
        -10.166741799936528
      ],
      [
        "студент",
        -10.167077604365227
      ],
      [
        "транспортно",
        -10.168383527159355
      ],
      [
        "ори",
        -10.168413294071252
      ],
      [
        "вторы",
        -10.16932147969622
      ],
      [
        "смертн",
        -10.17152274601189
      ],
      [
        "Э",
        -10.17185998462097
      ],
      [
        "потребовал",
        -10.172708463394752
      ],
      [
        "чтени",
        -10.173002165567352
      ],
      [
        "ман",
        -10.174725415363543
      ],
      [
        "мастер",
        -10.175221033109782
      ],
      [
        "волк",
        -10.175312423729554
      ],
      [
        "рей",
        -10.175442411302415
      ],
      [
        "тест",
        -10.175482892897817
      ],
      [
        "щен",
        -10.175924963142677
      ],
      [
        "тонн",
        -10.176393282036626
      ],
      [
        "жаловал",
        -10.177164604611928
      ],
      [
        "3pl-оператор",
        -10.178079709784164
      ],
      [
        "последствия",
        -10.178139351906998
      ],
      [
        "союз",
        -10.17838784887403
      ],
      [
        "bl",
        -10.178459168063876
      ],
      [
        "se",
        -10.17990311433039
      ],
      [
        "инклер",
        -10.18130694262344
      ],
      [
        "интер",
        -10.182070986057488
      ],
      [
        "петр",
        -10.18231263701249
      ],
      [
        "vo",
        -10.182747287126684
      ],
      [
        "чным",
        -10.1829810224982
      ],
      [
        "ляют",
        -10.183017056050614
      ],
      [
        "зве",
        -10.183336711815745
      ],
      [
        "фигур",
        -10.184670769657805
      ],
      [
        "двор",
        -10.18467298350905
      ],
      [
        "соб",
        -10.186331861852073
      ],
      [
        "итета",
        -10.187457391459636
      ],
      [
        "говорили",
        -10.18797742104365
      ],
      [
        "америк",
        -10.188335102956746
      ],
      [
        "устойчив",
        -10.188450326388246
      ],
      [
        "уф",
        -10.188458142914094
      ],
      [
        "правда",
        -10.188945179189073
      ],
      [
        "следовател",
        -10.18924125889988
      ],
      [
        "флагман",
        -10.189885140138138
      ],
      [
        "охват",
        -10.189946488595842
      ],
      [
        "конструкци",
        -10.189984729316778
      ],
      [
        "учител",
        -10.190040782227006
      ],
      [
        "боев",
        -10.190056915716513
      ],
      [
        "ена",
        -10.19010167552173
      ],
      [
        "традици",
        -10.190269996240122
      ],
      [
        "фляци",
        -10.190311132749612
      ],
      [
        "vit",
        -10.190362784731963
      ],
      [
        "аэрофлот",
        -10.1904004310743
      ],
      [
        "академи",
        -10.190533608550723
      ],
      [
        "…",
        -10.190577590419704
      ],
      [
        "ДСНВ",
        -10.190577590501892
      ],
      [
        "справедливо",
        -10.190577591038503
      ],
      [
        "литературны",
        -10.190577591051277
      ],
      [
        "сурдоперевод",
        -10.19057759140438
      ],
      [
        "патриотическо",
        -10.190577591476556
      ],
      [
        "презентаци",
        -10.190577592993074
      ],
      [
        "конфликт",
        -10.19057759389495
      ],
      [
        "дюсапен",
        -10.190577597221045
      ],
      [
        "профессор",
        -10.190577620323857
      ],
      [
        "апарт-комплекс",
        -10.190577631418176
      ],
      [
        "кариотип",
        -10.190577637081198
      ],
      [
        "бакалинск",
        -10.190577753228393
      ],
      [
        "несовершеннолетн",
        -10.19057789025056
      ],
      [
        "краснокнижн",
        -10.190577897252766
      ],
      [
        "лестничн",
        -10.190577942358434
      ],
      [
        "противостояни",
        -10.190578048499109
      ],
      [
        "мишустин",
        -10.190578095035054
      ],
      [
        "совещани",
        -10.190578097566908
      ],
      [
        "тюрьм",
        -10.190578152513464
      ],
      [
        "инспектор",
        -10.190578178738921
      ],
      [
        "вертолет",
        -10.19057838436931
      ],
      [
        "лекарств",
        -10.190578538089929
      ],
      [
        "окончательно",
        -10.190578592359078
      ],
      [
        "обстановк",
        -10.1905790011955
      ],
      [
        "стрелецко",
        -10.190579149552978
      ],
      [
        "Саратов",
        -10.190579551407522
      ],
      [
        "собеседни",
        -10.190579695836126
      ],
      [
        "дерипаск",
        -10.190581746985416
      ],
      [
        "мальчик",
        -10.190581883622698
      ],
      [
        "волгоград",
        -10.190582331548859
      ],
      [
        "репутаци",
        -10.190582463389621
      ],
      [
        "нижнекамск",
        -10.190584083964607
      ],
      [
        "Екатеринбург",
        -10.190584502878899
      ],
      [
        "анастаси",
        -10.190585270176149
      ],
      [
        "фотографи",
        -10.190585558696345
      ],
      [
        "грипп",
        -10.190586670986118
      ],
      [
        "автоваз",
        -10.190587407675856
      ],
      [
        "пандеми",
        -10.190588400264671
      ],
      [
        "морозов",
        -10.190589117072514
      ],
      [
        "группировк",
        -10.190592176061068
      ],
      [
        "болельщик",
        -10.19059288326508
      ],
      [
        "птенц",
        -10.190595174277108
      ],
      [
        "молча",
        -10.19059535427516
      ],
      [
        "жертв",
        -10.190595746049848
      ],
      [
        "предусматрива",
        -10.190598151088988
      ],
      [
        "Прокур",
        -10.190598423382074
      ],
      [
        "конституционно",
        -10.190600146194178
      ],
      [
        "баранов",
        -10.190602338531871
      ],
      [
        "флакон",
        -10.190603383620182
      ],
      [
        "форвард",
        -10.190603907688205
      ],
      [
        "субъект",
        -10.19061084905387
      ],
      [
        "титул",
        -10.190613811319661
      ],
      [
        "Кубан",
        -10.190616096463422
      ],
      [
        "отражает",
        -10.19061859514521
      ],
      [
        "оздоровлени",
        -10.190620327404305
      ],
      [
        "матиас",
        -10.190621886352904
      ],
      [
        "горовиц",
        -10.190625824497474
      ],
      [
        "взгляд",
        -10.190626765931848
      ],
      [
        "прежде",
        -10.190636286475945
      ],
      [
        "доллар",
        -10.190661127547537
      ],
      [
        "цивил",
        -10.190663665897787
      ],
      [
        "гербер",
        -10.19066842127156
      ],
      [
        "Новороссийск",
        -10.190690651381928
      ],
      [
        "проверяет",
        -10.190698171330155
      ],
      [
        "возрождени",
        -10.190699291629914
      ],
      [
        "улибин",
        -10.190723614034672
      ],
      [
        "вице-мэр",
        -10.19073260672804
      ],
      [
        "импровиз",
        -10.190733053825413
      ],
      [
        "15",
        -10.190743238709818
      ],
      [
        "проспект",
        -10.190753289853518
      ],
      [
        "шеф-",
        -10.190772242553479
      ],
      [
        "инстанци",
        -10.190775453717382
      ],
      [
        "stra",
        -10.190775537818602
      ],
      [
        "подконтрольны",
        -10.19079209378124
      ],
      [
        "27",
        -10.190800658112826
      ],
      [
        "птиц",
        -10.190807983841045
      ],
      [
        "нелегальны",
        -10.190825165111573
      ],
      [
        "oo",
        -10.19083160446806
      ],
      [
        "отмечают",
        -10.190832818972783
      ],
      [
        "локомотив",
        -10.190844979304357
      ],
      [
        "удобн",
        -10.190850921931942
      ],
      [
        "светлан",
        -10.190856008063957
      ],
      [
        "диспле",
        -10.19085745060177
      ],
      [
        "поезд",
        -10.190864565045928
      ],
      [
        "уфимско",
        -10.190887289780902
      ],
      [
        "объясняет",
        -10.19090239458554
      ],
      [
        "девелопмент",
        -10.190940923894086
      ],
      [
        "миллиардеро",
        -10.190959420039578
      ],
      [
        "нагрузк",
        -10.191052918572899
      ],
      [
        "поднял",
        -10.191056702073876
      ],
      [
        "эксплуатаци",
        -10.19106748710717
      ],
      [
        "комлев",
        -10.191127979280763
      ],
      [
        "критическ",
        -10.191144117705658
      ],
      [
        "эрофлота",
        -10.191145315305336
      ],
      [
        "бокса",
        -10.191153770613191
      ],
      [
        "обзор",
        -10.191167653214766
      ],
      [
        "пензен",
        -10.191191367682196
      ],
      [
        "напряжен",
        -10.191193469932424
      ],
      [
        "гордум",
        -10.191207890345213
      ],
      [
        "СИ",
        -10.191218454173823
      ],
      [
        "интеграци",
        -10.191232266174781
      ],
      [
        "импорт",
        -10.191262192584807
      ],
      [
        "гимнастик",
        -10.19130019096231
      ],
      [
        "спецтехник",
        -10.191342030995502
      ],
      [
        "ks",
        -10.19134767848047
      ],
      [
        "by",
        -10.191379005650482
      ],
      [
        "содействи",
        -10.191417952431049
      ],
      [
        "отличает",
        -10.191422165032192
      ],
      [
        "экспорт",
        -10.191426899950748
      ],
      [
        "надцат",
        -10.19143708671347
      ],
      [
        "постановлени",
        -10.19144334711626
      ],
      [
        "валери",
        -10.191474303197285
      ],
      [
        "памятник",
        -10.191479304499392
      ],
      [
        "желани",
        -10.191491591455964
      ],
      [
        "экс-президент",
        -10.191503728761065
      ],
      [
        "наград",
        -10.191547681840474
      ],
      [
        "ba",
        -10.191553074161051
      ],
      [
        "беременны",
        -10.19157984805994
      ],
      [
        "определяет",
        -10.191607795838888
      ],
      [
        "гимна",
        -10.191613557453225
      ],
      [
        "осторожност",
        -10.191640902644611
      ],
      [
        "представляет",
        -10.191653435660486
      ],
      [
        "осипов",
        -10.19165566202469
      ],
      [
        "господдержк",
        -10.191709755372946
      ],
      [
        "пятер",
        -10.191754686382493
      ],
      [
        "осуществляет",
        -10.191761067496815
      ],
      [
        "гибел",
        -10.191806764829826
      ],
      [
        "жительниц",
        -10.19182205043409
      ],
      [
        "деклараци",
        -10.191845265966649
      ],
      [
        "дорожн",
        -10.191916066778754
      ],
      [
        "художник",
        -10.191929578580863
      ],
      [
        "успех",
        -10.191940606665336
      ],
      [
        "пресс-конференци",
        -10.191983429035076
      ],
      [
        "трамва",
        -10.191984563583109
      ],
      [
        "правонарушени",
        -10.192071003758516
      ],
      [
        "пристав",
        -10.19210705858592
      ],
      [
        "хочет",
        -10.192317902018079
      ],
      [
        "максимум",
        -10.192396038492356
      ],
      [
        "слушани",
        -10.192424761861929
      ],
      [
        "алкогол",
        -10.192443473642156
      ],
      [
        "госзакуп",
        -10.192475190644997
      ],
      [
        "тренер",
        -10.192556091957233
      ],
      [
        "рыжк",
        -10.192660431971513
      ],
      [
        "выраст",
        -10.192865170065147
      ],
      [
        "диалог",
        -10.193005063938921
      ],
      [
        "занимают",
        -10.19307415575003
      ],
      [
        "ment",
        -10.193090825289563
      ],
      [
        "цикл",
        -10.19309098264277
      ],
      [
        "медучреждени",
        -10.193171689842629
      ],
      [
        "формируют",
        -10.19320154210719
      ],
      [
        "отец",
        -10.193284542841626
      ],
      [
        "аварийны",
        -10.193360245205312
      ],
      [
        "экстрем",
        -10.19350631289736
      ],
      [
        "комбинат",
        -10.193509624113052
      ],
      [
        "фактическ",
        -10.193593759426495
      ],
      [
        "предпочита",
        -10.193603411546015
      ],
      [
        "fa",
        -10.19363648892737
      ],
      [
        "auto",
        -10.193733080546796
      ],
      [
        "составляют",
        -10.193783890858365
      ],
      [
        "катун",
        -10.194182272441207
      ],
      [
        "теплоснабжающ",
        -10.194264015660647
      ],
      [
        "вице-",
        -10.194382086295176
      ],
      [
        "собственник",
        -10.194391518077294
      ],
      [
        "приходит",
        -10.194535688338545
      ],
      [
        "запуск",
        -10.194573599467596
      ],
      [
        "пропавш",
        -10.19472021351325
      ],
      [
        "водителя",
        -10.19480790740386
      ],
      [
        "выстав",
        -10.194871499359413
      ],
      [
        "наибол",
        -10.195120552971689
      ],
      [
        "повлия",
        -10.195171665989026
      ],
      [
        "утвердил",
        -10.195206481244112
      ],
      [
        "любим",
        -10.195219282421888
      ],
      [
        "женском",
        -10.19530707413653
      ],
      [
        "добр",
        -10.195832780257767
      ],
      [
        "эпох",
        -10.195928313712312
      ],
      [
        "чек",
        -10.19615893662618
      ],
      [
        "ветеран",
        -10.196164723523474
      ],
      [
        "атарстан",
        -10.196178486018777
      ],
      [
        "собира",
        -10.196238307235447
      ],
      [
        "возглавлял",
        -10.196281752068193
      ],
      [
        "желающи",
        -10.196302193611103
      ],
      [
        "бург",
        -10.196326425036588
      ],
      [
        "вызвал",
        -10.196380854293789
      ],
      [
        "оссе",
        -10.1964210798085
      ],
      [
        "покупател",
        -10.196537664931965
      ],
      [
        "преступник",
        -10.196704256459926
      ],
      [
        "сведениям",
        -10.196892015502346
      ],
      [
        "расследовани",
        -10.197028699463129
      ],
      [
        "вым",
        -10.197157811114756
      ],
      [
        "косметик",
        -10.197492830035763
      ],
      [
        "СВ",
        -10.197509255262197
      ],
      [
        "Дани",
        -10.197957099532102
      ],
      [
        "сих",
        -10.198016934857792
      ],
      [
        "соблюдени",
        -10.198109822091945
      ],
      [
        "лазерн",
        -10.198176581303953
      ],
      [
        "содержащи",
        -10.198220849342434
      ],
      [
        "аспект",
        -10.198497250587007
      ],
      [
        "ответил",
        -10.198597789791515
      ],
      [
        "выражени",
        -10.198919036680095
      ],
      [
        "изменил",
        -10.199161915429324
      ],
      [
        "потерял",
        -10.199178183449733
      ],
      [
        "горно",
        -10.199400307641364
      ],
      [
        "вероятно",
        -10.199454239189695
      ],
      [
        "нанесен",
        -10.199604810026496
      ],
      [
        "чебанов",
        -10.199746908853644
      ],
      [
        "вно",
        -10.199783694490087
      ],
      [
        "мостово",
        -10.199901822966341
      ],
      [
        "обсудил",
        -10.199999520007099
      ],
      [
        "аких",
        -10.200224291945194
      ],
      [
        "сельск",
        -10.20025583461567
      ],
      [
        "евич",
        -10.20029027710729
      ],
      [
        "отменил",
        -10.200292826062327
      ],
      [
        "лидерств",
        -10.200740807903044
      ],
      [
        "ушедш",
        -10.20136288585153
      ],
      [
        "потрати",
        -10.20165714287779
      ],
      [
        "паспорт",
        -10.201683318609641
      ],
      [
        "сможе",
        -10.20169397935911
      ],
      [
        "русал",
        -10.201776750584832
      ],
      [
        "деревн",
        -10.201844813337907
      ],
      [
        "значительно",
        -10.202131642757182
      ],
      [
        "вшим",
        -10.202271253617713
      ],
      [
        "организация",
        -10.202466680564712
      ],
      [
        "ассам",
        -10.202577424213024
      ],
      [
        "телесн",
        -10.202651756407864
      ],
      [
        "точно",
        -10.202769542887623
      ],
      [
        "дочерн",
        -10.203042664980725
      ],
      [
        "комнатн",
        -10.203154225611287
      ],
      [
        "обсуд",
        -10.203155551444066
      ],
      [
        "чистот",
        -10.20326274386068
      ],
      [
        "рий",
        -10.203355310146021
      ],
      [
        "расписани",
        -10.203413407512564
      ],
      [
        "масла",
        -10.203608633387457
      ],
      [
        "офис",
        -10.203622796270434
      ],
      [
        "выпустил",
        -10.203649088404891
      ],
      [
        "почт",
        -10.204133622186736
      ],
      [
        "орлов",
        -10.204269571176377
      ],
      [
        "донск",
        -10.204323946827161
      ],
      [
        "кейс",
        -10.204541307190462
      ],
      [
        "скорость",
        -10.204705829606091
      ],
      [
        "моста",
        -10.204816454133402
      ],
      [
        "церк",
        -10.204842597985845
      ],
      [
        "помога",
        -10.205039708541072
      ],
      [
        "нуть",
        -10.20534514638623
      ],
      [
        "истц",
        -10.20543940626927
      ],
      [
        "авария",
        -10.20576471108602
      ],
      [
        "цеп",
        -10.205769798470381
      ],
      [
        "панель",
        -10.205804649986884
      ],
      [
        "гимнастк",
        -10.20603715810846
      ],
      [
        "сооружени",
        -10.206166317098827
      ],
      [
        "пользовани",
        -10.20627666442099
      ],
      [
        "вое",
        -10.206986249038438
      ],
      [
        "выдели",
        -10.207438042574873
      ],
      [
        "случи",
        -10.207454882843454
      ],
      [
        "издани",
        -10.207529241411331
      ],
      [
        "цене",
        -10.20808355524885
      ],
      [
        "поиска",
        -10.208414170725407
      ],
      [
        "реально",
        -10.208648614302597
      ],
      [
        "позиция",
        -10.208656093237746
      ],
      [
        "гусев",
        -10.209042283392339
      ],
      [
        "павл",
        -10.209051921294005
      ],
      [
        "хотел",
        -10.20915943938366
      ],
      [
        "дороги",
        -10.209649630997413
      ],
      [
        "раздел",
        -10.209820102219341
      ],
      [
        "заряд",
        -10.209854771543354
      ],
      [
        "отход",
        -10.210253510029538
      ],
      [
        "изотов",
        -10.210550531553146
      ],
      [
        "минувши",
        -10.210557507215691
      ],
      [
        "инди",
        -10.210635756960546
      ],
      [
        "магнитогорск",
        -10.211048453587598
      ],
      [
        "веков",
        -10.211802745963672
      ],
      [
        "прекращени",
        -10.2124093583657
      ],
      [
        "мут",
        -10.212417551219701
      ],
      [
        "осети",
        -10.213361341149852
      ],
      [
        "исполня",
        -10.214196174988668
      ],
      [
        "dan",
        -10.214259625560729
      ],
      [
        "трупп",
        -10.214369304846903
      ],
      [
        "собрания",
        -10.214481646346915
      ],
      [
        "бег",
        -10.214697651638621
      ],
      [
        "разнообрази",
        -10.214846897198129
      ],
      [
        "каев",
        -10.216006208379412
      ],
      [
        "уплат",
        -10.216013948024118
      ],
      [
        "закуп",
        -10.21621487266771
      ],
      [
        "становят",
        -10.216546920226298
      ],
      [
        "административно",
        -10.216582438843535
      ],
      [
        "альны",
        -10.21671071543748
      ],
      [
        "хищени",
        -10.217009556044962
      ],
      [
        "минпро",
        -10.217172345069699
      ],
      [
        "da",
        -10.217262682152935
      ],
      [
        "друго",
        -10.217301806672538
      ],
      [
        "полу",
        -10.217603575558094
      ],
      [
        "производит",
        -10.218092844144403
      ],
      [
        "штрафа",
        -10.218568497265295
      ],
      [
        "продлени",
        -10.218791334284045
      ],
      [
        "ответственност",
        -10.21882518203961
      ],
      [
        "верди",
        -10.219025411813522
      ],
      [
        "имеющи",
        -10.219148380365544
      ],
      [
        "получаю",
        -10.219678115882646
      ],
      [
        "умер",
        -10.219694045314036
      ],
      [
        "ар",
        -10.219839739208012
      ],
      [
        "мурал",
        -10.220205956199655
      ],
      [
        "дочны",
        -10.220432581420722
      ],
      [
        "чест",
        -10.22054916705004
      ],
      [
        "управляющи",
        -10.22054954549007
      ],
      [
        "улете",
        -10.220592314643387
      ],
      [
        "слабос",
        -10.221346231383036
      ],
      [
        "wi",
        -10.221693696011164
      ],
      [
        "тройк",
        -10.22234366700277
      ],
      [
        "укрепля",
        -10.223833947053153
      ],
      [
        "стратеги",
        -10.224325275180238
      ],
      [
        "улучшен",
        -10.224338620157745
      ],
      [
        "знани",
        -10.224705801462276
      ],
      [
        "воздушн",
        -10.2260411887974
      ],
      [
        "трудно",
        -10.226107461346674
      ],
      [
        "обвинил",
        -10.226136577096606
      ],
      [
        "груд",
        -10.22648917003546
      ],
      [
        "доли",
        -10.22665280652499
      ],
      [
        "ошел",
        -10.227018431086593
      ],
      [
        "бирже",
        -10.22711655560757
      ],
      [
        "готовност",
        -10.227385238620169
      ],
      [
        "существующи",
        -10.227938274708835
      ],
      [
        "джо",
        -10.22830522648601
      ],
      [
        "интереса",
        -10.228453765585048
      ],
      [
        "маленьки",
        -10.228473100547788
      ],
      [
        "прежне",
        -10.22848803782472
      ],
      [
        "лю",
        -10.228617086228956
      ],
      [
        "лн",
        -10.22891276262448
      ],
      [
        "коммерческом",
        -10.229299986543046
      ],
      [
        "чн",
        -10.230298172134349
      ],
      [
        "молодежь",
        -10.23039134033922
      ],
      [
        "вспомина",
        -10.230653050071103
      ],
      [
        "ярославско",
        -10.23085935151138
      ],
      [
        "победител",
        -10.231044431718644
      ],
      [
        "опасны",
        -10.231254206969245
      ],
      [
        "представление",
        -10.231720722196838
      ],
      [
        "матче",
        -10.232267151181548
      ],
      [
        "документаци",
        -10.23285701823207
      ],
      [
        "раунд",
        -10.233508840133574
      ],
      [
        "земельн",
        -10.23391014848798
      ],
      [
        "стар",
        -10.234267332621108
      ],
      [
        "овольно",
        -10.23476398904396
      ],
      [
        "герои",
        -10.234901535578942
      ],
      [
        "природны",
        -10.235040199021538
      ],
      [
        "налого",
        -10.23562628956716
      ],
      [
        "ским",
        -10.236454438556585
      ],
      [
        "полут",
        -10.23656398891183
      ],
      [
        "окруж",
        -10.237504423970492
      ],
      [
        "февраль",
        -10.238234954241255
      ],
      [
        "ошли",
        -10.239439397844318
      ],
      [
        "сан",
        -10.240589361019124
      ],
      [
        "нача",
        -10.240727557155878
      ],
      [
        "стер",
        -10.241601341876585
      ],
      [
        "лион",
        -10.242015624935584
      ],
      [
        "тела",
        -10.242045978642217
      ],
      [
        "нтонов",
        -10.242360432943503
      ],
      [
        "причина",
        -10.242458249437224
      ],
      [
        "возведени",
        -10.243199750027372
      ],
      [
        "золоты",
        -10.243910522187363
      ],
      [
        "угольн",
        -10.244192150272994
      ],
      [
        "отдал",
        -10.244503316839092
      ],
      [
        "судостроительн",
        -10.244523753722667
      ],
      [
        "беременным",
        -10.244869272423589
      ],
      [
        "стреми",
        -10.245608176235542
      ],
      [
        "ставшие",
        -10.245716437038359
      ],
      [
        "многоквартирны",
        -10.246000794092039
      ],
      [
        "ившего",
        -10.246639531833514
      ],
      [
        "оцен",
        -10.246991696420334
      ],
      [
        "руководству",
        -10.24765601733947
      ],
      [
        "фиксиру",
        -10.248251163998491
      ],
      [
        "обновля",
        -10.248382805712925
      ],
      [
        "оров",
        -10.24845923561814
      ],
      [
        "пытк",
        -10.248787986757966
      ],
      [
        "xi",
        -10.248856030587786
      ],
      [
        "арабски",
        -10.249332434022211
      ],
      [
        "вез",
        -10.24988443230065
      ],
      [
        "ивать",
        -10.249948085814614
      ],
      [
        "уникальны",
        -10.250208799048947
      ],
      [
        "американски",
        -10.250578963707165
      ],
      [
        "открывае",
        -10.250686435520178
      ],
      [
        "дне",
        -10.251365866449477
      ],
      [
        "кубг",
        -10.251506534124797
      ],
      [
        "востребованн",
        -10.251976757741003
      ],
      [
        "посту",
        -10.253013394729049
      ],
      [
        "формирует",
        -10.254139069410293
      ],
      [
        "сер",
        -10.254545143575939
      ],
      [
        "конференция",
        -10.254906787148586
      ],
      [
        "совместн",
        -10.255314857316492
      ],
      [
        "физкультур",
        -10.255590899919193
      ],
      [
        "ожидае",
        -10.255730991512182
      ],
      [
        "ресторана",
        -10.256054336167836
      ],
      [
        "глаз",
        -10.256227696734072
      ],
      [
        "вшей",
        -10.25651325021838
      ],
      [
        "воронежско",
        -10.25815038526289
      ],
      [
        "ником",
        -10.2585460187908
      ],
      [
        "белы",
        -10.258625895902519
      ],
      [
        "кроют",
        -10.258807944937791
      ],
      [
        "«О",
        -10.258959093784046
      ],
      [
        "вышл",
        -10.259019324111419
      ],
      [
        "стве",
        -10.259044764287497
      ],
      [
        "верхне",
        -10.259070708629258
      ],
      [
        "спец",
        -10.260818988138004
      ],
      [
        "енного",
        -10.260820919927678
      ],
      [
        "ывающих",
        -10.26174645547508
      ],
      [
        "вуза",
        -10.261774728594535
      ],
      [
        "lad",
        -10.261874036353435
      ],
      [
        "изолятора",
        -10.262370947547398
      ],
      [
        "антикоррупционн",
        -10.262389679201284
      ],
      [
        "ознакоми",
        -10.26250360688927
      ],
      [
        "способност",
        -10.262815664847524
      ],
      [
        "новь",
        -10.262866778276418
      ],
      [
        "многоквартирн",
        -10.263790690787555
      ],
      [
        "жива",
        -10.26406122095318
      ],
      [
        "влад",
        -10.264507736282836
      ],
      [
        "отлич",
        -10.264554009611029
      ],
      [
        "тематическ",
        -10.2650230184073
      ],
      [
        "чист",
        -10.265023299312348
      ],
      [
        "известны",
        -10.265275758187526
      ],
      [
        "колони",
        -10.266537883550656
      ],
      [
        "удовлетворени",
        -10.26663419211879
      ],
      [
        "реальн",
        -10.26673775552867
      ],
      [
        "ставка",
        -10.26691395432751
      ],
      [
        "внешн",
        -10.267283284535162
      ],
      [
        "организациям",
        -10.267349734179254
      ],
      [
        "азартны",
        -10.267864642407778
      ],
      [
        "пермско",
        -10.267924750128458
      ],
      [
        "уш",
        -10.268513462219154
      ],
      [
        "туристическ",
        -10.268890993504003
      ],
      [
        "опрошенны",
        -10.269638750885608
      ],
      [
        "футбольн",
        -10.270452122989333
      ],
      [
        "главным",
        -10.270843653578464
      ],
      [
        "ученик",
        -10.271340329646161
      ],
      [
        "ист",
        -10.271641890051606
      ],
      [
        "af",
        -10.27186260543821
      ],
      [
        "лош",
        -10.273029058800384
      ],
      [
        "нашл",
        -10.273121264452078
      ],
      [
        "приняты",
[...]
