{
  "version": "1.0",
  "truncation": null,
  "padding": null,
  "added_tokens": [
    {
      "id": 0,
      "content": "[UNK]",
      "single_word": false,
      "lstrip": false,
      "rstrip": false,
      "normalized": false,
      "special": true
    },
    {
      "id": 1,
      "content": "[PAD]",
      "single_word": false,
      "lstrip": false,
      "rstrip": false,
      "normalized": false,
      "special": true
    },
    {
      "id": 2,
      "content": "[CLS]",
      "single_word": false,
      "lstrip": false,
      "rstrip": false,
      "normalized": false,
      "special": true
    },
    {
      "id": 3,
      "content": "[SEP]",
      "single_word": false,
      "lstrip": false,
      "rstrip": false,
      "normalized": false,
      "special": true
    },
    {
      "id": 4,
      "content": "[MASK]",
      "single_word": false,
      "lstrip": false,
      "rstrip": false,
      "normalized": false,
      "special": true
    }
  ],
  "normalizer": {
    "type": "NFC"
  },
  "pre_tokenizer": {
    "type": "WhitespaceSplit"
  },
  "post_processor": null,
  "decoder": null,
  "model": {
    "type": "WordPiece",
    "unk_token": "[UNK]",
    "continuing_subword_prefix": "##",
    "max_input_chars_per_word": 100,
    "vocab": {
      "[UNK]": 0,
      "[PAD]": 1,
      "[CLS]": 2,
      "[SEP]": 3,
      "[MASK]": 4,
      "!": 5,
      "$": 6,
      "%": 7,
      "&": 8,
      "'": 9,
      "(": 10,
      ")": 11,
      "*": 12,
      "+": 13,
      ",": 14,
      "-": 15,
      ".": 16,
      "/": 17,
      "0": 18,
      "1": 19,
      "2": 20,
      "3": 21,
      "4": 22,
      "5": 23,
      "6": 24,
      "7": 25,
      "8": 26,
      "9": 27,
      ":": 28,
      ";": 29,
      "<": 30,
      ">": 31,
      "?": 32,
      "A": 33,
      "B": 34,
      "C": 35,
      "D": 36,
      "E": 37,
      "F": 38,
      "G": 39,
      "I": 40,
      "L": 41,
      "M": 42,
      "N": 43,
      "O": 44,
      "R": 45,
      "S": 46,
      "T": 47,
      "U": 48,
      "V": 49,
      "W": 50,
      "X": 51,
      "`": 52,
      "a": 53,
      "b": 54,
      "c": 55,
      "d": 56,
      "e": 57,
      "f": 58,
      "g": 59,
      "h": 60,
      "i": 61,
      "j": 62,
      "k": 63,
      "l": 64,
      "m": 65,
      "n": 66,
      "o": 67,
      "p": 68,
      "q": 69,
      "r": 70,
      "s": 71,
      "t": 72,
      "u": 73,
      "v": 74,
      "w": 75,
      "x": 76,
      "y": 77,
      "z": 78,
      "«": 79,
      "­": 80,
      "·": 81,
      "»": 82,
      "А": 83,
      "Б": 84,
      "В": 85,
      "Г": 86,
      "Д": 87,
      "Е": 88,
      "Ж": 89,
      "З": 90,
      "И": 91,
      "К": 92,
      "Л": 93,
      "М": 94,
      "Н": 95,
      "О": 96,
      "П": 97,
      "Р": 98,
      "С": 99,
      "Т": 100,
      "У": 101,
      "Ф": 102,
      "Х": 103,
      "Ц": 104,
      "Ч": 105,
      "Ш": 106,
      "Э": 107,
      "Ю": 108,
      "Я": 109,
      "а": 110,
      "б": 111,
      "в": 112,
      "г": 113,
      "д": 114,
      "е": 115,
      "ж": 116,
      "з": 117,
      "и": 118,
      "й": 119,
      "к": 120,
      "л": 121,
      "м": 122,
      "н": 123,
      "о": 124,
      "п": 125,
      "р": 126,
      "с": 127,
      "т": 128,
      "у": 129,
      "ф": 130,
      "х": 131,
      "ц": 132,
      "ч": 133,
      "ш": 134,
      "щ": 135,
      "ъ": 136,
      "ы": 137,
      "ь": 138,
      "э": 139,
      "ю": 140,
      "я": 141,
      "ё": 142,
      "–": 143,
      "—": 144,
      "‘": 145,
      "’": 146,
      "“": 147,
      "”": 148,
      "„": 149,
      "…": 150,
      "€": 151,
      "№": 152,
      "##п": 153,
      "##о": 154,
      "##а": 155,
      "##н": 156,
      "##и": 157,
      "##л": 158,
      "##в": 159,
      "##с": 160,
      "##к": 161,
      "##м": 162,
      "##ы": 163,
      "##е": 164,
      "##х": 165,
      "##д": 166,
      "##ж": 167,
      "##ю": 168,
      "##ь": 169,
      "##р": 170,
      "##ц": 171,
      "##б": 172,
      "##ч": 173,
      "##t": 174,
      "##-": 175,
      "##т": 176,
      "##г": 177,
      "##я": 178,
      "##ш": 179,
      "##щ": 180,
      "##й": 181,
      "##у": 182,
      "##з": 183,
      "##p": 184,
      "##l": 185,
      "##ф": 186,
      "##·": 187,
      "##5": 188,
      "##/": 189,
      "##0": 190,
      "##r": 191,
      "##o": 192,
      "##u": 193,
      "##a": 194,
      "##n": 195,
      "##y": 196,
      "##x": 197,
      "##b": 198,
      "##s": 199,
      "##,": 200,
      "##1": 201,
      "##e": 202,
      "##d": 203,
      "##k": 204,
      "##К": 205,
      "##А": 206,
      "##»": 207,
      "##i": 208,
      "##ъ": 209,
      "##3": 210,
      "##%": 211,
      "##О": 212,
      "##Г": 213,
      "##2": 214,
      "##c": 215,
      "##э": 216,
      "##.": 217,
      "##—": 218,
      "##g": 219,
      "##m": 220,
      "##f": 221,
      "##h": 222,
      "##v": 223,
      "##9": 224,
      "##z": 225,
      "##У": 226,
      "##С": 227,
      "##Б": 228,
      "##B": 229,
      "##S": 230,
      "##6": 231,
      "##w": 232,
      "##Ш": 233,
      "##Н": 234,
      "##З": 235,
      "##4": 236,
      "##7": 237,
      "##…": 238,
      "##I": 239,
      "##N": 240,
      "##L": 241,
      "##E": 242,
      "##:": 243,
      "##ё": 244,
      "##+": 245,
      "##8": 246,
      "##Т": 247,
      "##П": 248,
      "##Е": 249,
      "##В": 250,
      "##Д": 251,
      "##A": 252,
      "##Ч": 253,
      "##'": 254,
      "##Р": 255,
      "##Ц": 256,
      "##И": 257,
      "##М": 258,
      "##M": 259,
      "##W": 260,
      "##Ф": 261,
      "##q": 262,
      "##G": 263,
      "##–": 264,
      "##Л": 265,
      "##Х": 266,
      "##j": 267,
      "##`": 268,
      "##O": 269,
      "##V": 270,
      "##D": 271,
      "##­": 272,
      "##Я": 273,
      "##C": 274,
      "##?": 275,
      "##Э": 276,
      "##Ж": 277,
      "##ст": 278,
      "##ен": 279,
      "##ов": 280,
      "##ра": 281,
      "##но": 282,
      "##ро": 283,
      "##ан": 284,
      "##ре": 285,
      "##um": 286,
      "num": 287,
      "##ал": 288,
      "##од": 289,
      "##ск": 290,
      "##ет": 291,
      "##ер": 292,
      "##ны": 293,
      "##ел": 294,
      "##ит": 295,
      "##ол": 296,
      "##ени": 297,
      "##ор": 298,
      "##ом": 299,
      "##ат": 300,
      "##ил": 301,
      "##ин": 302,
      "##го": 303,
      "##он": 304,
      "##от": 305,
      "##ств": 306,
      "##ци": 307,
      "##ар": 308,
      "##ос": 309,
      "##ик": 310,
      "##ла": 311,
      "об": 312,
      "ра": 313,
      "##им": 314,
      "##ся": 315,
      "##ек": 316,
      "##ед": 317,
      "##ем": 318,
      "на": 319,
      "со": 320,
      "про": 321,
      "##ани": 322,
      "ст": 323,
      "##ой": 324,
      "##ей": 325,
      "за": 326,
      "##ри": 327,
      "##ам": 328,
      "пре": 329,
      "##сти": 330,
      "##ения": 331,
      "##ель": 332,
      "##ру": 333,
      "##на": 334,
      "##об": 335,
      "##ич": 336,
      "##ий": 337,
      "##ив": 338,
      "по": 339,
      "##ент": 340,
      "##ка": 341,
      "##ных": 342,
      "##ав": 343,
      "от": 344,
      "год": 345,
      "ре": 346,
      "##ров": 347,
      "##их": 348,
      "##ев": 349,
      "вы": 350,
      "##ного": 351,
      "##ак": 352,
      "##ной": 353,
      "##оро": 354,
      "##ии": 355,
      "##ят": 356,
      "##ран": 357,
      "##уб": 358,
      "##из": 359,
      "##сп": 360,
      "##сс": 361,
      "##аль": 362,
      "##ого": 363,
      "##да": 364,
      "под": 365,
      "##ут": 366,
      "##еск": 367,
      "##ие": 368,
      "##ение": 369,
      "при": 370,
      "##ные": 371,
      "##ия": 372,
      "##ции": 373,
      "##ог": 374,
      "##уд": 375,
      "пред": 376,
      "##оз": 377,
      "##ми": 378,
      "##ать": 379,
      "##ют": 380,
      "##али": 381,
      "##ник": 382,
      "##сть": 383,
      "##ный": 384,
      "##ает": 385,
      "пол": 386,
      "##или": 387,
      "##став": 388,
      "##рав": 389,
      "##ект": 390,
      "##ере": 391,
      "##ку": 392,
      "##сл": 393,
      "ин": 394,
      "##ля": 395,
      "##кт": 396,
      "##итель": 397,
      "##ль": 398,
      "раз": 399,
      "##ую": 400,
      "##ном": 401,
      "##оль": 402,
      "ком": 403,
      "##осс": 404,
      "##рат": 405,
      "##ской": 406,
      "##ур": 407,
      "##ли": 408,
      "##ая": 409,
      "##ки": 410,
      "##не": 411,
      "##ож": 412,
      "##оп": 413,
      "##ых": 414,
      "##ход": 415,
      "##ическ": 416,
      "##ги": 417,
      "св": 418,
      "сп": 419,
      "##уж": 420,
      "##уч": 421,
      "года": 422,
      "росс": 423,
      "##ест": 424,
      "##ства": 425,
      "##то": 426,
      "##ост": 427,
      "##ид": 428,
      "сл": 429,
      "кот": 430,
      "руб": 431,
      "##ас": 432,
      "##ным": 433,
      "##ист": 434,
      "##ез": 435,
      "##ред": 436,
      "##ания": 437,
      "##еч": 438,
      "из": 439,
      "##ить": 440,
      "##ко": 441,
      "##же": 442,
      "##ности": 443,
      "##ыв": 444,
      "##каз": 445,
      "##общ": 446,
      "##ина": 447,
      "##ря": 448,
      "##пл": 449,
      "##ера": 450,
      "##жд": 451,
      "##оч": 452,
      "сообщ": 453,
      "кон": 454,
      "##бот": 455,
      "##ное": 456,
      "так": 457,
      "##ность": 458,
      "кра": 459,
      "##иц": 460,
      "##орт": 461,
      "##аз": 462,
      "мл": 463,
      "не": 464,
      "пер": 465,
      "##ала": 466,
      "##ствен": 467,
      "воз": 468,
      "##мен": 469,
      "##яб": 470,
      "руб.": 471,
      "##ок": 472,
      "##ова": 473,
      "##ще": 474,
      "##ад": 475,
      "##ис": 476,
      "##ами": 477,
      "уч": 478,
      "##ег": 479,
      "##ител": 480,
      "обла": 481,
      "##ые": 482,
      "##ерж": 483,
      "##ум": 484,
      "ты": 485,
      "##яв": 486,
      "##ского": 487,
      "##ают": 488,
      "ав": 489,
      "ос": 490,
      "##ство": 491,
      "гос": 492,
      "нов": 493,
      "##аци": 494,
      "##ации": 495,
      "##ый": 496,
      "##ила": 497,
      "##ром": 498,
      "##род": 499,
      "году": 500,
      "##ная": 501,
      "пр": 502,
      "оп": 503,
      "##лав": 504,
      "##арт": 505,
      "объ": 506,
      "##уп": 507,
      "##ении": 508,
      "работ": 509,
      "ан": 510,
      "##иров": 511,
      "сов": 512,
      "##с.": 513,
      "суд": 514,
      "##ется": 515,
      "тыс.": 516,
      "##лен": 517,
      "##атель": 518,
      "##прав": 519,
      "##ора": 520,
      "##стан": 521,
      "ме": 522,
      "##ир": 523,
      "реги": 524,
      "котор": 525,
      "де": 526,
      "##ай": 527,
      "##нов": 528,
      "##ня": 529,
      "од": 530,
      "##ке": 531,
      "##ков": 532,
      "комп": 533,
      "пос": 534,
      "##ое": 535,
      "##ус": 536,
      "пл": 537,
      "сам": 538,
      "пере": 539,
      "##аст": 540,
      "##орм": 541,
      "также": 542,
      "это": 543,
      "##ющ": 544,
      "##ений": 545,
      "##ание": 546,
      "##ября": 547,
      "области": 548,
      "##ском": 549,
      "##ании": 550,
      "мо": 551,
      "##ах": 552,
      "##ше": 553,
      "регион": 554,
      "сред": 555,
      "##лю": 556,
      "##иж": 557,
      "##екс": 558,
      "##ыт": 559,
      "##рос": 560,
      "##держ": 561,
      "до": 562,
      "##вод": 563,
      "##сно": 564,
      "мин": 565,
      "ор": 566,
      "сент": 567,
      "##ский": 568,
      "россии": 569,
      "##сь": 570,
      "##олж": 571,
      "##имо": 572,
      "ар": 573,
      "##лед": 574,
      "##иль": 575,
      "кол": 576,
      "##чи": 577,
      "##лад": 578,
      "##та": 579,
      "##ета": 580,
      "прав": 581,
      "##зов": 582,
      "##ици": 583,
      "##гу": 584,
      "##ными": 585,
      "##ную": 586,
      "прод": 587,
      "##льт": 588,
      "##уш": 589,
      "##ены": 590,
      "млн": 591,
      "дв": 592,
      "дел": 593,
      "##ики": 594,
      "пост": 595,
      "ка": 596,
      "эк": 597,
      "##ле": 598,
      "дан": 599,
      "рф": 600,
      "##роп": 601,
      "состав": 602,
      "орг": 603,
      "сентября": 604,
      "ку": 605,
      "##мет": 606,
      "заяв": 607,
      "##дел": 608,
      "##яз": 609,
      "##рет": 610,
      "##руп": 611,
      "получ": 612,
      "пров": 613,
      "нач": 614,
      "проект": 615,
      "стро": 616,
      "##вер": 617,
      "##га": 618,
      "##гра": 619,
      "##за": 620,
      "##анд": 621,
      "##рем": 622,
      "##мер": 623,
      "##овор": 624,
      "разв": 625,
      "авт": 626,
      "ал": 627,
      "те": 628,
      "##ба": 629,
      "##ун": 630,
      "ук": 631,
      "##ников": 632,
      "соб": 633,
      "##служ": 634,
      "рас": 635,
      "россий": 636,
      "лет": 637,
      "чел": 638,
      "##ощ": 639,
      "##лет": 640,
      "госп": 641,
      "##цион": 642,
      "##ось": 643,
      "##ять": 644,
      "инф": 645,
      "мест": 646,
      "##еров": 647,
      "##атер": 648,
      "##люч": 649,
      "ди": 650,
      "ма": 651,
      "ск": 652,
      "##але": 653,
      "##нач": 654,
      "нед": 655,
      "##ления": 656,
      "##ится": 657,
      "##ейств": 658,
      "перв": 659,
      "##ыш": 660,
      "##рд": 661,
      "##гла": 662,
      "##ению": 663,
      "наз": 664,
      "произ": 665,
      "млрд": 666,
      "пом": 667,
      "##вет": 668,
      "##ма": 669,
      "##ести": 670,
      "##ень": 671,
      "##ская": 672,
      "##руд": 673,
      "представ": 674,
      "горо": 675,
      "зап": 676,
      "##ается": 677,
      "исп": 678,
      "ок": 679,
      "##ес": 680,
      "##зд": 681,
      "##ена": 682,
      "##ских": 683,
      "рай": 684,
      "##ател": 685,
      "пресс": 686,
      "вед": 687,
      "глав": 688,
      "нар": 689,
      "##зу": 690,
      "##ализ": 691,
      "##станов": 692,
      "моск": 693,
      "органи": 694,
      "дом": 695,
      "им": 696,
      "##мент": 697,
      "##ым": 698,
      "##реб": 699,
      "##оне": 700,
      "пов": 701,
      "##аб": 702,
      "##ян": 703,
      "##сто": 704,
      "##ана": 705,
      "##ком": 706,
      "##ух": 707,
      "##убл": 708,
      "пресс-": 709,
      "во": 710,
      "фед": 711,
      "##оров": 712,
      "##ими": 713,
      "##иче": 714,
      "красно": 715,
      "сер": 716,
      "ту": 717,
      "##про": 718,
      "##ее": 719,
      "##есп": 720,
      "##зид": 721,
      "##ерн": 722,
      "##ась": 723,
      "пар": 724,
      "цент": 725,
      "##па": 726,
      "##ция": 727,
      "развит": 728,
      "федера": 729,
      "ген": 730,
      "иск": 731,
      "спорт": 732,
      "##зидент": 733,
      "уд": 734,
      "##аж": 735,
      "##рит": 736,
      "направ": 737,
      "##руг": 738,
      "ист": 739,
      "##ающ": 740,
      "ру": 741,
      "##ещ": 742,
      "##юд": 743,
      "##ено": 744,
      "челов": 745,
      "уг": 746,
      "##те": 747,
      "##ших": 748,
      "##ступ": 749,
      "зак": 750,
      "предп": 751,
      "след": 752,
      "основ": 753,
      "долж": 754,
      "##ию": 755,
      "##бур": 756,
      "##уз": 757,
      "##стран": 758,
      "##ству": 759,
      "алекс": 760,
      "господ": 761,
      "ры": 762,
      "ран": 763,
      "сот": 764,
      "связ": 765,
      "спе": 766,
      "без": 767,
      "кв": 768,
      "су": 769,
      "##мест": 770,
      "##казал": 771,
      "строитель": 772,
      "мар": 773,
      "##хран": 774,
      "##стро": 775,
      "прот": 776,
      "президент": 777,
      "инт": 778,
      "человек": 779,
      "сотруд": 780,
      "пот": 781,
      "##пу": 782,
      "##ни": 783,
      "##ление": 784,
      "##мот": 785,
      "##ческ": 786,
      "##енд": 787,
      "##раз": 788,
      "##ские": 789,
      "##она": 790,
      "отно": 791,
      "##ники": 792,
      "##ителей": 793,
      "прин": 794,
      "объект": 795,
      "минист": 796,
      "па": 797,
      "##лож": 798,
      "##ории": 799,
      "согла": 800,
      "приз": 801,
      "##ующ": 802,
      "пресс-служ": 803,
      "боль": 804,
      "вс": 805,
      "##сов": 806,
      "##ук": 807,
      "##олн": 808,
      "которо": 809,
      "зан": 810,
      "ча": 811,
      "##ерс": 812,
      "##еры": 813,
      "##рият": 814,
      "сво": 815,
      "##жду": 816,
      "участ": 817,
      "компании": 818,
      "москв": 819,
      "действ": 820,
      "ог": 821,
      "сч": 822,
      "##сед": 823,
      "##тра": 824,
      "##рект": 825,
      "##стве": 826,
      "реш": 827,
      "ведом": 828,
      "ад": 829,
      "##иш": 830,
      "##иру": 831,
      "##вин": 832,
      "##де": 833,
      "##-за": 834,
      "##енных": 835,
      "послед": 836,
      "рост": 837,
      "тер": 838,
      "##вед": 839,
      "##ры": 840,
      "##це": 841,
      "##-п": 842,
      "##гов": 843,
      "##ул": 844,
      "##аны": 845,
      "акт": 846,
      "сн": 847,
      "##иб": 848,
      "##вел": 849,
      "##мин": 850,
      "##тов": 851,
      "##ящ": 852,
      "##ования": 853,
      "##рок": 854,
      "расс": 855,
      "нап": 856,
      "из-за": 857,
      "##ителя": 858,
      "между": 859,
      "врем": 860,
      "усл": 861,
      "##анов": 862,
      "##олов": 863,
      "##аний": 864,
      "##народ": 865,
      "##ках": 866,
      "##щего": 867,
      "##ней": 868,
      "##лект": 869,
      "##сн": 870,
      "##ура": 871,
      "##сказ": 872,
      "##ностью": 873,
      "тури": 874,
      "международ": 875,
      "буд": 876,
      "матер": 877,
      "##олог": 878,
      "##ому": 879,
      "##ика": 880,
      "обвин": 881,
      "данным": 882,
      "наруш": 883,
      "организ": 884,
      "против": 885,
      "рек": 886,
      "сем": 887,
      "##рыв": 888,
      "##рев": 889,
      "##ением": 890,
      "##ему": 891,
      "наход": 892,
      "стра": 893,
      "отк": 894,
      "##ятель": 895,
      "прим": 896,
      "который": 897,
      "аэ": 898,
      "зд": 899,
      "см": 900,
      "##ош": 901,
      "##еро": 902,
      "##иков": 903,
      "расп": 904,
      "прош": 905,
      "задерж": 906,
      "##ального": 907,
      "поддерж": 908,
      "##уры": 909,
      "сообщает": 910,
      "уча": 911,
      "информ": 912,
      "специ": 913,
      "матери": 914,
      "вз": 915,
      "гра": 916,
      "установ": 917,
      "яв": 918,
      "##ло": 919,
      "##са": 920,
      "##еж": 921,
      "##ди": 922,
      "##ша": 923,
      "созд": 924,
      "##ация": 925,
      "##ковод": 926,
      "эксп": 927,
      "автом": 928,
      "##ощад": 929,
      "время": 930,
      "вод": 931,
      "друг": 932,
      "##кой": 933,
      "##ращ": 934,
      "##но-": 935,
      "##еле": 936,
      "##ата": 937,
      "##атив": 938,
      "##город": 939,
      "стол": 940,
      "выс": 941,
      "необ": 942,
      "##ацию": 943,
      "чет": 944,
      "##ний": 945,
      "##дар": 946,
      "##ущ": 947,
      "общ": 948,
      "сто": 949,
      "ст.": 950,
      "компл": 951,
      "которые": 952,
      "тех": 953,
      "##минист": 954,
      "ап": 955,
      "влад": 956,
      "говор": 957,
      "##мож": 958,
      "##ца": 959,
      "##алог": 960,
      "стал": 961,
      "отмет": 962,
      "##ранич": 963,
      "предлож": 964,
      "##имость": 965,
      "производ": 966,
      "краснодар": 967,
      "господин": 968,
      "ми": 969,
      "тран": 970,
      "управ": 971,
      "##нер": 972,
      "##че": 973,
      "##год": 974,
      "##ерт": 975,
      "поз": 976,
      "##ева": 977,
      "площад": 978,
      "руковод": 979,
      "отнош": 980,
      "вт": 981,
      "вид": 982,
      "##жи": 983,
      "##иту": 984,
      "##альной": 985,
      "подро": 986,
      "##аться": 987,
      "##ической": 988,
      "слов": 989,
      "сообщил": 990,
      "анд": 991,
      "автомоб": 992,
      "иг": 993,
      "ост": 994,
      "рей": 995,
      "сег": 996,
      "чи": 997,
      "##оре": 998,
      "##ним": 999,
      "##уст": 1000,
      "##овской": 1001,
      "##ским": 1002,
      "##отов": 1003,
      "##ются": 1004,
      "##курат": 1005,
      "##опас": 1006,
      "##шего": 1007,
      "директ": 1008,
      "безопас": 1009,
      "пресс-служба": 1010,
      "больш": 1011,
      "террит": 1012,
      "числ": 1013,
      "ат": 1014,
      "груп": 1015,
      "мет": 1016,
      "оч": 1017,
      "##еб": 1018,
      "##ra": 1019,
      "##аты": 1020,
      "##ился": 1021,
      "##рукт": 1022,
      "##редел": 1023,
      "региона": 1024,
      "продолж": 1025,
      "##ропорт": 1026,
      "явля": 1027,
      "необход": 1028,
      "воп": 1029,
      "##иод": 1030,
      "##ти": 1031,
      "##рей": 1032,
      "##ремен": 1033,
      "##илась": 1034,
      "респ": 1035,
      "##альных": 1036,
      "##удар": 1037,
      "##ника": 1038,
      "##куп": 1039,
      "##ического": 1040,
      "государ": 1041,
      "вк": 1042,
      "доб": 1043,
      "тра": 1044,
      "фор": 1045,
      "##аш": 1046,
      "##вал": 1047,
      "##дин": 1048,
      "##упл": 1049,
      "##раж": 1050,
      "##ели": 1051,
      "##ций": 1052,
      "реализ": 1053,
      "##алист": 1054,
      "##нес": 1055,
      "##нее": 1056,
      "##него": 1057,
      "##ических": 1058,
      "возмож": 1059,
      "##ители": 1060,
      "рассказ": 1061,
      "ранее": 1062,
      "огранич": 1063,
      "аэропорт": 1064,
      "комплекс": 1065,
      "бел": 1066,
      "круп": 1067,
      "сша": 1068,
      "##пут": 1069,
      "##ион": 1070,
      "##сы": 1071,
      "##мы": 1072,
      "##цен": 1073,
      "##бы": 1074,
      "##чин": 1075,
      "##ска": 1076,
      "##ило": 1077,
      "стран": 1078,
      "##ному": 1079,
      "конт": 1080,
      "период": 1081,
      "дело": 1082,
      "исполь": 1083,
      "кор": 1084,
      "мом": 1085,
      "сб": 1086,
      "треб": 1087,
      "элект": 1088,
      "##оо": 1089,
      "##ниц": 1090,
      "##ью": 1091,
      "##ант": 1092,
      "##анных": 1093,
      "##режд": 1094,
      "##ерк": 1095,
      "соот": 1096,
      "##иверс": 1097,
      "отд": 1098,
      "объем": 1099,
      "меся": 1100,
      "##имости": 1101,
      "##густ": 1102,
      "культ": 1103,
      "город": 1104,
      "актив": 1105,
      "вопрос": 1106,
      "республ": 1107,
      "ак": 1108,
      "дост": 1109,
      "луч": 1110,
      "мод": 1111,
      "эт": 1112,
      "##аг": 1113,
      "##аем": 1114,
      "##су": 1115,
      "##му": 1116,
      "##етер": 1117,
      "наш": 1118,
      "ответ": 1119,
      "количе": 1120,
      "вос": 1121,
      "дол": 1122,
      "дем": 1123,
      "доро": 1124,
      "зол": 1125,
      "парт": 1126,
      "##ара": 1127,
      "##лей": 1128,
      "##ья": 1129,
      "##-к": 1130,
      "##on": 1131,
      "##енно": 1132,
      "##алось": 1133,
      "##одня": 1134,
      "##ете": 1135,
      "обесп": 1136,
      "сочи": 1137,
      "прив": 1138,
      "##ляет": 1139,
      "##аются": 1140,
      "плани": 1141,
      "##грам": 1142,
      "федераль": 1143,
      "предприят": 1144,
      "рын": 1145,
      "заним": 1146,
      "сегодня": 1147,
      "бесп": 1148,
      "дет": 1149,
      "дев": 1150,
      "куб": 1151,
      "мол": 1152,
      "сф": 1153,
      "сан": 1154,
      "фран": 1155,
      "##пы": 1156,
      "##ну": 1157,
      "##виж": 1158,
      "##яд": 1159,
      "##ший": 1160,
      "##шие": 1161,
      "програм": 1162,
      "сторо": 1163,
      "инв": 1164,
      "##ужд": 1165,
      "август": 1166,
      "деятель": 1167,
      "компания": 1168,
      "города": 1169,
      "уголов": 1170,
      "александ": 1171,
      "админист": 1172,
      "обеспеч": 1173,
      "бюд": 1174,
      "нат": 1175,
      "ситу": 1176,
      "ун": 1177,
      "##ние": 1178,
      "##ером": 1179,
      "##ге": 1180,
      "##раст": 1181,
      "##оло": 1182,
      "зако": 1183,
      "прев": 1184,
      "показ": 1185,
      "выб": 1186,
      "##спорт": 1187,
      "##коном": 1188,
      "арт": 1189,
      "##строй": 1190,
      "участи": 1191,
      "соответ": 1192,
      "##етербур": 1193,
      "золот": 1194,
      "бюдж": 1195,
      "законо": 1196,
      "вла": 1197,
      "гор": 1198,
      "жен": 1199,
      "ию": 1200,
      "пут": 1201,
      "сум": 1202,
      "ч.": 1203,
      "##ниче": 1204,
      "##вар": 1205,
      "##катер": 1206,
      "##меч": 1207,
      "##рен": 1208,
      "##le": 1209,
      "##работ": 1210,
      "##ласс": 1211,
      "##сят": 1212,
      "резу": 1213,
      "полит": 1214,
      "одна": 1215,
      "среди": 1216,
      "двух": 1217,
      "назнач": 1218,
      "призн": 1219,
      "безопасности": 1220,
      "результ": 1221,
      "мен": 1222,
      "увел": 1223,
      "##вор": 1224,
      "##мках": 1225,
      "##рыт": 1226,
      "рамках": 1227,
      "страт": 1228,
      "##стическ": 1229,
      "##евой": 1230,
      "##акт": 1231,
      "##ятся": 1232,
      "##сслед": 1233,
      "##альные": 1234,
      "##ались": 1235,
      "служ": 1236,
      "##ждан": 1237,
      "депут": 1238,
      "заявил": 1239,
      "около": 1240,
      "##ателя": 1241,
      "является": 1242,
      "увелич": 1243,
      "день": 1244,
      "лиш": 1245,
      "мог": 1246,
      "##ап": 1247,
      "##лов": 1248,
      "##лич": 1249,
      "##жим": 1250,
      "##ступл": 1251,
      "##рор": 1252,
      "##рех": 1253,
      "##итет": 1254,
      "##оргов": 1255,
      "##атор": 1256,
      "##ике": 1257,
      "обще": 1258,
      "постав": 1259,
      "инд": 1260,
      "укра": 1261,
      "развития": 1262,
      "суда": 1263,
      "будут": 1264,
      "важ": 1265,
      "исслед": 1266,
      "кар": 1267,
      "люд": 1268,
      "неск": 1269,
      "род": 1270,
      "сил": 1271,
      "тем": 1272,
      "ус": 1273,
      "фин": 1274,
      "ход": 1275,
      "шк": 1276,
      "эта": 1277,
      "##лог": 1278,
      "##дет": 1279,
      "##чен": 1280,
      "##тин": 1281,
      "##ерш": 1282,
      "##оруж": 1283,
      "##атов": 1284,
      "##инов": 1285,
      "##цию": 1286,
      "прода": 1287,
      "став": 1288,
      "поп": 1289,
      "председ": 1290,
      "сообщили": 1291,
      "##роме": 1292,
      "работы": 1293,
      "помощ": 1294,
      "счит": 1295,
      "страны": 1296,
      "словам": 1297,
      "андрей": 1298,
      "территории": 1299,
      "несколь": 1300,
      "биз": 1301,
      "ев": 1302,
      "мно": 1303,
      "мед": 1304,
      "оф": 1305,
      "пра": 1306,
      "фести": 1307,
      "цел": 1308,
      "##сел": 1309,
      "##ерат": 1310,
      "##цев": 1311,
      "##-то": 1312,
      "##ях": 1313,
      "##уру": 1314,
      "##овой": 1315,
      "##ование": 1316,
      "##илот": 1317,
      "##ику": 1318,
      "##икан": 1319,
      "состо": 1320,
      "зам": 1321,
      "##ениях": 1322,
      "##ентов": 1323,
      "отмеч": 1324,
      "выстав": 1325,
      "выпу": 1326,
      "##ссий": 1327,
      "крас": 1328,
      "возб": 1329,
      "особ": 1330,
      "проекта": 1331,
      "недвиж": 1332,
      "районе": 1333,
      "центра": 1334,
      "спортив": 1335,
      "граждан": 1336,
      "второ": 1337,
      "включ": 1338,
      "использов": 1339,
      "бук": 1340,
      "дог": 1341,
      "екатер": 1342,
      "каз": 1343,
      "лю": 1344,
      "сез": 1345,
      "трет": 1346,
      "уров": 1347,
      "цен": 1348,
      "эконом": 1349,
      "##оск": 1350,
      "##ано": 1351,
      "##лев": 1352,
      "##сиров": 1353,
      "##дз": 1354,
      "##говор": 1355,
      "##ует": 1356,
      "##уще": 1357,
      "##er": 1358,
      "##рад": 1359,
      "##ался": 1360,
      "##ерв": 1361,
      "##ине": 1362,
      "завод": 1363,
      "##рий": 1364,
      "##альный": 1365,
      "случ": 1366,
      "доход": 1367,
      "правитель": 1368,
      "глава": 1369,
      "ведомства": 1370,
      "столиц": 1371,
      "четы": 1372,
      "транспорт": 1373,
      "подроб": 1374,
      "контро": 1375,
      "планиру": 1376,
      "беспилот": 1377,
      "гост": 1378,
      "лид": 1379,
      "лиц": 1380,
      "та": 1381,
      "уп": 1382,
      "ут": 1383,
      "##пот": 1384,
      "##ащ": 1385,
      "##иг": 1386,
      "##ины": 1387,
      "##лив": 1388,
      "##бол": 1389,
      "##черк": 1390,
      "##стре": 1391,
      "##олет": 1392,
      "##ствия": 1393,
      "##един": 1394,
      "режим": 1395,
      "подчерк": 1396,
      "рублей": 1397,
      "края": 1398,
      "##ябин": 1399,
      "новых": 1400,
      "кажд": 1401,
      "согласно": 1402,
      "##траф": 1403,
      "стратег": 1404,
      "бан": 1405,
      "воро": 1406,
      "газ": 1407,
      "готов": 1408,
      "зем": 1409,
      "ко": 1410,
      "мэ": 1411,
      "муз": 1412,
      "част": 1413,
      "##нут": 1414,
      "##иф": 1415,
      "##иск": 1416,
      "##лем": 1417,
      "##кова": 1418,
      "##бе": 1419,
      "##ясн": 1420,
      "##оруд": 1421,
      "##онт": 1422,
      "обрат": 1423,
      "соз": 1424,
      "сохран": 1425,
      "отдел": 1426,
      "выступ": 1427,
      "##иться": 1428,
      "##ственного": 1429,
      "ант": 1430,
      "пострад": 1431,
      "вооруж": 1432,
      "специалист": 1433,
      "отметил": 1434,
      "числе": 1435,
      "александр": 1436,
      "люб": 1437,
      "te": 1438,
      "дек": 1439,
      "доп": 1440,
      "зна": 1441,
      "знач": 1442,
      "имен": 1443,
      "кур": 1444,
      "кроме": 1445,
      "пор": 1446,
      "сод": 1447,
      "топ": 1448,
      "##вол": 1449,
      "##мур": 1450,
      "##датель": 1451,
      "##яч": 1452,
      "##енный": 1453,
      "##ност": 1454,
      "оборуд": 1455,
      "##анию": 1456,
      "##акс": 1457,
      "##ально": 1458,
      "##ились": 1459,
      "##истем": 1460,
      "##ечение": 1461,
      "##ывает": 1462,
      "определ": 1463,
      "десят": 1464,
      "каче": 1465,
      "##леж": 1466,
      "произош": 1467,
      "кв.": 1468,
      "услов": 1469,
      "обвиня": 1470,
      "прошл": 1471,
      "стоимость": 1472,
      "директор": 1473,
      "-лет": 1474,
      "аг": 1475,
      "быв": 1476,
      "вер": 1477,
      "ит": 1478,
      "как": 1479,
      "класс": 1480,
      "ник": 1481,
      "нек": 1482,
      "окт": 1483,
      "сказал": 1484,
      "фон": 1485,
      "фут": 1486,
      "##ости": 1487,
      "##иже": 1488,
      "##лек": 1489,
      "##мек": 1490,
      "##ыми": 1491,
      "##ьев": 1492,
      "##яж": 1493,
      "##фер": 1494,
      "##стра": 1495,
      "##енного": 1496,
      "##анные": 1497,
      "##итета": 1498,
      "завер": 1499,
      "##рии": 1500,
      "вып": 1501,
      "##уберн": 1502,
      "##ительно": 1503,
      "разм": 1504,
      "##ические": 1505,
      "таких": 1506,
      "работу": 1507,
      "совет": 1508,
      "соверш": 1509,
      "##ижения": 1510,
      "провед": 1511,
      "##ещения": 1512,
      "президента": 1513,
      "министер": 1514,
      "москвы": 1515,
      "услу": 1516,
      "атак": 1517,
      "момент": 1518,
      "однако": 1519,
      "''": 1520,
      "``": 1521,
      "амер": 1522,
      "бере": 1523,
      "жителей": 1524,
      "лин": 1525,
      "торгов": 1526,
      "ули": 1527,
      "ъ-": 1528,
      "##нем": 1529,
      "##игу": 1530,
      "##ва": 1531,
      "##мит": 1532,
      "##есс": 1533,
      "##ье": 1534,
      "##чив": 1535,
      "##ового": 1536,
      "##алов": 1537,
      "##алась": 1538,
      "##ствующ": 1539,
      "##аров": 1540,
      "прокурат": 1541,
      "стали": 1542,
      "пок": 1543,
      "##миров": 1544,
      "##ходит": 1545,
      "##ически": 1546,
      "изъ": 1547,
      "средств": 1548,
      "##рослав": 1549,
      "проектов": 1550,
      "дома": 1551,
      "име": 1552,
      "заключ": 1553,
      "сотрудниче": 1554,
      "объектов": 1555,
      "которого": 1556,
      "информации": 1557,
      "участие": 1558,
      "могут": 1559,
      "ходе": 1560,
      "бизнес": 1561,
      "букмек": 1562,
      "заверш": 1563,
      "ао": 1564,
      "бар": 1565,
      "гл": 1566,
      "губерн": 1567,
      "дж": 1568,
      "жиз": 1569,
      "ино": 1570,
      "кл": 1571,
      "март": 1572,
      "он": 1573,
      "пят": 1574,
      "фигу": 1575,
      "##них": 1576,
      "##ип": 1577,
      "##еш": 1578,
      "##рим": 1579,
      "##ям": 1580,
      "##разов": 1581,
      "##нок": 1582,
      "##нолог": 1583,
      "##рон": 1584,
      "##инбур": 1585,
      "обс": 1586,
      "зав": 1587,
      "замест": 1588,
      "##риров": 1589,
      "##ениями": 1590,
      "подоз": 1591,
      "##кумент": 1592,
      "##сли": 1593,
      "возд": 1594,
      "##скому": 1595,
      "документ": 1596,
      "кап": 1597,
      "провер": 1598,
      "собствен": 1599,
      "район": 1600,
      "##проект": 1601,
      "генпро": 1602,
      "части": 1603,
      "часть": 1604,
      "здоров": 1605,
      "других": 1606,
      "отдых": 1607,
      "молод": 1608,
      "администра": 1609,
      "универс": 1610,
      "законодатель": 1611,
      "мног": 1612,
      "именно": 1613,
      "итог": 1614,
      "дмит": 1615,
      "жиль": 1616,
      "зар": 1617,
      "мот": 1618,
      "нев": 1619,
      "нез": 1620,
      "норм": 1621,
      "поб": 1622,
      "ян": 1623,
      "##пис": 1624,
      "##лег": 1625,
      "##вд": 1626,
      "##беле": 1627,
      "##gra": 1628,
      "##енной": 1629,
      "##овали": 1630,
      "##анет": 1631,
      "оборо": 1632,
      "##анием": 1633,
      "засед": 1634,
      "пока": 1635,
      "##иях": 1636,
      "##неш": 1637,
      "россия": 1638,
      "##езд": 1639,
      "конку": 1640,
      "объедин": 1641,
      "средства": 1642,
      "составляет": 1643,
      "курор": 1644,
      "провод": 1645,
      "##ышлен": 1646,
      "организов": 1647,
      "истор": 1648,
      "связи": 1649,
      "марк": 1650,
      "человека": 1651,
      "##мотр": 1652,
      "организации": 1653,
      "материале": 1654,
      "владим": 1655,
      "трам": 1656,
      "корп": 1657,
      "доступ": 1658,
      "дембеле": 1659,
      "##мурт": 1660,
      "иностран": 1661,
      "аре": 1662,
      "бол": 1663,
      "вак": 1664,
      "веч": 1665,
      "гол": 1666,
      "гру": 1667,
      "дра": 1668,
      "кат": 1669,
      "кам": 1670,
      "канд": 1671,
      "нал": 1672,
      "оказал": 1673,
      "пс": 1674,
      "публ": 1675,
      "ряд": 1676,
      "сдел": 1677,
      "тов": 1678,
      "факт": 1679,
      "юж": 1680,
      "##о-": 1681,
      "##ира": 1682,
      "##се": 1683,
      "##сон": 1684,
      "##ец": 1685,
      "##длеж": 1686,
      "##ренд": 1687,
      "##цуз": 1688,
      "##ты": 1689,
      "##яна": 1690,
      "##зы": 1691,
      "##ar": 1692,
      "##енные": 1693,
      "##рой": 1694,
      "##оды": 1695,
      "##оры": 1696,
      "##ате": 1697,
      "##особ": 1698,
      "##емп": 1699,
      "соци": 1700,
      "простран": 1701,
      "защ": 1702,
      "##альная": 1703,
      "##еред": 1704,
      "котора": 1705,
      "персон": 1706,
      "тыся": 1707,
      "##ацион": 1708,
      "совета": 1709,
      "##лено": 1710,
      "которых": 1711,
      "регионального": 1712,
      "дости": 1713,
      "маг": 1714,
      "района": 1715,
      "центр": 1716,
      "##ающих": 1717,
      "##ающие": 1718,
      "интер": 1719,
      "соглаш": 1720,
      "эксперт": 1721,
      "стало": 1722,
      "отношении": 1723,
      "необходим": 1724,
      "##муртии": 1725,
      "кандид": 1726,
      "которая": 1727,
      "аут": 1728,
      "дон": 1729,
      "даль": 1730,
      "дум": 1731,
      "зат": 1732,
      "ки": 1733,
      "кос": 1734,
      "мал": 1735,
      "ниж": 1736,
      "пон": 1737,
      "пять": 1738,
      "суб": 1739,
      "сказ": 1740,
      "систем": 1741,
      "форм": 1742,
      "филь": 1743,
      "штраф": 1744,
      "##лении": 1745,
      "##вест": 1746,
      "##смот": 1747,
      "##хоз": 1748,
      "##жа": 1749,
      "##тор": 1750,
      "##яли": 1751,
      "##шим": 1752,
      "##фф": 1753,
      "##an": 1754,
      "##in": 1755,
      "##эт": 1756,
      "##скую": 1757,
      "##готов": 1758,
      "##онов": 1759,
      "образов": 1760,
      "науч": 1761,
      "проф": 1762,
      "##ивает": 1763,
      "появ": 1764,
      "##альное": 1765,
      "##дач": 1766,
      "поль": 1767,
      "##куро": 1768,
      "инст": 1769,
      "разработ": 1770,
      "##ожд": 1771,
      "##ический": 1772,
      "слож": 1773,
      "совмест": 1774,
      "судеб": 1775,
      "место": 1776,
      "склад": 1777,
      "федерации": 1778,
      "строительства": 1779,
      "решение": 1780,
      "последние": 1781,
      "высок": 1782,
      "технолог": 1783,
      "управления": 1784,
      "республики": 1785,
      "бюджет": 1786,
      "власти": 1787,
      "женщ": 1788,
      "##ченко": 1789,
      "несколько": 1790,
      "практ": 1791,
      "недвижимости": 1792,
      "##дзор": 1793,
      "случа": 1794,
      "содерж": 1795,
      "американ": 1796,
      "курорта": 1797,
      "владимир": 1798,
      "бла": 1799,
      "введ": 1800,
      "встре": 1801,
      "жил": 1802,
      "ив": 1803,
      "кит": 1804,
      "коро": 1805,
      "ключ": 1806,
      "ман": 1807,
      "муж": 1808,
      "нем": 1809,
      "налог": 1810,
      "оказ": 1811,
      "пис": 1812,
      "рус": 1813,
      "тел": 1814,
      "трех": 1815,
      "уб": 1816,
      "указ": 1817,
      "##остав": 1818,
      "##иции": 1819,
      "##лось": 1820,
      "##сут": 1821,
      "##мат": 1822,
      "##ыч": 1823,
      "##дум": 1824,
      "##ьер": 1825,
      "##бу": 1826,
      "##чет": 1827,
      "##глав": 1828,
      "##ями": 1829,
      "##овых": 1830,
      "##рал": 1831,
      "##репл": 1832,
      "##орд": 1833,
      "##атар": 1834,
      "##онч": 1835,
      "##отор": 1836,
      "##екар": 1837,
      "наб": 1838,
      "сок": 1839,
      "проис": 1840,
      "стат": 1841,
      "стать": 1842,
      "##наб": 1843,
      "покуп": 1844,
      "##ента": 1845,
      "##евра": 1846,
      "##акон": 1847,
      "##орож": 1848,
      "природ": 1849,
      "иници": 1850,
      "##урн": 1851,
      "##редит": 1852,
      "изб": 1853,
      "область": 1854,
      "мероп": 1855,
      "##няя": 1856,
      "перед": 1857,
      "мощ": 1858,
      "##шее": 1859,
      "начала": 1860,
      "челябин": 1861,
      "маш": 1862,
      "исполн": 1863,
      "повыш": 1864,
      "краснода": 1865,
      "потреб": 1866,
      "действия": 1867,
      "счет": 1868,
      "сниз": 1869,
      "автомобил": 1870,
      "##оохран": 1871,
      "рынке": 1872,
      "августе": 1873,
      "уголовное": 1874,
      "##legra": 1875,
      "школ": 1876,
      "считает": 1877,
      "фестив": 1878,
      "выпуск": 1879,
      "договор": 1880,
      "екатеринбур": 1881,
      "telegra": 1882,
      "инициатив": 1883,
      "мероприят": 1884,
      "telegram": 1885,
      "баз": 1886,
      "баш": 1887,
      "вел": 1888,
      "вик": 1889,
      "зв": 1890,
      "мат": 1891,
      "мус": 1892,
      "макс": 1893,
      "мвд": 1894,
      "ниже": 1895,
      "рос": 1896,
      "смер": 1897,
      "точ": 1898,
      "февра": 1899,
      "##нул": 1900,
      "##кот": 1901,
      "##ких": 1902,
      "##ками": 1903,
      "##мун": 1904,
      "##еп": 1905,
      "##ех": 1906,
      "##ея": 1907,
      "##ющего": 1908,
      "##цы": 1909,
      "##чик": 1910,
      "##шли": 1911,
      "##уре": 1912,
      "##форм": 1913,
      "##ское": 1914,
      "##олож": 1915,
      "##илли": 1916,
      "##ары": 1917,
      "обяз": 1918,
      "##екрет": 1919,
      "стаб": 1920,
      "отмен": 1921,
      "##дает": 1922,
      "предус": 1923,
      "##ляр": 1924,
      "раза": 1925,
      "##номоч": 1926,
      "коми": 1927,
      "##ратив": 1928,
      "свое": 1929,
      "способ": 1930,
      "##точ": 1931,
      "##инадлеж": 1932,
      "##ряд": 1933,
      "##плат": 1934,
      "##ябре": 1935,
      "##иса": 1936,
      "принадлеж": 1937,
      "аналог": 1938,
      "аренд": 1939,
      "##иция": 1940,
      "расш": 1941,
      "помог": 1942,
      "домов": 1943,
      "генера": 1944,
      "источ": 1945,
      "кварт": 1946,
      "москве": 1947,
      "турист": 1948,
      "откры": 1949,
      "сфере": 1950,
      "программ": 1951,
      "стороны": 1952,
      "октября": 1953,
      "улице": 1954,
      "фигуран": 1955,
      "дмитрий": 1956,
      "защит": 1957,
      "тысяч": 1958,
      "##атарстан": 1959,
      "максим": 1960,
      "fm": 1961,
      "бп": 1962,
      "бл": 1963,
      "бор": 1964,
      "вол": 1965,
      "вой": 1966,
      "времен": 1967,
      "диз": 1968,
      "еди": 1969,
      "един": 1970,
      "ипот": 1971,
      "лич": 1972,
      "ооо": 1973,
      "рем": 1974,
      "сы": 1975,
      "сро": 1976,
      "сев": 1977,
      "течение": 1978,
      "хран": 1979,
      "чемп": 1980,
      "ярослав": 1981,
      "##арат": 1982,
      "##ват": 1983,
      "##есть": 1984,
      "##хов": 1985,
      "##рин": 1986,
      "##бо": 1987,
      "##боль": 1988,
      "##es": 1989,
      "##энер": 1990,
      "##овать": 1991,
      "##ало": 1992,
      "##ске": 1993,
      "##ину": 1994,
      "##ота": 1995,
      "##ствие": 1996,
      "##лаг": 1997,
      "общего": 1998,
      "##рив": 1999,
      "##руж": 2000,
      "##ивать": 2001,
      "пож": 2002,
      "поч": 2003,
      "регу": 2004,
      "выдел": 2005,
      "подт": 2006,
      "подпис": 2007,
      "приговор": 2008,
      "предостав": 2009,
      "коммер": 2010,
      "свет": 2011,
      "своб": 2012,
      "##ечения": 2013,
      "перм": 2014,
      "##ственных": 2015,
      "##щее": 2016,
      "учрежд": 2017,
      "новый": 2018,
      "##артам": 2019,
      "анна": 2020,
      "современ": 2021,
      "##лена": 2022,
      "одного": 2023,
      "арм": 2024,
      "дела": 2025,
      "событ": 2026,
      "масс": 2027,
      "##атели": 2028,
      "наркот": 2029,
      "суще": 2030,
      "потер": 2031,
      "министр": 2032,
      "##цесс": 2033,
      "##-петербур": 2034,
      "туристическ": 2035,
      "примен": 2036,
      "мира": 2037,
      "позвол": 2038,
      "виде": 2039,
      "группы": 2040,
      "добав": 2041,
      "белгород": 2042,
      "француз": 2043,
      "##раструкт": 2044,
      "продаж": 2045,
      "некотор": 2046,
      "выполн": 2047,
      "жизни": 2048,
      "генпрокурат": 2049,
      "аутиз": 2050,
      "##набж": 2051,
      "бпла": 2052,
      "асс": 2053,
      "би": 2054,
      "ве": 2055,
      "верс": 2056,
      "гу": 2057,
      "дсн": 2058,
      "жел": 2059,
      "зн": 2060,
      "идет": 2061,
      "кли": 2062,
      "кредит": 2063,
      "много": 2064,
      "маст": 2065,
      "нан": 2066,
      "нуж": 2067,
      "ноч": 2068,
      "остав": 2069,
      "срок": 2070,
      "тру": 2071,
      "устрой": 2072,
      "уточ": 2073,
      "фоне": 2074,
      "час": 2075,
      "шт": 2076,
      "##нар": 2077,
      "##ией": 2078,
      "##во": 2079,
      "##с-": 2080,
      "##смен": 2081,
      "##ман": 2082,
      "##мышлен": 2083,
      "##чит": 2084,
      "##шей": 2085,
      "##укт": 2086,
      "##фик": 2087,
      "##vi": 2088,
      "##ерб": 2089,
      "##илия": 2090,
      "раст": 2091,
      "##еки": 2092,
      "##еда": 2093,
      "процесс": 2094,
      "структ": 2095,
      "##рид": 2096,
      "преступл": 2097,
      "рез": 2098,
      "выяв": 2099,
      "##дают": 2100,
      "причин": 2101,
      "##ляют": 2102,
      "##кт-петербур": 2103,
      "измен": 2104,
      "извест": 2105,
      "сообщал": 2106,
      "несмот": 2107,
      "объяв": 2108,
      "работа": 2109,
      "работе": 2110,
      "##ирован": 2111,
      "##айте": 2112,
      "компаний": 2113,
      "миним": 2114,
      "##числ": 2115,
      "права": 2116,
      "постро": 2117,
      "эколог": 2118,
      "данные": 2119,
      "начале": 2120,
      "укрепл": 2121,
      "инфраструкт": 2122,
      "##парат": 2123,
      "развитие": 2124,
      "основе": 2125,
      "должность": 2126,
      "строительство": 2127,
      "интере": 2128,
      "приним": 2129,
      "министра": 2130,
      "ростовской": 2131,
      "наприм": 2132,
      "смог": 2133,
      "задержали": 2134,
      "говорится": 2135,
      "очень": 2136,
      "рассказал": 2137,
      "ограничений": 2138,
      "количество": 2139,
      "##-кан": 2140,
      "санкт-петербур": 2141,
      "деятельности": 2142,
      "ситуации": 2143,
      "превыш": 2144,
      "деньги": 2145,
      "состоян": 2146,
      "возбуд": 2147,
      "четыре": 2148,
      "каждый": 2149,
      "музы": 2150,
      "обвиняем": 2151,
      "футбол": 2152,
      "##ферен": 2153,
      "незакон": 2154,
      "кандидат": 2155,
      "##ффект": 2156,
      "telegram-кан": 2157,
      "генераль": 2158,
      "чемпион": 2159,
      "дснв": 2160,
      "несмотря": 2161,
      "например": 2162,
      "вним": 2163,
      "гран": 2164,
      "дов": 2165,
      "лик": 2166,
      "мн": 2167,
      "оск": 2168,
      "пав": 2169,
      "порт": 2170,
      "паци": 2171,
      "ссы": 2172,
      "тать": 2173,
      "фил": 2174,
      "физ": 2175,
      "цит": 2176,
      "энер": 2177,
      "язы": 2178,
      "##пе": 2179,
      "##пром": 2180,
      "##воз": 2181,
      "##дут": 2182,
      "##ял": 2183,
      "##ru": 2184,
      "##овый": 2185,
      "##раф": 2186,
      "##алит": 2187,
      "##еть": 2188,
      "##ерд": 2189,
      "##атора": 2190,
      "##отова": 2191,
      "##ством": 2192,
      "##лась": 2193,
      "##ламент": 2194,
      "образ": 2195,
      "обращ": 2196,
      "насто": 2197,
      "насел": 2198,
      "проб": 2199,
      "стала": 2200,
      "##риру": 2201,
      "прем": 2202,
      "поэт": 2203,
      "реб": 2204,
      "##евых": 2205,
      "##ором": 2206,
      "##изо": 2207,
      "##изации": 2208,
      "приост": 2209,
      "##алид": 2210,
      "полиц": 2211,
      "##лиж": 2212,
      "##ожа": 2213,
      "##ическое": 2214,
      "изуч": 2215,
      "сообщила": 2216,
      "конст": 2217,
      "возглав": 2218,
      "област": 2219,
      "опыт": 2220,
      "одно": 2221,
      "самар": 2222,
      "самолет": 2223,
      "продукт": 2224,
      "поступ": 2225,
      "составила": 2226,
      "назв": 2227,
      "представитель": 2228,
      "главы": 2229,
      "поврежд": 2230,
      "парламент": 2231,
      "спорта": 2232,
      "удмуртии": 2233,
      "сотрудники": 2234,
      "принят": 2235,
      "роста": 2236,
      "расслед": 2237,
      "международной": 2238,
      "взрыв": 2239,
      "краснодарского": 2240,
      "подрост": 2241,
      "автомобиль": 2242,
      "метал": 2243,
      "реализации": 2244,
      "восп": 2245,
      "предприятия": 2246,
      "рынка": 2247,
      "инвести": 2248,
      "инвалид": 2249,
      "соответствующ": 2250,
      "людей": 2251,
      "финан": 2252,
      "помощь": 2253,
      "офици": 2254,
      "второй": 2255,
      "сезон": 2256,
      "правительства": 2257,
      "столицы": 2258,
      "подробнее": 2259,
      "планируется": 2260,
      "беспилотников": 2261,
      "вороне": 2262,
      "##яснил": 2263,
      "администрации": 2264,
      "арест": 2265,
      "свободы": 2266,
      "цитата": 2267,
      "полицей": 2268,
      "-м": 2269,
      "wa": 2270,
      "всп": 2271,
      "вза": 2272,
      "диверс": 2273,
      "ль": 2274,
      "мас": 2275,
      "миров": 2276,
      "меры": 2277,
      "ох": 2278,
      "ож": 2279,
      "ош": 2280,
      "сх": 2281,
      "сизо": 2282,
      "тек": 2283,
      "татарстан": 2284,
      "уст": 2285,
      "фили": 2286,
      "фун": 2287,
      "##оны": 2288,
      "##ипа": 2289,
      "##кв": 2290,
      "##кции": 2291,
      "##мо": 2292,
      "##дент": 2293,
      "##ься": 2294,
      "##рь": 2295,
      "##цент": 2296,
      "##te": 2297,
      "##яс": 2298,
      "##шен": 2299,
      "##шем": 2300,
      "##00": 2301,
      "##en": 2302,
      "##il": 2303,
      "##стриров": 2304,
      "##ован": 2305,
      "##овые": 2306,
      "##овета": 2307,
      "##роч": 2308,
      "##реги": 2309,
      "##оснабж": 2310,
      "##едж": 2311,
      "национ": 2312,
      "наде": 2313,
      "надзор": 2314,
      "станет": 2315,
      "прек": 2316,
      "попу": 2317,
      "отра": 2318,
      "реч": 2319,
      "##алья": 2320,
      "##дачи": 2321,
      "##утер": 2322,
      "##кирии": 2323,
      "##опол": 2324,
      "свой": 2325,
      "##тора": 2326,
      "контра": 2327,
      "возв": 2328,
      "нового": 2329,
      "опубл": 2330,
      "##айд": 2331,
      "##ижение": 2332,
      "доказ": 2333,
      "колон": 2334,
      "получил": 2335,
      "##верд": 2336,
      "расход": 2337,
      "российского": 2338,
      "российских": 2339,
      "запрет": 2340,
      "##ателей": 2341,
      "имуще": 2342,
      "следует": 2343,
      "алексей": 2344,
      "господина": 2345,
      "пресс-службе": 2346,
      "всеро": 2347,
      "участников": 2348,
      "##ирует": 2349,
      "напом": 2350,
      "туриз": 2351,
      "семь": 2352,
      "находится": 2353,
      "открыт": 2354,
      "руководитель": 2355,
      "игор": 2356,
      "рейтин": 2357,
      "государствен": 2358,
      "этим": 2359,
      "нато": 2360,
      "артем": 2361,
      "председателя": 2362,
      "европ": 2363,
      "отмечает": 2364,
      "тасс": 2365,
      "##ащих": 2366,
      "земель": 2367,
      "декаб": 2368,
      "беремен": 2369,
      "заседании": 2370,
      "конкур": 2371,
      "##курора": 2372,
      "нужно": 2373,
      "взаим": 2374,
      "всероссий": 2375,
      "au": 2376,
      "ана": 2377,
      "бренд": 2378,
      "вп": 2379,
      "вн": 2380,
      "вов": 2381,
      "вход": 2382,
      "вмест": 2383,
      "дро": 2384,
      "житель": 2385,
      "лог": 2386,
      "лаз": 2387,
      "мм": 2388,
      "м.": 2389,
      "мая": 2390,
      "мир": 2391,
      "пыт": 2392,
      "пун": 2393,
      "сель": 2394,
      "сарат": 2395,
      "цены": 2396,
      "чай": 2397,
      "##нич": 2398,
      "##ида": 2399,
      "##лия": 2400,
      "##лению": 2401,
      "##сен": 2402,
      "##сай": 2403,
      "##ыше": 2404,
      "##еф": 2405,
      "##дици": 2406,
      "##бит": 2407,
      "##боч": 2408,
      "##-м": 2409,
      "##яй": 2410,
      "##фл": 2411,
      "##ch": 2412,
      "##ноб": 2413,
      "##анс": 2414,
      "##анской": 2415,
      "##анова": 2416,
      "##одейств": 2417,
      "##ети": 2418,
      "##елен": 2419,
      "##ола": 2420,
      "##илет": 2421,
      "##гот": 2422,
      "##ону": 2423,
      "##арь": 2424,
      "обл": 2425,
      "обнар": 2426,
      "промышлен": 2427,
      "##ойчив": 2428,
      "##спект": 2429,
      "##ссии": 2430,
      "прием": 2431,
      "приоб": 2432,
      "##миру": 2433,
      "##ником": 2434,
      "##никам": 2435,
      "##след": 2436,
      "разре": 2437,
      "##остро": 2438,
      "##ывают": 2439,
      "край": 2440,
      "##ице": 2441,
      "##ственные": 2442,
      "##аций": 2443,
      "опера": 2444,
      "судов": 2445,
      "судей": 2446,
      "деф": 2447,
      "посел": 2448,
      "плат": 2449,
      "##ющих": 2450,
      "##люд": 2451,
      "движения": 2452,
      "куз": 2453,
      "##град": 2454,
      "##басс": 2455,
      "месте": 2456,
      "первого": 2457,
      "##еслав": 2458,
      "серг": 2459,
      "спортсмен": 2460,
      "удов": 2461,
      "##тех": 2462,
      "нарушения": 2463,
      "располож": 2464,
      "другие": 2465,
      "общей": 2466,
      "общая": 2467,
      "апре": 2468,
      "говорит": 2469,
      "государства": 2470,
      "форум": 2471,
      "требования": 2472,
      "электро": 2473,
      "месяц": 2474,
      "культуры": 2475,
      "ответствен": 2476,
      "восстанов": 2477,
      "девоч": 2478,
      "бюджета": 2479,
      "сумма": 2480,
      "службы": 2481,
      "исследов": 2482,
      "попыт": 2483,
      "целом": 2484,
      "возбужд": 2485,
      "режима": 2486,
      "подчеркнул": 2487,
      "топ-": 2488,
      "##ячеслав": 2489,
      "оборудования": 2490,
      "губернатор": 2491,
      "завис": 2492,
      "молодеж": 2493,
      "итогам": 2494,
      "псж": 2495,
      "случае": 2496,
      "ремонт": 2497,
      "татьяна": 2498,
      "ребен": 2499,
      "приостанов": 2500,
      "устойчив": 2501,
      "речь": 2502,
      "опубликов": 2503,
      "пункт": 2504,
      "обнаруж": 2505,
      "-й": 2506,
      "-го": 2507,
      "Моск": 2508,
      "Росс": 2509,
      "ближ": 2510,
      "верн": 2511,
      "вице": 2512,
      "вячеслав": 2513,
      "госс": 2514,
      "дня": 2515,
      "дутер": 2516,
      "журн": 2517,
      "игра": 2518,
      "км": 2519,
      "лег": 2520,
      "лес": 2521,
      "мост": 2522,
      "мун": 2523,
      "но": 2524,
      "ом": 2525,
      "пиш": 2526,
      "пекар": 2527,
      "ром": 2528,
      "срав": 2529,
      "трав": 2530,
      "тур": 2531,
      "тяж": 2532,
      "ул": 2533,
      "ущ": 2534,
      "уф": 2535,
      "хот": 2536,
      "хоз": 2537,
      "эффект": 2538,
      "яр": 2539,
      "##пол": 2540,
      "##ох": 2541,
      "##оф": 2542,
      "##лу": 2543,
      "##лкой": 2544,
      "##сет": 2545,
      "##ыс": 2546,
      "##жен": 2547,
      "##цов": 2548,
      "##цет": 2549,
      "##бин": 2550,
      "##знач": 2551,
      "##енци": 2552,
      "##роз": 2553,
      "##ань": 2554,
      "##ану": 2555,
      "##рел": 2556,
      "##сколь": 2557,
      "##итар": 2558,
      "##орий": 2559,
      "##илось": 2560,
      "##инг": 2561,
      "##аря": 2562,
      "намер": 2563,
      "проход": 2564,
      "стар": 2565,
      "##риз": 2566,
      "##ивают": 2567,
      "поги": 2568,
      "##авших": 2569,
      "отлич": 2570,
      "отсут": 2571,
      "выход": 2572,
      "подс": 2573,
      "прич": 2574,
      "предвар": 2575,
      "полина": 2576,
      "инци": 2577,
      "##ительного": 2578,
      "##ительной": 2579,
      "##ительные": 2580,
      "##льных": 2581,
      "свыше": 2582,
      "спрос": 2583,
      "##ече": 2584,
      "констан": 2585,
      "##ицин": 2586,
      "##ственно": 2587,
      "новые": 2588,
      "опас": 2589,
      "судь": 2590,
      "##ленных": 2591,
      "посв": 2592,
      "##ющий": 2593,
      "сентябре": 2594,
      "коллект": 2595,
      "продав": 2596,
      "продук": 2597,
      "##верен": 2598,
      "российской": 2599,
      "##летвор": 2600,
      "госпожа": 2601,
      "запад": 2602,
      "серь": 2603,
      "направления": 2604,
      "##ствует": 2605,
      "спец": 2606,
      "потенци": 2607,
      "относ": 2608,
      "которое": 2609,
      "информация": 2610,
      "материал": 2611,
      "четвер": 2612,
      "предложения": 2613,
      "транс": 2614,
      "##годно": 2615,
      "комплекса": 2616,
      "городов": 2617,
      "привлек": 2618,
      "предприятий": 2619,
      "кубани": 2620,
      "административ": 2621,
      "ситуация": 2622,
      "артист": 2623,
      "июле": 2624,
      "депутатов": 2625,
      "ставки": 2626,
      "особенно": 2627,
      "уровня": 2628,
      "частности": 2629,
      "созыв": 2630,
      "пострадали": 2631,
      "дополн": 2632,
      "качестве": 2633,
      "фонд": 2634,
      "услуг": 2635,
      "изъят": 2636,
      "подозрев": 2637,
      "капит": 2638,
      "отдыха": 2639,
      "маркет": 2640,
      "трампа": 2641,
      "вечером": 2642,
      "катег": 2643,
      "пространство": 2644,
      "дональ": 2645,
      "дальней": 2646,
      "предусмотр": 2647,
      "коммерческ": 2648,
      "проблем": 2649,
      "поэтому": 2650,
      "##еджеров": 2651,
      "контракт": 2652,
      "возвращ": 2653,
      "разреш": 2654,
      "ближай": 2655,
      "дутерте": 2656,
      "сравн": 2657,
      "погиб": 2658,
      "3p": 2659,
      "бон": 2660,
      "бог": 2661,
      "бала": 2662,
      "вост": 2663,
      "винов": 2664,
      "внут": 2665,
      "гим": 2666,
      "еже": 2667,
      "ерев": 2668,
      "иде": 2669,
      "кр": 2670,
      "лок": 2671,
      "ны": 2672,
      "ожи": 2673,
      "олег": 2674,
      "ри": 2675,
      "син": 2676,
      "сим": 2677,
      "сми": 2678,
      "суп": 2679,
      "сцен": 2680,
      "твор": 2681,
      "усп": 2682,
      "устран": 2683,
      "чер": 2684,
      "член": 2685,
      "ши": 2686,
      "##пп": 2687,
      "##оян": 2688,
      "##нет": 2689,
      "##ищ": 2690,
      "##кий": 2691,
      "##ме": 2692,
      "##мон": 2693,
      "##ыз": 2694,
      "##-с": 2695,
      "##яет": 2696,
      "##ув": 2697,
      "##зв": 2698,
      "##l-": 2699,
      "##di": 2700,
      "##kon": 2701,
      "##овал": 2702,
      "##раб": 2703,
      "##ане": 2704,
      "##алин": 2705,
      "##скими": 2706,
      "##елей": 2707,
      "##итут": 2708,
      "##итания": 2709,
      "##орв": 2710,
      "##илов": 2711,
      "##илиз": 2712,
      "##онст": 2713,
      "рабоч": 2714,
      "нас": 2715,
      "нак": 2716,
      "наказ": 2717,
      "наиб": 2718,
      "соп": 2719,
      "прокурора": 2720,
      "закуп": 2721,
      "зареги": 2722,
      "##руз": 2723,
      "##евого": 2724,
      "выступл": 2725,
      "##аку": 2726,
      "##альным": 2727,
      "##дается": 2728,
      "##есков": 2729,
      "привод": 2730,
      "##ограф": 2731,
      "предмет": 2732,
      "полностью": 2733,
      "##сло": 2734,
      "##ительных": 2735,
      "разных": 2736,
      "##рать": 2737,
      "##лиров": 2738,
      "сверд": 2739,
      "##езда": 2740,
      "##платы": 2741,
      "крае": 2742,
      "неп": 2743,
      "авар": 2744,
      "осв": 2745,
      "операт": 2746,
      "аналит": 2747,
      "##ировать": 2748,
      "совете": 2749,
      "##орах": 2750,
      "меж": 2751,
      "самой": 2752,
      "самых": 2753,
      "арх": 2754,
      "арбит": 2755,
      "две": 2756,
      "составил": 2757,
      "составля": 2758,
      "##метьев": 2759,
      "началь": 2760,
      "теат": 2761,
      "российские": 2762,
      "инфля": 2763,
      "первом": 2764,
      "назад": 2765,
      "назвал": 2766,
      "представители": 2767,
      "развитию": 2768,
      "должен": 2769,
      "рынок": 2770,
      "интерн": 2771,
      "пара": 2772,
      "своей": 2773,
      "ведомство": 2774,
      "адре": 2775,
      "##ируют": 2776,
      "последний": 2777,
      "снижения": 2778,
      "##ибир": 2779,
      "рекорд": 2780,
      "семей": 2781,
      "находятся": 2782,
      "пример": 2783,
      "распредел": 2784,
      "взят": 2785,
      "создание": 2786,
      "апартам": 2787,
      "владими": 2788,
      "предложение": 2789,
      "рейсов": 2790,
      "директоров": 2791,
      "большин": 2792,
      "очеред": 2793,
      "необходимо": 2794,
      "формиру": 2795,
      "возможность": 2796,
      "аэропорту": 2797,
      "крупных": 2798,
      "месяца": 2799,
      "культур": 2800,
      "этих": 2801,
      "партии": 2802,
      "##аракт": 2803,
      "детей": 2804,
      "наталья": 2805,
      "законопроект": 2806,
      "власт": 2807,
      "путин": 2808,
      "результате": 2809,
      "менее": 2810,
      "лишения": 2811,
      "украин": 2812,
      "включая": 2813,
      "треть": 2814,
      "##левская": 2815,
      "##ers": 2816,
      "контроля": 2817,
      "стратегических": 2818,
      "прошлого": 2819,
      "агент": 2820,
      "заместителя": 2821,
      "воздуш": 2822,
      "многие": 2823,
      "мотыз": 2824,
      "январ": 2825,
      "голос": 2826,
      "оказался": 2827,
      "достиг": 2828,
      "интерф": 2829,
      "професс": 2830,
      "институт": 2831,
      "##матрив": 2832,
      "статус": 2833,
      "краснодара": 2834,
      "башкирии": 2835,
      "стабиль": 2836,
      "аналогич": 2837,
      "расшир": 2838,
      "##риним": 2839,
      "мастер": 2840,
      "изменения": 2841,
      "кандидатуру": 2842,
      "ссылкой": 2843,
      "металл": 2844,
      "льгот": 2845,
      "##ясня": 2846,
      "взаимодейств": 2847,
      "внед": 2848,
      "вместе": 2849,
      "сергей": 2850,
      "удовлетвор": 2851,
      "инцидент": 2852,
      "константин": 2853,
      "коллектив": 2854,
      "серьез": 2855,
      "3pl-": 2856,
      "гимна": 2857,
      "зарегистриров": 2858,
      "арбитраж": 2859,
      "мотызлевская": 2860,
      "20": 2861,
      "ikon": 2862,
      "Кра": 2863,
      "аль": 2864,
      "ба": 2865,
      "бал": 2866,
      "внеш": 2867,
      "га": 2868,
      "гри": 2869,
      "держ": 2870,
      "жив": 2871,
      "жителя": 2872,
      "коп": 2873,
      "кир": 2874,
      "крит": 2875,
      "мих": 2876,
      "милли": 2877,
      "пла": 2878,
      "петербур": 2879,
      "роз": 2880,
      "риск": 2881,
      "сад": 2882,
      "секрет": 2883,
      "тон": 2884,
      "труд": 2885,
      "хол": 2886,
      "характ": 2887,
      "шест": 2888,
      "эн": 2889,
      "##оци": 2890,
      "##нев": 2891,
      "##лон": 2892,
      "##верж": 2893,
      "##сб": 2894,
      "##сур": 2895,
      "##кин": 2896,
      "##кого": 2897,
      "##крет": 2898,
      "##ьера": 2899,
      "##цени": 2900,
      "##бой": 2901,
      "##to": 2902,
      "##-на": 2903,
      "##гский": 2904,
      "##шая": 2905,
      "##йти": 2906,
      "##зем": 2907,
      "##la": 2908,
      "##ro": 2909,
      "##et": 2910,
      "##енз": 2911,
      "##енном": 2912,
      "##овая": 2913,
      "##рач": 2914,
      "##ску": 2915,
      "##ско-": 2916,
      "##ерной": 2917,
      "##еля": 2918,
      "##елоп": 2919,
      "##ита": 2920,
      "##орг": 2921,
      "##ормиров": 2922,
      "##иля": 2923,
      "##инам": 2924,
      "##икации": 2925,
      "соц": 2926,
      "просто": 2927,
      "зах": 2928,
      "зад": 2929,
      "заб": 2930,
      "заказ": 2931,
      "препарат": 2932,
      "##нащ": 2933,
      "##обус": 2934,
      "##иваться": 2935,
      "позд": 2936,
      "посколь": 2937,
      "##енты": 2938,
      "отраж": 2939,
      "отчисл": 2940,
      "ресур": 2941,
      "##рован": 2942,
      "вырос": 2943,
      "##орон": 2944,
      "##ссаж": 2945,
      "подъ": 2946,
      "подход": 2947,
      "подраз": 2948,
      "подготов": 2949,
      "приш": 2950,
      "прибы": 2951,
      "различ": 2952,
      "спик": 2953,
      "спект": 2954,
      "##то-то": 2955,
      "##плей": 2956,
      "##ждения": 2957,
      "конце": 2958,
      "конца": 2959,
      "конферен": 2960,
      "конкрет": 2961,
      "такие": 2962,
      "перен": 2963,
      "##ственный": 2964,
      "возраст": 2965,
      "оснащ": 2966,
      "новой": 2967,
      "##ацией": 2968,
      "судостро": 2969,
      "##ательных": 2970,
      "одним": 2971,
      "мошен": 2972,
      "регионе": 2973,
      "среднем": 2974,
      "достав": 2975,
      "##таб": 2976,
      "##ицип": 2977,
      "экс-": 2978,
      "данный": 2979,
      "получили": 2980,
      "получила": 2981,
      "автобус": 2982,
      "тепл": 2983,
      "собран": 2984,
      "первый": 2985,
      "помимо": 2986,
      "запас": 2987,
      "##ателем": 2988,
      "москов": 2989,
      "имени": 2990,
      "вошли": 2991,
      "серв": 2992,
      "развитии": 2993,
      "федерация": 2994,
      "истории": 2995,
      "##ещение": 2996,
      "закон": 2997,
      "объекты": 2998,
      "пассаж": 2999,
      "всу": 3000,
      "свои": 3001,
      "своих": 3002,
      "##ологии": 3003,
      "открыв": 3004,
      "отношений": 3005,
      "большой": 3006,
      "традици": 3007,
      "##валя": 3008,
      "стране": 3009,
      "сбор": 3010,
      "##нице": 3011,
      "месяцев": 3012,
      "активно": 3013,
      "модель": 3014,
      "##сугский": 3015,
      "доля": 3016,
      "дорож": 3017,
      "партнер": 3018,
      "##еннослуж": 3019,
      "##апсугский": 3020,
      "исследования": 3021,
      "усилия": 3022,
      "школь": 3023,
      "председатель": 3024,
      "оформ": 3025,
      "доходов": 3026,
      "четырех": 3027,
      "подробности": 3028,
      "гостей": 3029,
      "мэр": 3030,
      "специалистов": 3031,
      "##ностей": 3032,
      "оборудование": 3033,
      "стоимостью": 3034,
      "-летний": 3035,
      "бывший": 3036,
      "верхов": 3037,
      "фонда": 3038,
      "министерства": 3039,
      "услуги": 3040,
      "атаки": 3041,
      "прокуратура": 3042,
      "барсел": 3043,
      "глоб": 3044,
      "клуб": 3045,
      "марта": 3046,
      "марте": 3047,
      "подозр": 3048,
      "побед": 3049,
      "вакц": 3050,
      "налич": 3051,
      "магаз": 3052,
      "практически": 3053,
      "благод": 3054,
      "ключев": 3055,
      "сократ": 3056,
      "челябинской": 3057,
      "екатеринбурга": 3058,
      "смерт": 3059,
      "отменены": 3060,
      "своего": 3061,
      "борь": 3062,
      "дизай": 3063,
      "##энерго": 3064,
      "учреждения": 3065,
      "некоторых": 3066,
      "весь": 3067,
      "минимум": 3068,
      "состоянии": 3069,
      "музык": 3070,
      "внимание": 3071,
      "ликв": 3072,
      "павел": 3073,
      "самарской": 3074,
      "воронеж": 3075,
      "татарстане": 3076,
      "колонии": 3077,
      "туризма": 3078,
      "европей": 3079,
      "журналист": 3080,
      "пишет": 3081,
      "хозяй": 3082,
      "посвящ": 3083,
      "нынеш": 3084,
      "поскольку": 3085,
      "co": 3086,
      "аз": 3087,
      "боб": 3088,
      "баб": 3089,
      "вал": 3090,
      "век": 3091,
      "гум": 3092,
      "дал": 3093,
      "для": 3094,
      "дона": 3095,
      "жители": 3096,
      "ир": 3097,
      "кан": 3098,
      "кас": 3099,
      "крем": 3100,
      "клет": 3101,
      "оно": 3102,
      "оль": 3103,
      "п.": 3104,
      "пет": 3105,
      "сал": 3106,
      "сос": 3107,
      "сайте": 3108,
      "тро": 3109,
      "тан": 3110,
      "тест": 3111,
      "фас": 3112,
      "цель": 3113,
      "цена": 3114,
      "циф": 3115,
      "шести": 3116,
      "шапсугский": 3117,
      "эмо": 3118,
      "##под": 3119,
      "##ока": 3120,
      "##ню": 3121,
      "##нит": 3122,
      "##лит": 3123,
      "##лением": 3124,
      "##кл": 3125,
      "##ким": 3126,
      "##кие": 3127,
      "##кцион": 3128,
      "##мос": 3129,
      "##мана": 3130,
      "##еев": 3131,
      "##чат": 3132,
      "##-д": 3133,
      "##гля": 3134,
      "##шру": 3135,
      "##шему": 3136,
      "##уй": 3137,
      "##уют": 3138,
      "##фю": 3139,
      "##эк": 3140,
      "##енко": 3141,
      "##енная": 3142,
      "##ресс": 3143,
      "##реда": 3144,
      "##еру": 3145,
      "##ела": 3146,
      "##олня": 3147,
      "##олномоч": 3148,
      "обуч": 3149,
      "обмен": 3150,
      "обнов": 3151,
      "рад": 3152,
      "##сян": 3153,
      "##екции": 3154,
      "##емся": 3155,
      "нами": 3156,
      "сою": 3157,
      "##ейн": 3158,
      "запл": 3159,
      "зафик": 3160,
      "##руч": 3161,
      "##нав": 3162,
      "##обнов": 3163,
      "пояснил": 3164,
      "отправ": 3165,
      "год.": 3166,
      "речи": 3167,
      "выд": 3168,
      "##ороссий": 3169,
      "##альном": 3170,
      "подряд": 3171,
      "##иями": 3172,
      "предлаг": 3173,
      "полу": 3174,
      "##равоохран": 3175,
      "##ереж": 3176,
      "##культ": 3177,
      "##ительным": 3178,
      "##ительное": 3179,
      "комитет": 3180,
      "##лиру": 3181,
      "##операт": 3182,
      "##ическим": 3183,
      "##ическую": 3184,
      "##иду": 3185,
      "##жерок": 3186,
      "##ывать": 3187,
      "##очно": 3188,
      "конц": 3189,
      "возобнов": 3190,
      "##ителем": 3191,
      "новое": 3192,
      "##ировали": 3193,
      "переговор": 3194,
      "регионов": 3195,
      "##чиной": 3196,
      "двум": 3197,
      "составит": 3198,
      "алина": 3199,
      "места": 3200,
      "мае": 3201,
      "скоро": 3202,
      "недопол": 3203,
      "серге": 3204,
      "парфю": 3205,
      "иску": 3206,
      "искус": 3207,
      "направлении": 3208,
      "угро": 3209,
      "следствие": 3210,
      "должности": 3211,
      "##ствуют": 3212,
      "маршру": 3213,
      "пао": 3214,
      "котором": 3215,
      "своем": 3216,
      "участка": 3217,
      "решения": 3218,
      "##ящий": 3219,
      "##ящих": 3220,
      "обвинения": 3221,
      "реки": 3222,
      "здравоохран": 3223,
      "##ероят": 3224,
      "поддержки": 3225,
      "##директ": 3226,
      "водо": 3227,
      "воды": 3228,
      "управля": 3229,
      "втор": 3230,
      "автомобили": 3231,
      "атмос": 3232,
      "метод": 3233,
      "крупней": 3234,
      "использу": 3235,
      "требов": 3236,
      "активов": 3237,
      "нашей": 3238,
      "федерального": 3239,
      "кубан": 3240,
      "франции": 3241,
      "программы": 3242,
      "августа": 3243,
      "деятельность": 3244,
      "уголовного": 3245,
      "обеспечения": 3246,
      "превыс": 3247,
      "золото": 3248,
      "результат": 3249,
      "менеджеров": 3250,
      "использования": 3251,
      "столице": 3252,
      "банк": 3253,
      "газпром": 3254,
      "специалисты": 3255,
      "знаком": 3256,
      "топлив": 3257,
      "имеет": 3258,
      "сотрудничество": 3259,
      "букмекеров": 3260,
      "онк": 3261,
      "университет": 3262,
      "университета": 3263,
      "россиян": 3264,
      "корпора": 3265,
      "соглашения": 3266,
      "эксперты": 3267,
      "фильма": 3268,
      "пользу": 3269,
      "женщин": 3270,
      "американской": 3271,
      "встреч": 3272,
      "автомобилей": 3273,
      "нижегород": 3274,
      "фигурант": 3275,
      "ипотеки": 3276,
      "генпрокуратура": 3277,
      "нанес": 3278,
      "известно": 3279,
      "энерг": 3280,
      "населения": 3281,
      "парламента": 3282,
      "масш": 3283,
      "ожог": 3284,
      "декабря": 3285,
      "дефиц": 3286,
      "Москв": 3287,
      "госсовета": 3288,
      "муницип": 3289,
      "тяжел": 3290,
      "эффектив": 3291,
      "##цетам": 3292,
      "четверт": 3293,
      "подозреваем": 3294,
      "ежегодно": 3295,
      "рабочих": 3296,
      "парацетам": 3297,
      "января": 3298,
      "кирил": 3299,
      "характер": 3300,
      "соцсет": 3301,
      "подраздел": 3302,
      "благодаря": 3303,
      "заплани": 3304,
      "недополуч": 3305,
      "no": 3306,
      "БП": 3307,
      "Чел": 3308,
      "бер": 3309,
      "бран": 3310,
      "вв": 3311,
      "вне": 3312,
      "вступ": 3313,
      "влия": 3314,
      "гал": 3315,
      "гиб": 3316,
      "геро": 3317,
      "ден": 3318,
      "дав": 3319,
      "зелен": 3320,
      "кре": 3321,
      "кут": 3322,
      "коль": 3323,
      "кад": 3324,
      "карт": 3325,
      "мск": 3326,
      "мик": 3327,
      "май": 3328,
      "ном": 3329,
      "ней": 3330,
      "ов": 3331,
      "оз": 3332,
      "охран": 3333,
      "оцен": 3334,
      "пал": 3335,
      "пик": 3336,
      "пля": 3337,
      "питания": 3338,
      "рожд": 3339,
      "сра": 3340,
      "сесс": 3341,
      "тай": 3342,
      "ув": 3343,
      "уш": 3344,
      "уверен": 3345,
      "фро": 3346,
      "фик": 3347,
      "фир": 3348,
      "чист": 3349,
      "честь": 3350,
      "эп": 3351,
      "юрид": 3352,
      "##пев": 3353,
      "##аил": 3354,
      "##арев": 3355,
      "##ием": 3356,
      "##леч": 3357,
      "##ловской": 3358,
      "##вок": 3359,
      "##сид": 3360,
      "##мом": 3361,
      "##дер": 3362,
      "##жей": 3363,
      "##ьеров": 3364,
      "##ti": 3365,
      "##гент": 3366,
      "##груз": 3367,
      "##щик": 3368,
      "##щиков": 3369,
      "##йн": 3370,
      "##фо": 3371,
      "##ut": 3372,
      "##he": 3373,
      "##ЛА": 3374,
      "##ста": 3375,
      "##енным": 3376,
      "##овала": 3377,
      "##ноп": 3378,
      "##анности": 3379,
      "##антов": 3380,
      "##анитар": 3381,
      "##реч": 3382,
      "##итор": 3383,
      "##оли": 3384,
      "##атный": 3385,
      "##инт": 3386,
      "##инской": 3387,
      "##гос": 3388,
      "##гой": 3389,
      "##лайн": 3390,
      "обоз": 3391,
      "обслуж": 3392,
      "рак": 3393,
      "##едения": 3394,
      "нав": 3395,
      "нам": 3396,
      "наших": 3397,
      "проком": 3398,
      "стани": 3399,
      "застрой": 3400,
      "задач": 3401,
      "##амб": 3402,
      "преступ": 3403,
      "##образ": 3404,
      "##ивание": 3405,
      "##ивиду": 3406,
      "отече": 3407,
      "годы": 3408,
      "вым": 3409,
      "##орот": 3410,
      "##ороны": 3411,
      "##альными": 3412,
      "##даем": 3413,
      "подк": 3414,
      "пригла": 3415,
      "причиной": 3416,
      "##никами": 3417,
      "полож": 3418,
      "полиции": 3419,
      "полномоч": 3420,
      "##илищ": 3421,
      "##ереметьев": 3422,
      "##ляется": 3423,
      "##ическом": 3424,
      "спор": 3425,
      "слова": 3426,
      "слуш": 3427,
      "изол": 3428,
      "##кое": 3429,
      "##инах": 3430,
      "##ерами": 3431,
      "##ждение": 3432,
      "сообщалось": 3433,
      "консу": 3434,
      "таким": 3435,
      "неф": 3436,
      "##алах": 3437,
      "##ственное": 3438,
      "возник": 3439,
      "##овано": 3440,
      "##ись": 3441,
      "учен": 3442,
      "учит": 3443,
      "##уме": 3444,
      "ави": 3445,
      "##артир": 3446,
      "работает": 3447,
      "анат": 3448,
      "##лены": 3449,
      "одоб": 3450,
      "посад": 3451,
      "##ющие": 3452,
      "докт": 3453,
      "поступл": 3454,
      "данных": 3455,
      "орган": 3456,
      "органы": 3457,
      "заявили": 3458,
      "заявления": 3459,
      "начали": 3460,
      "строй": 3461,
      "строго": 3462,
      "##ционного": 3463,
      "скр": 3464,
      "первые": 3465,
      "первое": 3466,
      "помещения": 3467,
      "оконч": 3468,
      "имп": 3469,
      "##коммун": 3470,
      "военнослуж": 3471,
      "удалось": 3472,
      "##ающей": 3473,
      "предприним": 3474,
      "мария": 3475,
      "сотрудников": 3476,
      "принци": 3477,
      "принять": 3478,
      "всем": 3479,
      "занят": 3480,
      "участок": 3481,
      "ведомстве": 3482,
      "адвок": 3483,
      "рассмот": 3484,
      "рассмотр": 3485,
      "рассчит": 3486,
      "напис": 3487,
      "международного": 3488,
      "будущ": 3489,
      "##ошт": 3490,
      "отметили": 3491,
      "производства": 3492,
      "производство": 3493,
      "краснодарском": 3494,
      "краснодарский": 3495,
      "площади": 3496,
      "площадь": 3497,
      "число": 3498,
      "вклад": 3499,
      "момотов": 3500,
      "отдель": 3501,
      "объема": 3502,
      "вопросы": 3503,
      "лучших": 3504,
      "дорог": 3505,
      "##-класс": 3506,
      "девелоп": 3507,
      "показатель": 3508,
      "сумму": 3509,
      "результаты": 3510,
      "депутат": 3511,
      "лишь": 3512,
      "индивиду": 3513,
      "важно": 3514,
      "люди": 3515,
      "темат": 3516,
      "усман": 3517,
      "евг": 3518,
      "медицин": 3519,
      "замед": 3520,
      "выставка": 3521,
      "красот": 3522,
      "недвижимость": 3523,
      "##ервые": 3524,
      "транспорта": 3525,
      "гостин": 3526,
      "отделения": 3527,
      "вооружениями": 3528,
      "поряд": 3529,
      "никак": 3530,
      "размещ": 3531,
      "министерство": 3532,
      "линей": 3533,
      "##варе": 3534,
      "онлайн": 3535,
      "обсужд": 3536,
      "проверки": 3537,
      "здоровья": 3538,
      "жилья": 3539,
      "трамп": 3540,
      "рядом": 3541,
      "товаров": 3542,
      "персонал": 3543,
      "думы": 3544,
      "нижнего": 3545,
      "системы": 3546,
      "встречи": 3547,
      "китая": 3548,
      "китай": 3549,
      "королев": 3550,
      "манжерок": 3551,
      "происходит": 3552,
      "фестиваль": 3553,
      "виктор": 3554,
      "аренды": 3555,
      "открыл": 3556,
      "позволит": 3557,
      "добавил": 3558,
      "клиентов": 3559,
      "многокв": 3560,
      "труда": 3561,
      "уточн": 3562,
      "часов": 3563,
      "инфраструктуры": 3564,
      "санкт-петербурга": 3565,
      "возбудили": 3566,
      "премьер": 3567,
      "финансиров": 3568,
      "ошиб": 3569,
      "филипп": 3570,
      "надзорного": 3571,
      "популяр": 3572,
      "отрасли": 3573,
      "доказатель": 3574,
      "игоря": 3575,
      "впервые": 3576,
      "##нобороны": 3577,
      "кузбасс": 3578,
      "апреле": 3579,
      "возбуждено": 3580,
      "ребенка": 3581,
      "ноября": 3582,
      "пекарен": 3583,
      "##полит": 3584,
      "##ануне": 3585,
      "созыва": 3586,
      "маркетплей": 3587,
      "накануне": 3588,
      "наказание": 3589,
      "адрес": 3590,
      "владимира": 3591,
      "3pl-операт": 3592,
      "арбитражный": 3593,
      "202": 3594,
      "михаил": 3595,
      "верховного": 3596,
      "подозрению": 3597,
      "хозяйства": 3598,
      "цифров": 3599,
      "зафиксиров": 3600,
      "здравоохранения": 3601,
      "соцсетях": 3602,
      "БПЛА": 3603,
      "Челябин": 3604,
      "фролов": 3605,
      "прокоммент": 3606,
      "##ереметьево": 3607,
      "консульт": 3608,
      "многоквартир": 3609,
      "..": 3610,
      "in": 3611,
      "mar": 3612,
      "ni": 3613,
      "st": 3614,
      "the": 3615,
      "На": 3616,
      "аб": 3617,
      "ауд": 3618,
      "аром": 3619,
      "бок": 3620,
      "биб": 3621,
      "вит": 3622,
      "воль": 3623,
      "вред": 3624,
      "ввод": 3625,
      "гаст": 3626,
      "глад": 3627,
      "дени": 3628,
      "дос": 3629,
      "жк": 3630,
      "кла": 3631,
      "круг": 3632,
      "калин": 3633,
      "ли": 3634,
      "лени": 3635,
      "лож": 3636,
      "мор": 3637,
      "мере": 3638,
      "низ": 3639,
      "ори": 3640,
      "оцени": 3641,
      "пт": 3642,
      "пан": 3643,
      "сух": 3644,
      "солов": 3645,
      "три": 3646,
      "уз": 3647,
      "фот": 3648,
      "флаг": 3649,
      "факу": 3650,
      "чинов": 3651,
      "шесть": 3652,
      "шереметьево": 3653,
      "ядер": 3654,
      "##пании": 3655,
      "##ада": 3656,
      "##аги": 3657,
      "##нале": 3658,
      "##лом": 3659,
      "##лим": 3660,
      "##лений": 3661,
      "##секрет": 3662,
      "##кам": 3663,
      "##мени": 3664,
      "##ысл": 3665,
      "##хан": 3666,
      "##ды": 3667,
      "##дем": 3668,
      "##ьо": 3669,
      "##рик": 3670,
      "##цам": 3671,
      "##би": 3672,
      "##яг": 3673,
      "##яют": 3674,
      "##яется": 3675,
      "##йм": 3676,
      "##уг": 3677,
      "##ули": 3678,
      "##ущего": 3679,
      "##фель": 3680,
      "##фици": 3681,
      "##res": 3682,
      "##al": 3683,
      "##ex": 3684,
      "##еном": 3685,
      "##еннале": 3686,
      "##раны": 3687,
      "##раль": 3688,
      "##рори": 3689,
      "##рода": 3690,
      "##рофл": 3691,
      "##етов": 3692,
      "##олаг": 3693,
      "##орина": 3694,
      "##цией": 3695,
      "##осибир": 3696,
      "обыч": 3697,
      "рав": 3698,
      "##емь": 3699,
      "народ": 3700,
      "прог": 3701,
      "станд": 3702,
      "стрем": 3703,
      "станов": 3704,
      "завед": 3705,
      "##амен": 3706,
      "прес": 3707,
      "##надз": 3708,
      "##назнач": 3709,
      "##ичном": 3710,
      "##ивал": 3711,
      "постанов": 3712,
      "пораж": 3713,
      "##кая": 3714,
      "отказал": 3715,
      "годов": 3716,
      "выз": 3717,
      "вылет": 3718,
      "выраз": 3719,
      "##ороз": 3720,
      "##ранс": 3721,
      "подоб": 3722,
      "приб": 3723,
      "приступ": 3724,
      "привел": 3725,
      "##огор": 3726,
      "##стью": 3727,
      "##ерев": 3728,
      "##лян": 3729,
      "##ользов": 3730,
      "комитета": 3731,
      "##ратим": 3732,
      "##лиот": 3733,
      "справ": 3734,
      "россию": 3735,
      "##ывая": 3736,
      "##рям": 3737,
      "##плом": 3738,
      "##очи": 3739,
      "##очный": 3740,
      "##очное": 3741,
      "##ицы": 3742,
      "##ственной": 3743,
      "##ственным": 3744,
      "##ромоб": 3745,
      "работают": 3746,
      "##ировал": 3747,
      "совхоз": 3748,
      "регистра": 3749,
      "которым": 3750,
      "одной": 3751,
      "одном": 3752,
      "посет": 3753,
      "переход": 3754,
      "##ющим": 3755,
      "минут": 3756,
      "коллег": 3757,
      "правам": 3758,
      "деле": 3759,
      "постоян": 3760,
      "заявила": 3761,
      "заявление": 3762,
      "получат": 3763,
      "получение": 3764,
      "начал": 3765,
      "проекты": 3766,
      "собой": 3767,
      "российский": 3768,
      "российская": 3769,
      "диплом": 3770,
      "недав": 3771,
      "запре": 3772,
      "округ": 3773,
      "##ализиров": 3774,
      "домаш": 3775,
      "пресс-секрет": 3776,
      "гендирект": 3777,
      "исключ": 3778,
      "должны": 3779,
      "должност": 3780,
      "марченко": 3781,
      "президентом": 3782,
      "объекта": 3783,
      "призна": 3784,
      "##ующих": 3785,
      "чаще": 3786,
      "огром": 3787,
      "последующ": 3788,
      "##-пре": 3789,
      "снижение": 3790,
      "##снова": 3791,
      "нарушение": 3792,
      "нарушений": 3793,
      "организация": 3794,
      "здания": 3795,
      "смарт": 3796,
      "задержан": 3797,
      "задержанных": 3798,
      "экспер": 3799,
      "экспоз": 3800,
      "водоснабж": 3801,
      "##ативных": 3802,
      "минобороны": 3803,
      "площадью": 3804,
      "##жисс": 3805,
      "игры": 3806,
      "остается": 3807,
      "рейса": 3808,
      "групп": 3809,
      "продолжить": 3810,
      "являются": 3811,
      "государственного": 3812,
      "формиров": 3813,
      "##диньо": 3814,
      "комплексов": 3815,
      "белошт": 3816,
      "электромоб": 3817,
      "##ницу": 3818,
      "модели": 3819,
      "ответч": 3820,
      "планиров": 3821,
      "сформиров": 3822,
      "деятельностью": 3823,
      "александра": 3824,
      "обеспечить": 3825,
      "соответств": 3826,
      "признал": 3827,
      "депутаты": 3828,
      "увеличение": 3829,
      "украины": 3830,
      "карто": 3831,
      "фестиваля": 3832,
      "догов": 3833,
      "екатерина": 3834,
      "сезона": 3835,
      "третий": 3836,
      "уровне": 3837,
      "##уществ": 3838,
      "лидер": 3839,
      "уполномоч": 3840,
      "##потреб": 3841,
      "подчеркну": 3842,
      "банков": 3843,
      "готовность": 3844,
      "коап": 3845,
      "сохранение": 3846,
      "пострадавших": 3847,
      "произошел": 3848,
      "произошло": 3849,
      "-летнего": 3850,
      "футболь": 3851,
      "линии": 3852,
      "сотрудничества": 3853,
      "букмекер": 3854,
      "барх": 3855,
      "обсуд": 3856,
      "воздух": 3857,
      "законодательства": 3858,
      "январе": 3859,
      "корпус": 3860,
      "более": 3861,
      "сделать": 3862,
      "товар": 3863,
      "кино": 3864,
      "космет": 3865,
      "суббот": 3866,
      "субсид": 3867,
      "сказала": 3868,
      "пользов": 3869,
      "сложности": 3870,
      "совместно": 3871,
      "писал": 3872,
      "происше": 3873,
      "избран": 3874,
      "снизилась": 3875,
      "велик": 3876,
      "роспотреб": 3877,
      "смерти": 3878,
      "феврале": 3879,
      "обязатель": 3880,
      "источник": 3881,
      "ипотеч": 3882,
      "срока": 3883,
      "хранения": 3884,
      "подписал": 3885,
      "пермского": 3886,
      "событие": 3887,
      "потерпев": 3888,
      "применения": 3889,
      "аутизма": 3890,
      "ассоци": 3891,
      "версии": 3892,
      "ночь": 3893,
      "уточня": 3894,
      "укрепление": 3895,
      "превышает": 3896,
      "telegram-канал": 3897,
      "генеральный": 3898,
      "довер": 3899,
      "мнению": 3900,
      "##rus": 3901,
      "образом": 3902,
      "возглавля": 3903,
      "расследование": 3904,
      "инвестиций": 3905,
      "инвалидностью": 3906,
      "текущ": 3907,
      "##ild": 3908,
      "рейтинг": 3909,
      "вовсе": 3910,
      "лазарев": 3911,
      "ммк": 3912,
      "саратовской": 3913,
      "##градской": 3914,
      "девочка": 3915,
      "России": 3916,
      "лесов": 3917,
      "привлекатель": 3918,
      "категории": 3919,
      "дональда": 3920,
      "наиболь": 3921,
      "свердловской": 3922,
      "властями": 3923,
      "профессион": 3924,
      "гимнаст": 3925,
      "пришлось": 3926,
      "прибыль": 3927,
      "традицион": 3928,
      "бобров": 3929,
      "гуманитар": 3930,
      "водохран": 3931,
      "денег": 3932,
      "сразу": 3933,
      "фикс": 3934,
      "изолят": 3935,
      "##коммунэнерго": 3936,
      "адвокат": 3937,
      "онлайн-": 3938,
      "...": 3939,
      "библиот": 3940,
      "калинин": 3941,
      "факульт": 3942,
      "##рористическ": 3943,
      "пресс-секретарь": 3944,
      "белоштейн": 3945,
      "eon": 3946,
      "ma": 3947,
      "re": 3948,
      "«К": 3949,
      "Нов": 3950,
      "РФ": 3951,
      "ано": 3952,
      "агра": 3953,
      "бо": 3954,
      "бра": 3955,
      "бир": 3956,
      "бло": 3957,
      "вст": 3958,
      "виз": 3959,
      "вес": 3960,
      "ваш": 3961,
      "внес": 3962,
      "горов": 3963,
      "дл": 3964,
      "дат": 3965,
      "дании": 3966,
      "динам": 3967,
      "елена": 3968,
      "жест": 3969,
      "зр": 3970,
      "зоне": 3971,
      "зоны": 3972,
      "зорина": 3973,
      "ис": 3974,
      "код": 3975,
      "кров": 3976,
      "кни": 3977,
      "коре": 3978,
      "криз": 3979,
      "леч": 3980,
      "лус": 3981,
      "лекс": 3982,
      "лечение": 3983,
      "мон": 3984,
      "мень": 3985,
      "мяч": 3986,
      "ног": 3987,
      "ощ": 3988,
      "олим": 3989,
      "пи": 3990,
      "пад": 3991,
      "песков": 3992,
      "рон": 3993,
      "сед": 3994,
      "сур": 3995,
      "селе": 3996,
      "трем": 3997,
      "таб": 3998,
      "тренд": 3999,
      "уда": 4000,
      "уник": 4001,
      "уступ": 4002,
      "улич": 4003,
      "фсб": 4004,
      "хоро": 4005,
      "хоч": 4006,
      "хок": 4007,
      "хищ": 4008,
      "чуй": 4009,
      "шин": 4010,
      "шаг": 4011,
      "ювел": 4012,
      "##пт": 4013,
      "##оу": 4014,
      "##оятель": 4015,
      "##аю": 4016,
      "##нд": 4017,
      "##нь": 4018,
      "##нат": 4019,
      "##нова": 4020,
      "##неров": 4021,
      "##ино": 4022,
      "##лин": 4023,
      "##лять": 4024,
      "##вое": 4025,
      "##слав": 4026,
      "##сант": 4027,
      "##кон": 4028,
      "##коб": 4029,
      "##ыг": 4030,
      "##ыск": 4031,
      "##ха": 4032,
      "##бл": 4033,
      "##чер": 4034,
      "##чев": 4035,
      "##-х": 4036,
      "##-ли": 4037,
      "##-ком": 4038,
      "##-минист": 4039,
      "##ген": 4040,
      "##шения": 4041,
      "##шись": 4042,
      "##усл": 4043,
      "##урой": 4044,
      "##зур": 4045,
      "##os": 4046,
      "##ag": 4047,
      "##yx": 4048,
      "##yres": 4049,
      "##el": 4050,
      "##ъект": 4051,
      "##.—": 4052,
      "##стов": 4053,
      "##енс": 4054,
      "##енное": 4055,
      "##енга": 4056,
      "##ово": 4057,
      "##оволь": 4058,
      "##рот": 4059,
      "##росс": 4060,
      "##ростран": 4061,
      "##алдиньо": 4062,
      "##етом": 4063,
      "##етников": 4064,
      "##елю": 4065,
      "##елля": 4066,
      "##итект": 4067,
      "##олий": 4068,
      "##оритет": 4069,
      "##омин": 4070,
      "##атыв": 4071,
      "##гое": 4072,
      "##гоцен": 4073,
      "##города": 4074,
      "##ари": 4075,
      "##ософ": 4076,
      "##икор": 4077,
      "##иками": 4078,
      "##икацию": 4079,
      "##лаб": 4080,
      "обсто": 4081,
      "раск": 4082,
      "##имент": 4083,
      "##емой": 4084,
      "##емых": 4085,
      "над": 4086,
      "нац": 4087,
      "настав": 4088,
      "наслед": 4089,
      "сорев": 4090,
      "сочин": 4091,
      "прос": 4092,
      "проц": 4093,
      "прой": 4094,
      "студ": 4095,
      "замет": 4096,
      "забол": 4097,
      "##рукции": 4098,
      "##ившего": 4099,
      "##ави": 4100,
      "отв": 4101,
      "годом": 4102,
      "рест": 4103,
      "режисс": 4104,
      "выро": 4105,
      "высказ": 4106,
      "выдач": 4107,
      "##убеж": 4108,
      "##извод": 4109,
      "##спб": 4110,
      "##альную": 4111,
      "##алькова": 4112,
      "подв": 4113,
      "подрыв": 4114,
      "придерж": 4115,
      "##огда": 4116,
      "полов": 4117,
      "полиция": 4118,
      "##курор": 4119,
      "##льного": 4120,
      "раздел": 4121,
      "##ующего": 4122,
      "##ующее": 4123,
      "команд": 4124,
      "коммун": 4125,
      "##ратор": 4126,
      "##ическая": 4127,
      "##остоятель": 4128,
      "##истов": 4129,
      "##ерам": 4130,
      "краевой": 4131,
      "краснова": 4132,
      "нег": 4133,
      "неболь": 4134,
      "##ственную": 4135,
      "##ябрь": 4136,
      "учетом": 4137,
      "##ума": 4138,
      "осуществ": 4139,
      "госдум": 4140,
      "новым": 4141,
      "новости": 4142,
      "работников": 4143,
      "совф": 4144,
      "##ательской": 4145,
      "оде": 4146,
      "самом": 4147,
      "самого": 4148,
      "самым": 4149,
      "самбо": 4150,
      "самостоятель": 4151,
      "перевоз": 4152,
      "средний": 4153,
      "правоохран": 4154,
      "двуст": 4155,
      "движение": 4156,
      "делу": 4157,
      "каб": 4158,
      "провайд": 4159,
      "начин": 4160,
      "автоп": 4161,
      "летом": 4162,
      "местных": 4163,
      "назыв": 4164,
      "представителей": 4165,
      "представителя": 4166,
      "окруж": 4167,
      "##ализации": 4168,
      "##менте": 4169,
      "##онец": 4170,
      "повест": 4171,
      "туре": 4172,
      "парке": 4173,
      "париж": 4174,
      "центров": 4175,
      "иска": 4176,
      "удар": 4177,
      "направили": 4178,
      "направлен": 4179,
      "##ающий": 4180,
      "закры": 4181,
      "основной": 4182,
      "алексея": 4183,
      "алексеев": 4184,
      "связан": 4185,
      "которой": 4186,
      "которому": 4187,
      "москву": 4188,
      "действует": 4189,
      "действительно": 4190,
      "##ируется": 4191,
      "ростов": 4192,
      "террористическ": 4193,
      "##ведом": 4194,
      "##говой": 4195,
      "##улы": 4196,
      "##ящие": 4197,
      "международный": 4198,
      "организаций": 4199,
      "противоп": 4200,
      "реконст": 4201,
      "страна": 4202,
      "примут": 4203,
      "распис": 4204,
      "распростран": 4205,
      "поддержку": 4206,
      "информацион": 4207,
      "стоит": 4208,
      "комплект": 4209,
      "апелля": 4210,
      "предложил": 4211,
      "управление": 4212,
      "##ертв": 4213,
      "позици": 4214,
      "отношения": 4215,
      "игро": 4216,
      "остаются": 4217,
      "безопасность": 4218,
      "большая": 4219,
      "территор": 4220,
      "группа": 4221,
      "продолжает": 4222,
      "продолжают": 4223,
      "рассказывает": 4224,
      "ограничения": 4225,
      "аэропорты": 4226,
      "периодом": 4227,
      "требу": 4228,
      "##ница": 4229,
      "##ницей": 4230,
      "городской": 4231,
      "республикан": 4232,
      "акции": 4233,
      "акцион": 4234,
      "достат": 4235,
      "этому": 4236,
      "количества": 4237,
      "количественных": 4238,
      "предприятие": 4239,
      "занимает": 4240,
      "девять": 4241,
      "золота": 4242,
      "политики": 4243,
      "назначен": 4244,
      "общества": 4245,
      "индуст": 4246,
      "темпы": 4247,
      "продажи": 4248,
      "нескольких": 4249,
      "центральных": 4250,
      "спортивных": 4251,
      "казани": 4252,
      "экономики": 4253,
      "##осков": 4254,
      "##ервис": 4255,
      "завода": 4256,
      "контроль": 4257,
      "лица": 4258,
      "утром": 4259,
      "утвер": 4260,
      "стратегической": 4261,
      "банка": 4262,
      "вороб": 4263,
      "готовы": 4264,
      "земли": 4265,
      "музея": 4266,
      "значение": 4267,
      "десятилет": 4268,
      "произошла": 4269,
      "прошлом": 4270,
      "какие": 4271,
      "класса": 4272,
      "размере": 4273,
      "размещения": 4274,
      "ъ-спб": 4275,
      "прокуратуры": 4276,
      "покол": 4277,
      "имеют": 4278,
      "губернатора": 4279,
      "пяти": 4280,
      "##ипов": 4281,
      "заместитель": 4282,
      "капрем": 4283,
      "частич": 4284,
      "администрация": 4285,
      "итоге": 4286,
      "невоз": 4287,
      "оборот": 4288,
      "проводится": 4289,
      "иностранных": 4290,
      "грузов": 4291,
      "драгоцен": 4292,
      "публикации": 4293,
      "социальной": 4294,
      "магнит": 4295,
      "экспертиз": 4296,
      "дальше": 4297,
      "образования": 4298,
      "научно-": 4299,
      "технологического": 4300,
      "жилых": 4301,
      "иванова": 4302,
      "наблюд": 4303,
      "сокращ": 4304,
      "повышение": 4305,
      "фестивале": 4306,
      "екатеринбург": 4307,
      "инициатива": 4308,
      "мероприятия": 4309,
      "февраля": 4310,
      "##иллион": 4311,
      "обязанности": 4312,
      "комиссии": 4313,
      "принадлежит": 4314,
      "туристов": 4315,
      "защиты": 4316,
      "блок": 4317,
      "единой": 4318,
      "пожар": 4319,
      "регуляр": 4320,
      "подтверд": 4321,
      "армении": 4322,
      "белгороде": 4323,
      "продажу": 4324,
      "некоторые": 4325,
      "генпрокуратуры": 4326,
      "биеннале": 4327,
      "устройств": 4328,
      "построить": 4329,
      "принимать": 4330,
      "telegram-канале": 4331,
      "генерального": 4332,
      "оскол": 4333,
      "пациента": 4334,
      "философ": 4335,
      "полицейские": 4336,
      "охват": 4337,
      "прекращ": 4338,
      "имущества": 4339,
      "напомним": 4340,
      "беременности": 4341,
      "конкурс": 4342,
      "всероссийском": 4343,
      "aurus": 4344,
      "приобрет": 4345,
      "поселке": 4346,
      "платформ": 4347,
      "##техн": 4348,
      "вернут": 4349,
      "улуч": 4350,
      "ущерб": 4351,
      "причаст": 4352,
      "материалы": 4353,
      "артисты": 4354,
      "предусмотрены": 4355,
      "ближайшее": 4356,
      "сравнению": 4357,
      "баласян": 4358,
      "востреб": 4359,
      "внутрен": 4360,
      "риа": 4361,
      "творческ": 4362,
      "широк": 4363,
      "архитект": 4364,
      "составляла": 4365,
      "большинство": 4366,
      "стабильности": 4367,
      "аналогичным": 4368,
      "внедр": 4369,
      "держав": 4370,
      "петербург": 4371,
      "отчисления": 4372,
      "возрасте": 4373,
      "теплоснабж": 4374,
      "пассажир": 4375,
      "ольга": 4376,
      "##нюю": 4377,
      "союз": 4378,
      "парфюмер": 4379,
      "превысила": 4380,
      "нижегородской": 4381,
      "дефицит": 4382,
      "кадров": 4383,
      "сессии": 4384,
      "ракет": 4385,
      "станислав": 4386,
      "вымог": 4387,
      "приглаш": 4388,
      "анатолий": 4389,
      "одобр": 4390,
      "военнослужащих": 4391,
      "евгений": 4392,
      "премьер-минист": 4393,
      "аромат": 4394,
      "гастро": 4395,
      "ленин": 4396,
      "соловьев": 4397,
      "стандарт": 4398,
      "##надзора": 4399,
      "##-президент": 4400,
      "субсидий": 4401,
      "встрет": 4402,
      "кризиса": 4403,
      "лусине": 4404,
      "олимп": 4405,
      "чуйченко": 4406,
      "ювелир": 4407,
      "обстоятель": 4408,
      "двусторон": 4409,
      "премьер-министр": 4410,
      "bm": 4411,
      "fi": 4412,
      "tyres": 4413,
      "xvi": 4414,
      "Ал": 4415,
      "Бел": 4416,
      "Петербур": 4417,
      "Уд": 4418,
      "ака": 4419,
      "аук": 4420,
      "араб": 4421,
      "борт": 4422,
      "вещ": 4423,
      "входит": 4424,
      "ге": 4425,
      "гон": 4426,
      "грод": 4427,
      "гус": 4428,
      "голов": 4429,
      "гроз": 4430,
      "дю": 4431,
      "дт": 4432,
      "ду": 4433,
      "дер": 4434,
      "дру": 4435,
      "доч": 4436,
      "дни": 4437,
      "дрон": 4438,
      "ер": 4439,
      "жал": 4440,
      "ид": 4441,
      "ищ": 4442,
      "и.": 4443,
      "иль": 4444,
      "кил": 4445,
      "кем": 4446,
      "кав": 4447,
      "клад": 4448,
      "лест": 4449,
      "лион": 4450,
      "лечения": 4451,
      "мер": 4452,
      "мож": 4453,
      "мег": 4454,
      "манд": 4455,
      "миш": 4456,
      "норв": 4457,
      "озд": 4458,
      "осло": 4459,
      "пе": 4460,
      "пу": 4461,
      "пат": 4462,
      "пам": 4463,
      "роль": 4464,
      "роли": 4465,
      "сел": 4466,
      "сар": 4467,
      "сект": 4468,
      "сами": 4469,
      "силь": 4470,
      "серед": 4471,
      "сети": 4472,
      "тю": 4473,
      "тр": 4474,
      "тал": 4475,
      "тит": 4476,
      "тому": 4477,
      "тему": 4478,
      "трой": 4479,
      "турн": 4480,
      "типа": 4481,
      "худ": 4482,
      "цим": 4483,
      "чит": 4484,
      "что-то": 4485,
      "шв": 4486,
      "яги": 4487,
      "якоб": 4488,
      "##оном": 4489,
      "##оратив": 4490,
      "##ающего": 4491,
      "##нин": 4492,
      "##нужд": 4493,
      "##иска": 4494,
      "##лова": 4495,
      "##ви": 4496,
      "##вой": 4497,
      "##виг": 4498,
      "##сф": 4499,
      "##сам": 4500,
      "##кут": 4501,
      "##ыд": 4502,
      "##хани": 4503,
      "##хожд": 4504,
      "##ду": 4505,
      "##жу": 4506,
      "##жев": 4507,
      "##юр": 4508,
      "##чной": 4509,
      "##ton": 4510,
      "##-ф": 4511,
      "##-ант": 4512,
      "##ту": 4513,
      "##тож": 4514,
      "##ган": 4515,
      "##гли": 4516,
      "##яла": 4517,
      "##ясь": 4518,
      "##ящее": 4519,
      "##шин": 4520,
      "##щика": 4521,
      "##уки": 4522,
      "##уанет": 4523,
      "##улась": 4524,
      "##зент": 4525,
      "##фе": 4526,
      "##фун": 4527,
      "##ol": 4528,
      "##or": 4529,
      "##oo": 4530,
      "##ob": 4531,
      "##ad": 4532,
      "##bs": 4533,
      "##si": 4534,
      "##ee": 4535,
      "##ii": 4536,
      "##co": 4537,
      "##ce": 4538,
      "##эконом": 4539,
      "##.ru": 4540,
      "##ma": 4541,
      "##енность": 4542,
      "##енными": 4543,
      "##овыми": 4544,
      "##рас": 4545,
      "##рам": 4546,
      "##нос": 4547,
      "##нообраз": 4548,
      "##роф": 4549,
      "##анная": 4550,
      "##реп": 4551,
      "##еленд": 4552,
      "##иты": 4553,
      "##оля": 4554,
      "##омот": 4555,
      "##илит": 4556,
      "##инга": 4557,
      "##онез": 4558,
      "##ару": 4559,
      "##икой": 4560,
      "ради": 4561,
      "##екает": 4562,
      "наступ": 4563,
      "найти": 4564,
      "науки": 4565,
      "прож": 4566,
      "проч": 4567,
      "проез": 4568,
      "##анией": 4569,
      "стре": 4570,
      "старт": 4571,
      "степ": 4572,
      "заг": 4573,
      "заслуж": 4574,
      "##риго": 4575,
      "преми": 4576,
      "презент": 4577,
      "##ельхоз": 4578,
      "##румент": 4579,
      "##надзор": 4580,
      "##ичева": 4581,
      "##ичтож": 4582,
      "##иваются": 4583,
      "пох": 4584,
      "##авшая": 4585,
      "отчет": 4586,
      "реак": 4587,
      "##ровод": 4588,
      "##евич": 4589,
      "##евского": 4590,
      "выда": 4591,
      "выше": 4592,
      "вынес": 4593,
      "выплат": 4594,
      "выгля": 4595,
      "выруч": 4596,
      "вынужд": 4597,
      "##аком": 4598,
      "##аксу": 4599,
      "##орос": 4600,
      "##ранов": 4601,
      "##убань": 4602,
      "подстан": 4603,
      "подзем": 4604,
      "##утся": 4605,
      "прис": 4606,
      "присут": 4607,
      "приоритет": 4608,
      "предел": 4609,
      "предуп": 4610,
      "предназнач": 4611,
      "предыд": 4612,
      "##нику": 4613,
      "полут": 4614,
      "полаг": 4615,
      "полетов": 4616,
      "##ольно": 4617,
      "##ольной": 4618,
      "##кид": 4619,
      "##неса": 4620,
      "##оже": 4621,
      "##опере": 4622,
      "свид": 4623,
      "спуст": 4624,
      "списк": 4625,
      "##иста": 4626,
      "изд": 4627,
      "издел": 4628,
      "изготов": 4629,
      "##ывали": 4630,
      "##ывающих": 4631,
      "##инацион": 4632,
      "##жды": 4633,
      "краю": 4634,
      "неод": 4635,
      "нецен": 4636,
      "##ственная": 4637,
      "возвед": 4638,
      "##ова-на": 4639,
      "##ществ": 4640,
      "##ады": 4641,
      "осужд": 4642,
      "новост": 4643,
      "новгород": 4644,
      "новороссий": 4645,
      "новосибир": 4646,
      "##ромос": 4647,
      "##лава": 4648,
      "работать": 4649,
      "суде": 4650,
      "которую": 4651,
      "##нования": 4652,
      "одну": 4653,
      "после": 4654,
      "##усов": 4655,
      "план": 4656,
      "само": 4657,
      "переч": 4658,
      "моно": 4659,
      "##ахстан": 4660,
      "##шеход": 4661,
      "региону": 4662,
      "региональной": 4663,
      "региональный": 4664,
      "среднего": 4665,
      "##люз": 4666,
      "каж": 4667,
      "##рополь": 4668,
      "составили": 4669,
      "составило": 4670,
      "органов": 4671,
      "заявки": 4672,
      "##рупцион": 4673,
      "автор": 4674,
      "теории": 4675,
      "госпит": 4676,
      "диску": 4677,
      "недост": 4678,
      "неделю": 4679,
      "первой": 4680,
      "первая": 4681,
      "произвед": 4682,
      "представля": 4683,
      "городе": 4684,
      "испыт": 4685,
      "исполня": 4686,
      "ведущ": 4687,
      "повод": 4688,
      "военной": 4689,
      "парк": 4690,
      "парка": 4691,
      "париже": 4692,
      "центре": 4693,
      "генет": 4694,
      "предпоч": 4695,
      "предполаг": 4696,
      "следующ": 4697,
      "следствия": 4698,
      "основном": 4699,
      "основана": 4700,
      "должно": 4701,
      "должна": 4702,
      "связь": 4703,
      "квад": 4704,
      "##казало": 4705,
      "марии": 4706,
      "объектам": 4707,
      "соглас": 4708,
      "согласов": 4709,
      "призвал": 4710,
      "всему": 4711,
      "москва": 4712,
      "решений": 4713,
      "последствия": 4714,
      "сниж": 4715,
      "##урал": 4716,
      "нарушениями": 4717,
      "организацию": 4718,
      "реком": 4719,
      "аэрофл": 4720,
      "смысл": 4721,
      "прошун": 4722,
      "поддержал": 4723,
      "участв": 4724,
      "информацию": 4725,
      "создания": 4726,
      "водность": 4727,
      "столк": 4728,
      "высо": 4729,
      "высот": 4730,
      "общий": 4731,
      "стоимости": 4732,
      "аппарат": 4733,
      "миг": 4734,
      "площадка": 4735,
      "площадки": 4736,
      "руководителей": 4737,
      "андре": 4738,
      "игрок": 4739,
      "рейсы": 4740,
      "сегменте": 4741,
      "территорий": 4742,
      "группе": 4743,
      "реализацию": 4744,
      "возможности": 4745,
      "рассказали": 4746,
      "аэропорта": 4747,
      "комплексы": 4748,
      "культуре": 4749,
      "республика": 4750,
      "акций": 4751,
      "наши": 4752,
      "восемь": 4753,
      "долю": 4754,
      "демон": 4755,
      "санк": 4756,
      "##шиеся": 4757,
      "сторона": 4758,
      "уничтож": 4759,
      "показатели": 4760,
      "июне": 4761,
      "путем": 4762,
      "путина": 4763,
      "##ренда": 4764,
      "назначил": 4765,
      "служба": 4766,
      "##ателями": 4767,
      "поставки": 4768,
      "украине": 4769,
      "родриго": 4770,
      "силу": 4771,
      "темп": 4772,
      "усмана": 4773,
      "попрос": 4774,
      "считают": 4775,
      "бизнеса": 4776,
      "празд": 4777,
      "выставке": 4778,
      "красив": 4779,
      "спортивные": 4780,
      "третье": 4781,
      "уровень": 4782,
      "экономического": 4783,
      "правительство": 4784,
      "планируют": 4785,
      "каждого": 4786,
      "##трафовали": 4787,
      "коорд": 4788,
      "мэрии": 4789,
      "##нуть": 4790,
      "обратился": 4791,
      "обратиться": 4792,
      "созда": 4793,
      "антон": 4794,
      "вооружений": 4795,
      "курьеров": 4796,
      "поруч": 4797,
      "десять": 4798,
      "качество": 4799,
      "условия": 4800,
      "условиях": 4801,
      "бывшего": 4802,
      "верх": 4803,
      "каких": 4804,
      "##яжении": 4805,
      "торговых": 4806,
      "изъять": 4807,
      "изъяли": 4808,
      "глух": 4809,
      "##нократ": 4810,
      "законодательству": 4811,
      "жилье": 4812,
      "зарплаты": 4813,
      "зарубеж": 4814,
      "невероят": 4815,
      "нормы": 4816,
      "норматив": 4817,
      "объединения": 4818,
      "иностранным": 4819,
      "ваканс": 4820,
      "груз": 4821,
      "груза": 4822,
      "камер": 4823,
      "псих": 4824,
      "факту": 4825,
      "южной": 4826,
      "достиж": 4827,
      "соглашение": 4828,
      "необходимые": 4829,
      "косм": 4830,
      "фильм": 4831,
      "##ine": 4832,
      "научных": 4833,
      "инструмент": 4834,
      "складов": 4835,
      "технологий": 4836,
      "случаев": 4837,
      "введения": 4838,
      "жилого": 4839,
      "мужчин": 4840,
      "наблю": 4841,
      "статист": 4842,
      "статье": 4843,
      "покупку": 4844,
      "мощностью": 4845,
      "машины": 4846,
      "краснодаре": 4847,
      "договору": 4848,
      "виктора": 4849,
      "звон": 4850,
      "росави": 4851,
      "комисс": 4852,
      "фигуранты": 4853,
      "близ": 4854,
      "единиц": 4855,
      "сын": 4856,
      "хранение": 4857,
      "подтверж": 4858,
      "наркотиков": 4859,
      "видео": 4860,
      "аутизм": 4861,
      "веществ": 4862,
      "желез": 4863,
      "кредитов": 4864,
      "##читали": 4865,
      "растет": 4866,
      "преступлениях": 4867,
      "объявила": 4868,
      "экологии": 4869,
      "обвиняемых": 4870,
      "чемпионов": 4871,
      "физической": 4872,
      "физкульт": 4873,
      "язык": 4874,
      "самолетов": 4875,
      "принято": 4876,
      "подростка": 4877,
      "подросток": 4878,
      "воспит": 4879,
      "финансов": 4880,
      "оштрафовали": 4881,
      "схем": 4882,
      "функцион": 4883,
      "##tex": 4884,
      "надеж": 4885,
      "надеемся": 4886,
      "популя": 4887,
      "расходов": 4888,
      "игорь": 4889,
      "сельского": 4890,
      "облкоммунэнерго": 4891,
      "электроэнер": 4892,
      "ответственность": 4893,
      "топ-мен": 4894,
      "зависимости": 4895,
      "приостановили": 4896,
      "отсутствие": 4897,
      "подсчитали": 4898,
      "продукции": 4899,
      "продукцию": 4900,
      "направлениям": 4901,
      "относительно": 4902,
      "трансформ": 4903,
      "контракта": 4904,
      "виновными": 4905,
      "крым": 4906,
      "ожидается": 4907,
      "символ": 4908,
      "супру": 4909,
      "сценар": 4910,
      "успеш": 4911,
      "выступления": 4912,
      "приводит": 4913,
      "освоб": 4914,
      "аналитиков": 4915,
      "начальника": 4916,
      "интернет": 4917,
      "примерно": 4918,
      "апартаментов": 4919,
      "очередь": 4920,
      "интерфаксу": 4921,
      "мастер-класс": 4922,
      "взаимодействие": 4923,
      "Красно": 4924,
      "альян": 4925,
      "копенга": 4926,
      "препаратов": 4927,
      "позднее": 4928,
      "ресурсов": 4929,
      "выросла": 4930,
      "подъезда": 4931,
      "спектак": 4932,
      "конференции": 4933,
      "перенос": 4934,
      "мошенниче": 4935,
      "ликвида": 4936,
      "азарт": 4937,
      "бабы": 4938,
      "века": 4939,
      "ирина": 4940,
      "##клер": 4941,
      "полугод": 4942,
      "сергея": 4943,
      "требований": 4944,
      "кубанского": 4945,
      "корпорация": 4946,
      "масштаб": 4947,
      "Москве": 4948,
      "кирилл": 4949,
      "запланиров": 4950,
      "##uters": 4951,
      "##ороться": 4952,
      "ученые": 4953,
      "авиаком": 4954,
      "доктор": 4955,
      "строгого": 4956,
      "порядка": 4957,
      "никаких": 4958,
      "королевы": 4959,
      "филиппин": 4960,
      "nis": 4961,
      "гладков": 4962,
      "класт": 4963,
      "совхоза": 4964,
      "недавно": 4965,
      "запрещ": 4966,
      "должностных": 4967,
      "подчеркнули": 4968,
      "бархатный": 4969,
      "происшествия": 4970,
      "eonyx": 4971,
      "анон": 4972,
      "аграр": 4973,
      "меньше": 4974,
      "роналдиньо": 4975,
      "##-либо": 4976,
      "соревнования": 4977,
      "заболев": 4978,
      "отвеч": 4979,
      "выросли": 4980,
      "подвеск": 4981,
      "придерживаться": 4982,
      "турец": 4983,
      "достаточно": 4984,
      "невозмож": 4985,
      "магнитогор": 4986,
      "Удмуртии": 4987,
      "академ": 4988,
      "аукцион": 4989,
      "дтп": 4990,
      "дронами": 4991,
      "жалоб": 4992,
      "илья": 4993,
      "кемеров": 4994,
      "оздоров": 4995,
      "пешеход": 4996,
      "памят": 4997,
      "середю": 4998,
      "цимлян": 4999,
      "якобы": 5000,
      "##-антуанет": 5001,
      "##елендж": 5002,
      "наступательных": 5003,
      "предыдущ": 5004,
      "изделия": 5005,
      "##инационном": 5006,
      "нецензур": 5007,
      "координационном": 5008,
      "1,": 5009,
      "11": 5010,
      "100": 5011,
      "ubs": 5012,
      "ВС": 5013,
      "Екатер": 5014,
      "От": 5015,
      "Песков": 5016,
      "Рост": 5017,
      "СШ": 5018,
      "Сам": 5019,
      "Сочи": 5020,
      "Ярослав": 5021,
      "ам": 5022,
      "аф": 5023,
      "бю": 5024,
      "бен": 5025,
      "бри": 5026,
      "бак": 5027,
      "бут": 5028,
      "быт": 5029,
      "браз": 5030,
      "бороться": 5031,
      "вку": 5032,
      "внов": 5033,
      "вось": 5034,
      "верт": 5035,
      "го": 5036,
      "гин": 5037,
      "гла": 5038,
      "гости": 5039,
      "готова": 5040,
      "греч": 5041,
      "гелендж": 5042,
      "дн": 5043,
      "др": 5044,
      "дар": 5045,
      "дали": 5046,
      "дает": 5047,
      "дале": 5048,
      "дух": 5049,
      "дерев": 5050,
      "жан": 5051,
      "жар": 5052,
      "зал": 5053,
      "зло": 5054,
      "кг": 5055,
      "коз": 5056,
      "кост": 5057,
      "коч": 5058,
      "куп": 5059,
      "кто-то": 5060,
      "кросс": 5061,
      "когда": 5062,
      "лаб": 5063,
      "лота": 5064,
      "мч": 5065,
      "мать": 5066,
      "миру": 5067,
      "нел": 5068,
      "нос": 5069,
      "нера": 5070,
      "нева": 5071,
      "оэ": 5072,
      "оон": 5073,
      "панд": 5074,
      "пво": 5075,
      "педа": 5076,
      "прям": 5077,
      "рк": 5078,
      "рит": 5079,
      "ред": 5080,
      "руп": 5081,
      "рели": 5082,
      "сю": 5083,
      "съ": 5084,
      "сих": 5085,
      "сут": 5086,
      "ско": 5087,
      "смен": 5088,
      "саж": 5089,
      "сара": 5090,
      "сиг": 5091,
      "сеть": 5092,
      "тенд": 5093,
      "теле": 5094,
      "твое": 5095,
      "ум": 5096,
      "уход": 5097,
      "умен": 5098,
      "удел": 5099,
      "уни": 5100,
      "урал": 5101,
      "ураль": 5102,
      "фла": 5103,
      "фей": 5104,
      "феном": 5105,
      "хан": 5106,
      "хак": 5107,
      "хват": 5108,
      "хули": 5109,
      "цар": 5110,
      "цере": 5111,
      "чч": 5112,
      "чест": 5113,
      "чис": 5114,
      "чеб": 5115,
      "шан": 5116,
      "шоу": 5117,
      "ъ-к": 5118,
      "ям": 5119,
      "ясно": 5120,
      "##по": 5121,
      "##пин": 5122,
      "##партам": 5123,
      "##преда": 5124,
      "##оуз": 5125,
      "##аф": 5126,
      "##иот": 5127,
      "##исп": 5128,
      "##иас": 5129,
      "##игра": 5130,
      "##истическ": 5131,
      "##лы": 5132,
      "##лат": 5133,
      "##лят": 5134,
      "##сом": 5135,
      "##к-": 5136,
      "##кос": 5137,
      "##кей": 5138,
      "##кина": 5139,
      "##москов": 5140,
      "##ын": 5141,
      "##ерод": 5142,
      "##если": 5143,
      "##юс": 5144,
      "##юсс": 5145,
      "##ьми": 5146,
      "##ьеры": 5147,
      "##ьева": 5148,
      "##цова": 5149,
      "##бан": 5150,
      "##бил": 5151,
      "##боп": 5152,
      "##tch": 5153,
      "##-ч": 5154,
      "##-т": 5155,
      "##-цент": 5156,
      "##голь": 5157,
      "##гранич": 5158,
      "##яются": 5159,
      "##ши": 5160,
      "##шк": 5161,
      "##шел": 5162,
      "##шла": 5163,
      "##шев": 5164,
      "##шую": 5165,
      "##шими": 5166,
      "##щики": 5167,
      "##уем": 5168,
      "##уль": 5169,
      "##фей": 5170,
      "##форт": 5171,
      "##uild": 5172,
      "##ber": 5173,
      "##ka": 5174,
      "##ks": 5175,
      "##ca": 5176,
      "##енда": 5177,
      "##енности": 5178,
      "##овер": 5179,
      "##раш": 5180,
      "##рана": 5181,
      "##рации": 5182,
      "##ног": 5183,
      "##рош": 5184,
      "##анного": 5185,
      "##анным": 5186,
      "##анье": 5187,
      "##резу": 5188,
      "##алова": 5189,
      "##еты": 5190,
      "##елев": 5191,
      "##атором": 5192,
      "##инар": 5193,
      "##горан": 5194,
      "##онта": 5195,
      "##ствии": 5196,
      "##осуд": 5197,
      "##основ": 5198,
      "##икт": 5199,
      "обо": 5200,
      "оба": 5201,
      "обе": 5202,
      "обош": 5203,
      "обоснов": 5204,
      "##има": 5205,
      "##имых": 5206,
      "##имиллион": 5207,
      "##екция": 5208,
      "##еди": 5209,
      "##едель": 5210,
      "##едших": 5211,
      "най": 5212,
      "наше": 5213,
      "соч": 5214,
      "прояв": 5215,
      "прось": 5216,
      "пролет": 5217,
      "проходит": 5218,
      "столь": 5219,
      "стад": 5220,
      "##ейл": 5221,
      "замен": 5222,
      "замы": 5223,
      "задачи": 5224,
      "##рия": 5225,
      "преж": 5226,
      "прет": 5227,
      "препод": 5228,
      "##наком": 5229,
      "##обратим": 5230,
      "##ичные": 5231,
      "##ийской": 5232,
      "##ийские": 5233,
      "##ивали": 5234,
      "##ивания": 5235,
      "##ивными": 5236,
      "поро": 5237,
      "попро": 5238,
      "показало": 5239,
      "##ентом": 5240,
      "##авис": 5241,
      "##авший": 5242,
      "отч": 5243,
      "отелей": 5244,
      "годам": 5245,
      "реаб": 5246,
      "##ровать": 5247,
      "##евид": 5248,
      "выраж": 5249,
      "##аков": 5250,
      "##убок": 5251,
      "##дая": 5252,
      "подб": 5253,
      "подел": 5254,
      "подар": 5255,
      "подорож": 5256,
      "##утин": 5257,
      "предсто": 5258,
      "##озащ": 5259,
      "##никах": 5260,
      "##ительном": 5261,
      "##льный": 5262,
      "разуме": 5263,
      "разнообраз": 5264,
      "##ольного": 5265,
      "комму": 5266,
      "комбин": 5267,
      "комфорт": 5268,
      "##рата": 5269,
      "##ург": 5270,
      "##лись": 5271,
      "##аясь": 5272,
      "##ожар": 5273,
      "##ическими": 5274,
      "##ическому": 5275,
      "свящ": 5276,
      "спи": 5277,
      "слыш": 5278,
      "рубеж": 5279,
      "##езде": 5280,
      "##аниями": 5281,
      "##ечности": 5282,
      "##жество": 5283,
      "##ерах": 5284,
      "##очные": 5285,
      "сообще": 5286,
      "сообщали": 5287,
      "сообщается": 5288,
      "конвой": 5289,
      "такого": 5290,
      "такую": 5291,
      "неж": 5292,
      "возгоран": 5293,
      "##ади": 5294,
      "учеб": 5295,
      "##егии": 5296,
      "авто": 5297,
      "госз": 5298,
      "новая": 5299,
      "новгорода": 5300,
      "прил": 5301,
      "прик": 5302,
      "прилет": 5303,
      "опт": 5304,
      "опрос": 5305,
      "оперы": 5306,
      "работал": 5307,
      "анализ": 5308,
      "##ировки": 5309,
      "##ательные": 5310,
      "которыми": 5311,
      "деся": 5312,
      "департам": 5313,
      "одес": 5314,
      "##ковые": 5315,
      "композ": 5316,
      "посещ": 5317,
      "плане": 5318,
      "самое": 5319,
      "перечисл": 5320,
      "##ющей": 5321,
      "региональное": 5322,
      "минзд": 5323,
      "минув": 5324,
      "минэконом": 5325,
      "колес": 5326,
      "коллек": 5327,
      "##таж": 5328,
      "правил": 5329,
      "правозащ": 5330,
      "продл": 5331,
      "делам": 5332,
      "делать": 5333,
      "экск": 5334,
      "##леи": 5335,
      "##реть": 5336,
      "получения": 5337,
      "получить": 5338,
      "получают": 5339,
      "началось": 5340,
      "начальная": 5341,
      "##граждения": 5342,
      "развив": 5343,
      "автов": 5344,
      "авторы": 5345,
      "алла": 5346,
      "соблюд": 5347,
      "российском": 5348,
      "диап": 5349,
      "скрыт": 5350,
      "неделе": 5351,
      "недели": 5352,
      "первую": 5353,
      "млрд.": 5354,
      "помещ": 5355,
      "представил": 5356,
      "запрос": 5357,
      "окру": 5358,
      "москалькова": 5359,
      "домом": 5360,
      "имя": 5361,
      "им.": 5362,
      "повтор": 5363,
      "военного": 5364,
      "серии": 5365,
      "иске": 5366,
      "направил": 5367,
      "направленных": 5368,
      "направлений": 5369,
      "русл": 5370,
      "человечности": 5371,
      "закрыт": 5372,
      "следственные": 5373,
      "основные": 5374,
      "##бург": 5375,
      "ранения": 5376,
      "связей": 5377,
      "строительная": 5378,
      "протяжении": 5379,
      "интег": 5380,
      "сотрудник": 5381,
      "сотрудника": 5382,
      "##разрезу": 5383,
      "пашин": 5384,
      "больнице": 5385,
      "##соверш": 5386,
      "своим": 5387,
      "участникам": 5388,
      "действий": 5389,
      "решетников": 5390,
      "ростова-на": 5391,
      "##-побратим": 5392,
      "##ящей": 5393,
      "рассматрив": 5394,
      "времени": 5395,
      "##ураль": 5396,
      "международная": 5397,
      "противоре": 5398,
      "находился": 5399,
      "здание": 5400,
      "зданий": 5401,
      "смяг": 5402,
      "распор": 5403,
      "прошел": 5404,
      "прошли": 5405,
      "поддержали": 5406,
      "материалов": 5407,
      "град": 5408,
      "установил": 5409,
      "установила": 5410,
      "установлен": 5411,
      "установило": 5412,
      "создав": 5413,
      "создании": 5414,
      "эксплу": 5415,
      "##елец": 5416,
      "техн": 5417,
      "##министра": 5418,
      "говоря": 5419,
      "предложений": 5420,
      "производству": 5421,
      "краснодарскому": 5422,
      "мире": 5423,
      "позже": 5424,
      "позиции": 5425,
      "видим": 5426,
      "слово": 5427,
      "директора": 5428,
      "группу": 5429,
      "метро": 5430,
      "необходимость": 5431,
      "необходимости": 5432,
      "##купе": 5433,
      "форсай": 5434,
      "возможно": 5435,
      "рассказала": 5436,
      "крупные": 5437,
      "странами": 5438,
      "момотова": 5439,
      "сбыт": 5440,
      "электроп": 5441,
      "электрок": 5442,
      "##ницы": 5443,
      "республике": 5444,
      "акку": 5445,
      "лучший": 5446,
      "моды": 5447,
      "модерн": 5448,
      "##агест": 5449,
      "ответчик": 5450,
      "долгос": 5451,
      "демонст": 5452,
      "привыч": 5453,
      "привлеч": 5454,
      "федеральной": 5455,
      "федеральный": 5456,
      "занимал": 5457,
      "сегодняш": 5458,
      "девят": 5459,
      "санатор": 5460,
      "сторону": 5461,
      "инвест": 5462,
      "унцию": 5463,
      "преврат": 5464,
      "выбира": 5465,
      "выборах": 5466,
      "соответственно": 5467,
      "золотой": 5468,
      "горичева": 5469,
      "июль": 5470,
      "пути": 5471,
      "политике": 5472,
      "общественного": 5473,
      "индонез": 5474,
      "важных": 5475,
      "важность": 5476,
      "исследование": 5477,
      "председателем": 5478,
      "помощи": 5479,
      "медики": 5480,
      "выпуст": 5481,
      "особую": 5482,
      "особое": 5483,
      "централь": 5484,
      "втором": 5485,
      "второе": 5486,
      "второго": 5487,
      "использовать": 5488,
      "использование": 5489,
      "казахстан": 5490,
      "правительстве": 5491,
      "транспортной": 5492,
      "контролиру": 5493,
      "беспилотники": 5494,
      "лидера": 5495,
      "лидером": 5496,
      "упал": 5497,
      "утверд": 5498,
      "утверж": 5499,
      "часто": 5500,
      "отдела": 5501,
      "выступает": 5502,
      "антикор": 5503,
      "вооружениях": 5504,
      "любов": 5505,
      "декла": 5506,
      "допуст": 5507,
      "знак": 5508,
      "##истемы": 5509,
      "десятка": 5510,
      "условий": 5511,
      "классиф": 5512,
      "##феру": 5513,
      "совершенно": 5514,
      "проведения": 5515,
      "прокуратуре": 5516,
      "покрыт": 5517,
      "завершить": 5518,
      "джей": 5519,
      "джаз": 5520,
      "клин": 5521,
      "##ешь": 5522,
      "заместителем": 5523,
      "##рировать": 5524,
      "документов": 5525,
      "проверка": 5526,
      "собственности": 5527,
      "районах": 5528,
      "частью": 5529,
      "здоровью": 5530,
      "жильцов": 5531,
      "зарплат": 5532,
      "конкурен": 5533,
      "организовать": 5534,
      "корпоратив": 5535,
      "арестан": 5536,
      "вечера": 5537,
      "голуб": 5538,
      "драй": 5539,
      "товары": 5540,
      "социальные": 5541,
      "персонала": 5542,
      "##ающихся": 5543,
      "необходимых": 5544,
      "затем": 5545,
      "затрат": 5546,
      "малень": 5547,
      "понят": 5548,
      "понедель": 5549,
      "сказать": 5550,
      "система": 5551,
      "профиль": 5552,
      "судебных": 5553,
      "судебные": 5554,
      "содержания": 5555,
      "содержание": 5556,
      "благо": 5557,
      "иванов": 5558,
      "коронав": 5559,
      "ключевой": 5560,
      "налогов": 5561,
      "писатель": 5562,
      "русского": 5563,
      "тела": 5564,
      "набереж": 5565,
      "потребовала": 5566,
      "автомобиля": 5567,
      "школы": 5568,
      "инициативы": 5569,
      "мероприятий": 5570,
      "базе": 5571,
      "звезд": 5572,
      "отменен": 5573,
      "туристы": 5574,
      "программам": 5575,
      "волго": 5576,
      "войск": 5577,
      "единоб": 5578,
      "единая": 5579,
      "северной": 5580,
      "северод": 5581,
      "почему": 5582,
      "регулят": 5583,
      "приговорили": 5584,
      "предоставить": 5585,
      "коммерсант": 5586,
      "пермский": 5587,
      "современные": 5588,
      "событий": 5589,
      "гуц": 5590,
      "устройства": 5591,
      "шт.": 5592,
      "структуры": 5593,
      "преступления": 5594,
      "резерв": 5595,
      "смогут": 5596,
      "возбудила": 5597,
      "незаконный": 5598,
      "чемпионата": 5599,
      "довольно": 5600,
      "мнение": 5601,
      "пациентов": 5602,
      "настоящее": 5603,
      "##рирует": 5604,
      "конститу": 5605,
      "возглавил": 5606,
      "областной": 5607,
      "опытом": 5608,
      "продукты": 5609,
      "поступили": 5610,
      "поступило": 5611,
      "взрывных": 5612,
      "взрывчат": 5613,
      "инвестицион": 5614,
      "watch": 5615,
      "мировых": 5616,
      "текущего": 5617,
      "национальной": 5618,
      "отрасл": 5619,
      "расходы": 5620,
      "имущество": 5621,
      "напомн": 5622,
      "рейтинга": 5623,
      "государственной": 5624,
      "анапы": 5625,
      "брендов": 5626,
      "входят": 5627,
      "дронов": 5628,
      "логист": 5629,
      "логистическ": 5630,
      "##chn": 5631,
      "промышленности": 5632,
      "апреля": 5633,
      "девочки": 5634,
      "попытку": 5635,
      "попытки": 5636,
      "зависит": 5637,
      "молодежной": 5638,
      "ребенок": 5639,
      "устойчивого": 5640,
      "омской": 5641,
      "роман": 5642,
      "травмы": 5643,
      "хотя": 5644,
      "судьи": 5645,
      "продавать": 5646,
      "потенциал": 5647,
      "административные": 5648,
      "дональд": 5649,
      "внутри": 5650,
      "ереване": 5651,
      "ожидаем": 5652,
      "сцене": 5653,
      "##ditex": 5654,
      "##рабатыв": 5655,
      "сопров": 5656,
      "предметы": 5657,
      "оператив": 5658,
      "инфляции": 5659,
      "интернете": 5660,
      "взяток": 5661,
      "апартаменты": 5662,
      "агентом": 5663,
      "голослов": 5664,
      "интерфакс": 5665,
      "##ясняет": 5666,
      "взаимодействия": 5667,
      "зарегистрировано": 5668,
      "гриб": 5669,
      "миллиар": 5670,
      "рознич": 5671,
      "тонн": 5672,
      "холод": 5673,
      "шестимиллион": 5674,
      "##ензен": 5675,
      "различных": 5676,
      "различные": 5677,
      "спикеров": 5678,
      "сервиса": 5679,
      "федерациям": 5680,
      "дорожного": 5681,
      "вакцина": 5682,
      "дизайн": 5683,
      "ликвид": 5684,
      "воронежской": 5685,
      "журналистам": 5686,
      "касается": 5687,
      "кремлев": 5688,
      "салав": 5689,
      "трое": 5690,
      "эмоцион": 5691,
      "##-дону": 5692,
      "##эксп": 5693,
      "подрядч": 5694,
      "предлагают": 5695,
      "концу": 5696,
      "переговоры": 5697,
      "переговоров": 5698,
      "искусства": 5699,
      "атмосф": 5700,
      "атмосферу": 5701,
      "результатам": 5702,
      "топлива": 5703,
      "энергет": 5704,
      "муниципал": 5705,
      "подозреваемых": 5706,
      "парацетамол": 5707,
      "парацетамола": 5708,
      "бермон": 5709,
      "ввести": 5710,
      "галина": 5711,
      "кутюр": 5712,
      "майя": 5713,
      "нейтра": 5714,
      "пляж": 5715,
      "рождения": 5716,
      "##интере": 5717,
      "обозрев": 5718,
      "полномочий": 5719,
      "учитывая": 5720,
      "поступления": 5721,
      "принцип": 5722,
      "рассмотрит": 5723,
      "рассмотрение": 5724,
      "замедление": 5725,
      "кузбасса": 5726,
      "inditex": 5727,
      "витал": 5728,
      "лиги": 5729,
      "ориент": 5730,
      "оценив": 5731,
      "ядерных": 5732,
      "вызывает": 5733,
      "подобные": 5734,
      "округе": 5735,
      "экспозиция": 5736,
      "соответствующее": 5737,
      "картофель": 5738,
      "договора": 5739,
      "уполномоченных": 5740,
      "ипотечных": 5741,
      "уточняется": 5742,
      "лазаревский": 5743,
      "боброва": 5744,
      "факультета": 5745,
      "reuters": 5746,
      "вашинг": 5747,
      "монитор": 5748,
      "ощущ": 5749,
      "хоккей": 5750,
      "процед": 5751,
      "пройдет": 5752,
      "рестора": 5753,
      "высказыв": 5754,
      "совфеда": 5755,
      "самостоятельно": 5756,
      "автопар": 5757,
      "террористической": 5758,
      "противопожар": 5759,
      "апелляцион": 5760,
      "акционеров": 5761,
      "воробьева": 5762,
      "улучш": 5763,
      "причастности": 5764,
      "востребован": 5765,
      "широкий": 5766,
      "внедрять": 5767,
      "вымогатель": 5768,
      "гастроном": 5769,
      "##-президента": 5770,
      "обстоятельства": 5771,
      "Белгород": 5772,
      "гродно": 5773,
      "кавказ": 5774,
      "читайте": 5775,
      "##ada": 5776,
      "##носить": 5777,
      "##омотив": 5778,
      "##илитации": 5779,
      "реакции": 5780,
      "присутствия": 5781,
      "свидет": 5782,
      "спустя": 5783,
      "неоднократ": 5784,
      "прошунин": 5785,
      "глухих": 5786,
      "психолог": 5787,
      "мастер-классы": 5788,
      "Краснода": 5789,
      "соревнованиях": 5790,
      "США": 5791,
      "бюро": 5792,
      "вновь": 5793,
      "гречко": 5794,
      "далее": 5795,
      "костю": 5796,
      "мчс": 5797,
      "оэз": 5798,
      "педаго": 5799,
      "ритейл": 5800,
      "сигн": 5801,
      "умень": 5802,
      "феномен": 5803,
      "хулиган": 5804,
      "церемон": 5805,
      "чч.": 5806,
      "числа": 5807,
      "ъ-кубань": 5808,
      "преподав": 5809,
      "разумеется": 5810,
      "коммуник": 5811,
      "минздрав": 5812,
      "правозащит": 5813,
      "диапаз": 5814,
      "##разрезуголь": 5815,
      "ростова-на-дону": 5816,
      "эксплуат": 5817,
      "долгосроч": 5818,
      "антикоррупцион": 5819,
      "понедельник": 5820,
      "коронавиру": 5821,
      "единобор": 5822,
      "северодонец": 5823,
      "взрывчатых": 5824,
      "неоднократно": 5825,
      "27": 5826,
      "an": 5827,
      "bl": 5828,
      "ch": 5829,
      "dan": 5830,
      "it": 5831,
      "lo": 5832,
      "lada": 5833,
      "nex": 5834,
      "pro": 5835,
      "sr": 5836,
      "vol": 5837,
      "win": 5838,
      "za": 5839,
      "«О": 5840,
      "«Г": 5841,
      "«Р": 5842,
      "«М": 5843,
      "Глава": 5844,
      "ДС": 5845,
      "Жителя": 5846,
      "Зад": 5847,
      "Мин": 5848,
      "Про": 5849,
      "СВ": 5850,
      "Сарат": 5851,
      "Татарстан": 5852,
      "ара": 5853,
      "азов": 5854,
      "альт": 5855,
      "аспект": 5856,
      "бы": 5857,
      "бр": 5858,
      "бренда": 5859,
      "вуз": 5860,
      "вступл": 5861,
      "вруч": 5862,
      "вероят": 5863,
      "ги": 5864,
      "гр": 5865,
      "г.": 5866,
      "гер": 5867,
      "гар": 5868,
      "груд": 5869,
      "гура": 5870,
      "горе": 5871,
      "гип": 5872,
      "герб": 5873,
      "дест": 5874,
      "друж": 5875,
      "дагест": 5876,
      "жд": 5877,
      "жилищ": 5878,
      "жертв": 5879,
      "зале": 5880,
      "зону": 5881,
      "имет": 5882,
      "кх": 5883,
      "кб": 5884,
      "кей": 5885,
      "крат": 5886,
      "кры": 5887,
      "кайд": 5888,
      "ле": 5889,
      "лу": 5890,
      "лит": 5891,
      "лев": 5892,
      "лиф": 5893,
      "лекар": 5894,
      "мр": 5895,
      "мит": 5896,
      "мак": 5897,
      "маль": 5898,
      "мок": 5899,
      "млад": 5900,
      "мура": 5901,
      "мороз": 5902,
      "нен": 5903,
      "нет": 5904,
      "нми": 5905,
      "неч": 5906,
      "нпо": 5907,
      "ока": 5908,
      "осп": 5909,
      "оруж": 5910,
      "пой": 5911,
      "пич": 5912,
      "пуст": 5913,
      "пензен": 5914,
      "рт": 5915,
      "рсф": 5916,
      "роуз": 5917,
      "се": 5918,
      "сен": 5919,
      "сол": 5920,
      "сере": 5921,
      "сист": 5922,
      "сила": 5923,
      "смот": 5924,
      "слаб": 5925,
      "скид": 5926,
      "тя": 5927,
      "тол": 5928,
      "там": 5929,
      "трат": 5930,
      "тера": 5931,
      "тир": 5932,
      "труп": 5933,
      "трен": 5934,
      "уро": 5935,
      "устав": 5936,
      "умер": 5937,
      "улет": 5938,
      "устра": 5939,
      "форос": 5940,
      "хет": 5941,
      "цив": 5942,
      "цеп": 5943,
      "чиж": 5944,
      "черн": 5945,
      "чул": 5946,
      "ша": 5947,
      "шосс": 5948,
      "шеф": 5949,
      "шамб": 5950,
      "элем": 5951,
      "юбил": 5952,
      "##пет": 5953,
      "##пова": 5954,
      "##паний": 5955,
      "##оход": 5956,
      "##оуст": 5957,
      "##нек": 5958,
      "##ниж": 5959,
      "##ири": 5960,
      "##лн": 5961,
      "##лся": 5962,
      "##лина": 5963,
      "##вы": 5964,
      "##сер": 5965,
      "##суд": 5966,
      "##сах": 5967,
      "##сана": 5968,
      "##сельхоз": 5969,
      "##ког": 5970,
      "##книж": 5971,
      "##мар": 5972,
      "##мезд": 5973,
      "##дю": 5974,
      "##дам": 5975,
      "##дав": 5976,
      "##дорож": 5977,
      "##допере": 5978,
      "##жал": 5979,
      "##жков": 5980,
      "##рике": 5981,
      "##цах": 5982,
      "##беж": 5983,
      "##бовать": 5984,
      "##чения": 5985,
      "##чий": 5986,
      "##ta": 5987,
      "##-й": 5988,
      "##-сп": 5989,
      "##-рот": 5990,
      "##-co": 5991,
      "##ть": 5992,
      "##тив": 5993,
      "##тение": 5994,
      "##транс": 5995,
      "##гин": 5996,
      "##гар": 5997,
      "##гель": 5998,
      "##гии": 5999,
      "##гена": 6000,
      "##яло": 6001,
      "##устрой": 6002,
      "##зией": 6003,
      "##line": 6004,
      "##фед": 6005,
      "##феля": 6006,
      "##/ч": 6007,
      "##up": 6008,
      "##us": 6009,
      "##ie": 6010,
      "##ъяв": 6011,
      "##эп": 6012,
      "##эм": 6013,
      "##эра": 6014,
      "##эстро": 6015,
      "##этаж": 6016,
      "##mo": 6017,
      "##ms": 6018,
      "##men": 6019,
      "##mber": 6020,
      "##wag": 6021,
      "##НВ": 6022,
      "##стат": 6023,
      "##стон": 6024,
      "##стас": 6025,
      "##еня": 6026,
      "##енную": 6027,
      "##ове": 6028,
      "##ову": 6029,
      "##овет": 6030,
      "##овую": 6031,
      "##овский": 6032,
      "##овым": 6033,
      "##ованы": 6034,
      "##ователи": 6035,
      "##рах": 6036,
      "##рай": 6037,
      "##рали": 6038,
      "##рация": 6039,
      "##но-п": 6040,
      "##нодорож": 6041,
      "##рост": 6042,
      "##анной": 6043,
      "##анный": 6044,
      "##анами": 6045,
      "##анский": 6046,
      "##анте": 6047,
      "##ансиров": 6048,
      "##рек": 6049,
      "##рее": 6050,
      "##рели": 6051,
      "##рета": 6052,
      "##резв": 6053,
      "##аля": 6054,
      "##етии": 6055,
      "##ерна": 6056,
      "##ерина": 6057,
      "##ерба": 6058,
      "##ело": 6059,
      "##ития": 6060,
      "##итете": 6061,
      "##олее": 6062,
      "##орб": 6063,
      "##орный": 6064,
      "##орить": 6065,
      "##ордин": 6066,
      "##омет": 6067,
      "##илий": 6068,
      "##инвест": 6069,
      "##онс": 6070,
      "##онар": 6071,
      "##онова": 6072,
      "##ствий": 6073,
      "##ствами": 6074,
      "##арное": 6075,
      "##икова": 6076,
      "##лада": 6077,
      "##лага": 6078,
      "##лачив": 6079,
      "обз": 6080,
      "обост": 6081,
      "обстанов": 6082,
      "##имся": 6083,
      "##имать": 6084,
      "##имые": 6085,
      "##еком": 6086,
      "##едник": 6087,
      "##едлив": 6088,
      "##едицин": 6089,
      "##емая": 6090,
      "наум": 6091,
      "наград": 6092,
      "нагруз": 6093,
      "сооруж": 6094,
      "проп": 6095,
      "проспект": 6096,
      "стан": 6097,
      "стил": 6098,
      "сток": 6099,
      "стиль": 6100,
      "стрел": 6101,
      "стиля": 6102,
      "заинтере": 6103,
      "##риц": 6104,
      "##риот": 6105,
      "прежд": 6106,
      "##стив": 6107,
      "##ельно": 6108,
      "##рук": 6109,
      "##руковод": 6110,
      "##над": 6111,
      "##ображ": 6112,
      "##ичных": 6113,
      "##ичного": 6114,
      "##ичная": 6115,
      "##ийского": 6116,
      "##ивая": 6117,
      "##ившим": 6118,
      "##ившись": 6119,
      "погод": 6120,
      "поясн": 6121,
      "##ентам": 6122,
      "##авшего": 6123,
      "##авшие": 6124,
      "##авлив": 6125,
      "отб": 6126,
      "отход": 6127,
      "отказ": 6128,
      "отстран": 6129,
      "отпу": 6130,
      "отлож": 6131,
      "отмени": 6132,
      "репут": 6133,
      "##рованных": 6134,
      "##евые": 6135,
      "выраст": 6136,
      "выработ": 6137,
      "выясн": 6138,
      "выплаты": 6139,
      "##аки": 6140,
      "##аке": 6141,
      "##акуп": 6142,
      "##актора": 6143,
      "##рант": 6144,
      "##ранцуз": 6145,
      "##изиров": 6146,
      "подал": 6147,
      "подав": 6148,
      "подать": 6149,
      "подня": 6150,
      "подним": 6151,
      "подмосков": 6152,
      "подкупе": 6153,
      "пристав": 6154,
      "приех": 6155,
      "предъяв": 6156,
      "##мисс": 6157,
      "##стья": 6158,
      "поли": 6159,
      "полез": 6160,
      "полпреда": 6161,
      "##илище": 6162,
      "##кую": 6163,
      "##кур": 6164,
      "инсп": 6165,
      "инстан": 6166,
      "инжен": 6167,
      "##ляция": 6168,
      "##лякова": 6169,
      "##ительный": 6170,
      "##ительству": 6171,
      "разру": 6172,
      "разного": 6173,
      "разные": 6174,
      "размер": 6175,
      "##олько": 6176,
      "##ольная": 6177,
      "кому": 6178,
      "коммент": 6179,
      "##ратить": 6180,
      "##урина": 6181,
      "##лид": 6182,
      "##нера": 6183,
      "##нецова": 6184,
      "##ожет": 6185,
      "##оплив": 6186,
      "##гией": 6187,
      "##гиев": 6188,
      "сведения": 6189,
      "##учрежд": 6190,
      "годах": 6191,
      "россией": 6192,
      "россети": 6193,
      "##остоян": 6194,
      "слух": 6195,
      "##исты": 6196,
      "##истке": 6197,
      "##аниям": 6198,
      "##ечат": 6199,
      "изнач": 6200,
      "измени": 6201,
      "##плекс": 6202,
      "##очного": 6203,
      "##очной": 6204,
      "##очным": 6205,
      "сообщение": 6206,
      "сообщении": 6207,
      "концент": 6208,
      "конфл": 6209,
      "такими": 6210,
      "##ица": 6211,
      "непро": 6212,
      "несоверш": 6213,
      "перми": 6214,
      "возро": 6215,
      "возле": 6216,
      "##овара": 6217,
      "учени": 6218,
      "учителей": 6219,
      "осетии": 6220,
      "госа": 6221,
      "новом": 6222,
      "прит": 6223,
      "опер": 6224,
      "опрош": 6225,
      "##арт-ком": 6226,
      "объясн": 6227,
      "анк": 6228,
      "##ирования": 6229,
      "совещ": 6230,
      "##ательно": 6231,
      "##ательной": 6232,
      "регист": 6233,
      "деб": 6234,
      "##нями": 6235,
      "##ковой": 6236,
      "посл": 6237,
      "посещения": 6238,
      "##усант": 6239,
      "плод": 6240,
      "перев": 6241,
      "перес": 6242,
      "перек": 6243,
      "перест": 6244,
      "переработ": 6245,
      "передачи": 6246,
      "##ющую": 6247,
      "##имоноп": 6248,
      "аргент": 6249,
      "##ильности": 6250,
      "правда": 6251,
      "правила": 6252,
      "правонар": 6253,
      "делег": 6254,
      "деловой": 6255,
      "экс": 6256,
      "экст": 6257,
      "##лец": 6258,
      "составе": 6259,
      "заявку": 6260,
      "заявля": 6261,
      "заявок": 6262,
      "получит": 6263,
      "полученные": 6264,
      "провели": 6265,
      "проекте": 6266,
      "проектах": 6267,
      "##града": 6268,
      "##ремьер": 6269,
      "развл": 6270,
      "развед": 6271,
      "алког": 6272,
      "собес": 6273,
      "собира": 6274,
      "российскими": 6275,
      "российско-": 6276,
      "местные": 6277,
      "диалог": 6278,
      "маги": 6279,
      "маэстро": 6280,
      "сканд": 6281,
      "недо": 6282,
      "##ействия": 6283,
      "первых": 6284,
      "запу": 6285,
      "испан": 6286,
      "оксана": 6287,
      "ведет": 6288,
      "ведется": 6289,
      "главный": 6290,
      "главная": 6291,
      "##ализирован": 6292,
      "домах": 6293,
      "##мента": 6294,
      "повлия": 6295,
      "поведения": 6296,
      "##янц": 6297,
      "##комнат": 6298,
      "пресс-кон": 6299,
      "краснокниж": 6300,
      "серд": 6301,
      "##производ": 6302,
      "##против": 6303,
      "парков": 6304,
      "##циях": 6305,
      "федераций": 6306,
      "искра": 6307,
      "искрен": 6308,
      "удал": 6309,
      "удоб": 6310,
      "направила": 6311,
      "направление": 6312,
      "истекает": 6313,
      "##ающую": 6314,
      "следственный": 6315,
      "следователи": 6316,
      "основных": 6317,
      "##узбасс": 6318,
      "господдерж": 6319,
      "рыно": 6320,
      "ранены": 6321,
      "связанных": 6322,
      "связям": 6323,
      "квали": 6324,
      "суверен": 6325,
      "строительной": 6326,
      "строительные": 6327,
      "интел": 6328,
      "относят": 6329,
      "приняли": 6330,
      "объектах": 6331,
      "паспорт": 6332,
      "призыв": 6333,
      "##ующая": 6334,
      "больницу": 6335,
      "все": 6336,
      "всей": 6337,
      "занял": 6338,
      "участке": 6339,
      "действие": 6340,
      "действующ": 6341,
      "действующих": 6342,
      "счета": 6343,
      "##дером": 6344,
      "##рынин": 6345,
      "##улов": 6346,
      "акту": 6347,
      "актов": 6348,
      "##ибири": 6349,
      "##вели": 6350,
      "##ящему": 6351,
      "напря": 6352,
      "напад": 6353,
      "##ителям": 6354,
      "международных": 6355,
      "международном": 6356,
      "будуще": 6357,
      "нарушил": 6358,
      "противостоян": 6359,
      "семян": 6360,
      "находились": 6361,
      "примера": 6362,
      "аэрод": 6363,
      "##еро-": 6364,
      "прошла": 6365,
      "задержаны": 6366,
      "задержанные": 6367,
      "поддерживать": 6368,
      "материалах": 6369,
      "взгля": 6370,
      "взыск": 6371,
      "граф": 6372,
      "грачев": 6373,
      "установлено": 6374,
      "явно": 6375,
      "##сап": 6376,
      "создать": 6377,
      "создали": 6378,
      "экспорт": 6379,
      "автомат": 6380,
      "водителя": 6381,
      "другим": 6382,
      "другими": 6383,
      "##но-м": 6384,
      "апарт-ком": 6385,
      "владель": 6386,
      "говорили": 6387,
      "предложила": 6388,
      "производить": 6389,
      "производителей": 6390,
      "##чество": 6391,
      "позит": 6392,
      "площадке": 6393,
      "руководству": 6394,
      "руководителя": 6395,
      "втб": 6396,
      "видов": 6397,
      "остальных": 6398,
      "числу": 6399,
      "атлет": 6400,
      "метров": 6401,
      "очевид": 6402,
      "продолжается": 6403,
      "добров": 6404,
      "добрынин": 6405,
      "реализу": 6406,
      "возможност": 6407,
      "аэропортов": 6408,
      "аэропортах": 6409,
      "##мысл": 6410,
      "контакт": 6411,
      "периоде": 6412,
      "корруп": 6413,
      "электрос": 6414,
      "##еркви": 6415,
      "отдал": 6416,
      "объемом": 6417,
      "культуру": 6418,
      "активы": 6419,
      "вопроса": 6420,
      "вопросу": 6421,
      "лучшего": 6422,
      "лучшие": 6423,
      "лучшим": 6424,
      "моделей": 6425,
      "##аемых": 6426,
      "##суа": 6427,
      "нашим": 6428,
      "нашли": 6429,
      "нашими": 6430,
      "количеству": 6431,
      "доли": 6432,
      "партнера": 6433,
      "##еннолет": 6434,
      "федеральных": 6435,
      "федеральная": 6436,
      "занимается": 6437,
      "дети": 6438,
      "детских": 6439,
      "молч": 6440,
      "франсуа": 6441,
      "##вижение": 6442,
      "программа": 6443,
      "программу": 6444,
      "сторон": 6445,
      "городах": 6446,
      "обеспечение": 6447,
      "ситуацию": 6448,
      "выбор": 6449,
      "выбрал": 6450,
      "##стройинвест": 6451,
      "участии": 6452,
      "соответствует": 6453,
      "золотых": 6454,
      "горном": 6455,
      "горяч": 6456,
      "гордум": 6457,
      "июля": 6458,
      "июня": 6459,
      "суммы": 6460,
      "##вард": 6461,
      "политику": 6462,
      "назначили": 6463,
      "признались": 6464,
      "меню": 6465,
      "депутата": 6466,
      "##ателям": 6467,
      "могли": 6468,
      "##аторы": 6469,
      "обществен": 6470,
      "поставил": 6471,
      "поставок": 6472,
      "украш": 6473,
      "кариот": 6474,
      "родов": 6475,
      "силами": 6476,
      "финале": 6477,
      "ставка": 6478,
      "попал": 6479,
      "помощью": 6480,
      "помощником": 6481,
      "нескольким": 6482,
      "множество": 6483,
      "медучрежд": 6484,
      "офис": 6485,
      "##ератур": 6486,
      "состоится": 6487,
      "замминистра": 6488,
      "отмечается": 6489,
      "выставки": 6490,
      "выпуска": 6491,
      "спортивного": 6492,
      "спортивной": 6493,
      "спортивный": 6494,
      "гражданам": 6495,
      "использованием": 6496,
      "казни": 6497,
      "сезоне": 6498,
      "цене": 6499,
      "экономике": 6500,
      "заводе": 6501,
      "дохода": 6502,
      "транспортных": 6503,
      "планирует": 6504,
      "беспилотника": 6505,
      "гостям": 6506,
      "лидеров": 6507,
      "лицо": 6508,
      "таба": 6509,
      "такая": 6510,
      "упала": 6511,
      "упаков": 6512,
      "##стрел": 6513,
      "режиме": 6514,
      "готовности": 6515,
      "мэра": 6516,
      "##онтро": 6517,
      "обратил": 6518,
      "обратном": 6519,
      "отделением": 6520,
      "антонов": 6521,
      "антимоноп": 6522,
      "специалиста": 6523,
      "любим": 6524,
      "любой": 6525,
      "techn": 6526,
      "знака": 6527,
      "содейств": 6528,
      "произошед": 6529,
      "обвиняется": 6530,
      "прошлой": 6531,
      "агроп": 6532,
      "классам": 6533,
      "никол": 6534,
      "совершили": 6535,
      "совершенных": 6536,
      "проведены": 6537,
      "береговой": 6538,
      "ъ-урал": 6539,
      "##аловались": 6540,
      "##ствующих": 6541,
      "##ствующие": 6542,
      "сотрудничеству": 6543,
      "бизнес-": 6544,
      "бизнесмен": 6545,
      "букмекеры": 6546,
      "глубок": 6547,
      "пятер": 6548,
      "документы": 6549,
      "проверку": 6550,
      "собственность": 6551,
      "районный": 6552,
      "молодых": 6553,
      "законодательство": 6554,
      "многом": 6555,
      "независ": 6556,
      "нормализ": 6557,
      "оборон": 6558,
      "оборота": 6559,
      "заседание": 6560,
      "проводит": 6561,
      "проводятся": 6562,
      "история": 6563,
      "исторические": 6564,
      "исторический": 6565,
      "доступа": 6566,
      "иностранными": 6567,
      "болель": 6568,
      "болез": 6569,
      "катун": 6570,
      "налож": 6571,
      "оказалось": 6572,
      "оказалась": 6573,
      "факторов": 6574,
      "южном": 6575,
      "социальных": 6576,
      "пространства": 6577,
      "пространстве": 6578,
      "персонализиров": 6579,
      "##ационный": 6580,
      "нижнек": 6581,
      "субъект": 6582,
      "формат": 6583,
      "штрафа": 6584,
      "##ялись": 6585,
      "появилась": 6586,
      "##курором": 6587,
      "разработки": 6588,
      "сложно": 6589,
      "высокой": 6590,
      "высоких": 6591,
      "технологии": 6592,
      "введены": 6593,
      "жилой": 6594,
      "оказались": 6595,
      "телес": 6596,
      "убед": 6597,
      "##ончить": 6598,
      "природе": 6599,
      "природных": 6600,
      "передали": 6601,
      "мощности": 6602,
      "челябинска": 6603,
      "машина": 6604,
      "школой": 6605,
      "велич": 6606,
      "викт": 6607,
      "матиас": 6608,
      "мусора": 6609,
      "февраль": 6610,
      "##чиком": 6611,
      "стабилиз": 6612,
      "предусматрив": 6613,
      "квартала": 6614,
      "открыто": 6615,
      "максимум": 6616,
      "максимальная": 6617,
      "борис": 6618,
      "волк": 6619,
      "войны": 6620,
      "временных": 6621,
      "дизель": 6622,
      "сроки": 6623,
      "ярославля": 6624,
      "регулиру": 6625,
      "светл": 6626,
      "современного": 6627,
      "армения": 6628,
      "события": 6629,
      "массового": 6630,
      "наркоторгов": 6631,
      "наркотиками": 6632,
      "позволяет": 6633,
      "добавили": 6634,
      "выполнения": 6635,
      "ассамб": 6636,
      "знаний": 6637,
      "многофун": 6638,
      "ночью": 6639,
      "штат": 6640,
      "##vit": 6641,
      "процессы": 6642,
      "структура": 6643,
      "структуру": 6644,
      "причинив": 6645,
      "объявил": 6646,
      "экологического": 6647,
      "укреплению": 6648,
      "смогли": 6649,
      "санкт-петербурге": 6650,
      "превышении": 6651,
      "музыки": 6652,
      "обвиняемые": 6653,
      "обвиняемый": 6654,
      "футболе": 6655,
      "футболист": 6656,
      "##ференции": 6657,
      "незаконно": 6658,
      "незаконном": 6659,
      "границ": 6660,
      "границы": 6661,
      "ссыла": 6662,
      "филинов": 6663,
      "энерго": 6664,
      "языка": 6665,
      "##аторами": 6666,
      "настоящий": 6667,
      "##рируется": 6668,
      "конструкт": 6669,
      "областей": 6670,
      "назвали": 6671,
      "повреждения": 6672,
      "расследования": 6673,
      "воспользов": 6674,
      "соответствующий": 6675,
      "соответствующая": 6676,
      "официально": 6677,
      "полицейским": 6678,
      "вспомин": 6679,
      "диверсии": 6680,
      "масла": 6681,
      "ожид": 6682,
      "схему": 6683,
      "функции": 6684,
      "фундам": 6685,
      "национальных": 6686,
      "надзорное": 6687,
      "прекра": 6688,
      "открытом": 6689,
      "артема": 6690,
      "артемий": 6691,
      "земельных": 6692,
      "земельного": 6693,
      "земельный": 6694,
      "декабре": 6695,
      "всероссийского": 6696,
      "анастас": 6697,
      "дрона": 6698,
      "пытки": 6699,
      "саратова": 6700,
      "##ефици": 6701,
      "крайне": 6702,
      "операции": 6703,
      "операций": 6704,
      "дефляция": 6705,
      "кузнецова": 6706,
      "спортсмены": 6707,
      "расположен": 6708,
      "расположены": 6709,
      "форума": 6710,
      "ответственности": 6711,
      "восстановлению": 6712,
      "исследований": 6713,
      "приостановил": 6714,
      "устойчивом": 6715,
      "вернулась": 6716,
      "вице-м": 6717,
      "км/ч": 6718,
      "моста": 6719,
      "ущерба": 6720,
      "уфы": 6721,
      "уфим": 6722,
      "хотят": 6723,
      "намерена": 6724,
      "старше": 6725,
      "предварительным": 6726,
      "судьбу": 6727,
      "спецтех": 6728,
      "потенциала": 6729,
      "относится": 6730,
      "трансф": 6731,
      "изъятии": 6732,
      "дальнейшем": 6733,
      "контракту": 6734,
      "возвращения": 6735,
      "разрешение": 6736,
      "бонде": 6737,
      "богат": 6738,
      "ереван": 6739,
      "идею": 6740,
      "локализ": 6741,
      "локомотив": 6742,
      "олега": 6743,
      "синклер": 6744,
      "успех": 6745,
      "широ": 6746,
      "наиболее": 6747,
      "аварий": 6748,
      "аварии": 6749,
      "авария": 6750,
      "начальник": 6751,
      "распределения": 6752,
      "очередной": 6753,
      "формирующих": 6754,
      "третьей": 6755,
      "агентства": 6756,
      "воздушное": 6757,
      "голосования": 6758,
      "статуса": 6759,
      "аналогичный": 6760,
      "металлург": 6761,
      "льготных": 6762,
      "льготной": 6763,
      "гимназией": 6764,
      "баранов": 6765,
      "живот": 6766,
      "жителям": 6767,
      "пласт": 6768,
      "препараты": 6769,
      "спектр": 6770,
      "конкретного": 6771,
      "конкретный": 6772,
      "судостроения": 6773,
      "##табло": 6774,
      "автобусом": 6775,
      "московская": 6776,
      "пассажиров": 6777,
      "открывает": 6778,
      "барселоне": 6779,
      "клуба": 6780,
      "наличии": 6781,
      "борьбы": 6782,
      "нынешнего": 6783,
      "com": 6784,
      "валер": 6785,
      "валют": 6786,
      "иркут": 6787,
      "кремля": 6788,
      "клетки": 6789,
      "сосед": 6790,
      "танцев": 6791,
      "##окаев": 6792,
      "##рессив": 6793,
      "обучения": 6794,
      "отправку": 6795,
      "двумя": 6796,
      "угрозу": 6797,
      "маршрут": 6798,
      "крупнейших": 6799,
      "используется": 6800,
      "знакомому": 6801,
      "топливом": 6802,
      "корпорации": 6803,
      "пользуются": 6804,
      "масшта": 6805,
      "подразделения": 6806,
      "запланирован": 6807,
      "недополучит": 6808,
      "вступил": 6809,
      "кольца": 6810,
      "фирмен": 6811,
      "чистот": 6812,
      "эпох": 6813,
      "обознач": 6814,
      "застройщик": 6815,
      "застройщика": 6816,
      "подконтро": 6817,
      "##илища": 6818,
      "спорные": 6819,
      "импров": 6820,
      "импорт": 6821,
      "предпринимательской": 6822,
      "красоты": 6823,
      "красоту": 6824,
      "обсуждения": 6825,
      "открылся": 6826,
      "уточнили": 6827,
      "популярных": 6828,
      "кузбассразрезуголь": 6829,
      "##политической": 6830,
      "3pl-оператора": 6831,
      "2025": 6832,
      "цифровых": 6833,
      "прокомментировал": 6834,
      "многоквартирных": 6835,
      "marton": 6836,
      "жкх": 6837,
      "кругл": 6838,
      "птен": 6839,
      "панель": 6840,
      "фотограф": 6841,
      "##ханянц": 6842,
      "##ймов": 6843,
      "##фицирован": 6844,
      "равно": 6845,
      "прогно": 6846,
      "стремление": 6847,
      "пресечения": 6848,
      "поражения": 6849,
      "выразил": 6850,
      "привели": 6851,
      "справедлив": 6852,
      "регистрации": 6853,
      "регистрацию": 6854,
      "постоянно": 6855,
      "дипломат": 6856,
      "гендиректор": 6857,
      "гендиректора": 6858,
      "смартф": 6859,
      "эксперимент": 6860,
      "водоснабжения": 6861,
      "водоснабжение": 6862,
      "сформированы": 6863,
      "обсудят": 6864,
      "воздухе": 6865,
      "роспотребнадзор": 6866,
      "обязательства": 6867,
      "ассоциация": 6868,
      "доверия": 6869,
      "текущей": 6870,
      "традиционно": 6871,
      "гуманитарного": 6872,
      "гуманитарный": 6873,
      "водохранилище": 6874,
      "фиксируется": 6875,
      "онлайн-табло": 6876,
      "mas": 6877,
      "Новороссий": 6878,
      "браков": 6879,
      "блока": 6880,
      "зрения": 6881,
      "книг": 6882,
      "кореи": 6883,
      "лексики": 6884,
      "падение": 6885,
      "сурдопере": 6886,
      "тремя": 6887,
      "##ыгрыв": 6888,
      "##-хромос": 6889,
      "просит": 6890,
      "##ившегося": 6891,
      "половине": 6892,
      "негатив": 6893,
      "небольшие": 6894,
      "госдумы": 6895,
      "одежды": 6896,
      "называется": 6897,
      "представителями": 6898,
      "закрыли": 6899,
      "реконструкции": 6900,
      "позицию": 6901,
      "требуется": 6902,
      "утвержд": 6903,
      "капремонта": 6904,
      "частично": 6905,
      "дефицитом": 6906,
      "bmw": 6907,
      "xviii": 6908,
      "борту": 6909,
      "вещей": 6910,
      "дюсап": 6911,
      "дерипа": 6912,
      "лестнич": 6913,
      "норвегии": 6914,
      "патриот": 6915,
      "сарханянц": 6916,
      "тюрь": 6917,
      "трлн": 6918,
      "тройку": 6919,
      "швей": 6920,
      "##ающегося": 6921,
      "##oomber": 6922,
      "##obuild": 6923,
      "проживает": 6924,
      "стрелец": 6925,
      "степени": 6926,
      "премию": 6927,
      "выручка": 6928,
      "вынуждены": 6929,
      "подстанции": 6930,
      "предназначены": 6931,
      "полутина": 6932,
      "изготовление": 6933,
      "новосибирск": 6934,
      "планах": 6935,
      "перечень": 6936,
      "каждая": 6937,
      "дискуссии": 6938,
      "предпочит": 6939,
      "следующем": 6940,
      "марии-антуанет": 6941,
      "аэрофлота": 6942,
      "санкций": 6943,
      "красивых": 6944,
      "вакансий": 6945,
      "росавиации": 6946,
      "комиссию": 6947,
      "железнодорож": 6948,
      "популяриз": 6949,
      "копенгагена": 6950,
      "мошенничестве": 6951,
      "ликвидации": 6952,
      "анонсиров": 6953,
      "аграрного": 6954,
      "заболеваний": 6955,
      "невозможно": 6956,
      "аукциона": 6957,
      "середюк": 6958,
      "предыдущем": 6959,
      "Екатеринбур": 6960,
      "афр": 6961,
      "бенефици": 6962,
      "бакалин": 6963,
      "бразиль": 6964,
      "вертолет": 6965,
      "геленджика": 6966,
      "др.": 6967,
      "когда-то": 6968,
      "лабо": 6969,
      "нелег": 6970,
      "пандем": 6971,
      "скорее": 6972,
      "сажать": 6973,
      "телеф": 6974,
      "честно": 6975,
      "чебанов": 6976,
      "##играл": 6977,
      "##kswag": 6978,
      "попробовать": 6979,
      "реабилитации": 6980,
      "конвойных": 6981,
      "госзакуп": 6982,
      "десяти": 6983,
      "автоваз": 6984,
      "противоречий": 6985,
      "смягчения": 6986,
      "распоряж": 6987,
      "сбыта": 6988,
      "модернизации": 6989,
      "утверждает": 6990,
      "голубева": 6991,
      "драйв": 6992,
      "коммерсантъ": 6993,
      "холодиль": 6994,
      "муниципалитет": 6995,
      "обозреватель": 6996,
      "вашингт": 6997,
      "ресторана": 6998,
      "автопарка": 6999,
      "единоборств": 7000,
      "северодонецка": 7001,
      "bloomber": 7002,
      "lovit": 7003,
      "next": 7004,
      "sry": 7005,
      "volkswag": 7006,
      "winline": 7007,
      "ДСНВ": 7008,
      "Задерж": 7009,
      "Татарстане": 7010,
      "вступления": 7011,
      "иметь": 7012,
      "кхл": 7013,
      "кайдалова": 7014,
      "литератур": 7015,
      "нмиц": 7016,
      "нечто": 7017,
      "оружия": 7018,
      "пойдут": 7019,
      "пичурина": 7020,
      "роуз-рот": 7021,
      "систему": 7022,
      "тамож": 7023,
      "тирз": 7024,
      "чижова": 7025,
      "чулков": 7026,
      "шоссе": 7027,
      "шамберина": 7028,
      "##ment": 7029,
      "наумов": 7030,
      "стрелкова": 7031,
      "заинтересов": 7032,
      "прежде": 7033,
      "слуху": 7034,
      "изначально": 7035,
      "несовершеннолет": 7036,
      "правонаруш": 7037,
      "суверенитета": 7038,
      "относятся": 7039,
      "будущее": 7040,
      "апарт-комплекс": 7041,
      "technobuild": 7042,
      "нижнекам": 7043,
      "ассамблеи": 7044,
      "сурдоперевод": 7045,
      "марии-антуанетты": 7046,
      "bloomberg": 7047,
      "volkswagen": 7048,
      "-х": 7049,
      "-дю": 7050,
      "15": 7051,
      "12": 7052,
      "14": 7053,
      "32": 7054,
      "by": 7055,
      "bi": 7056,
      "bers": 7057,
      "da": 7058,
      "ds": 7059,
      "de": 7060,
      "for": 7061,
      "ib": 7062,
      "mo": 7063,
      "pu": 7064,
      "pa": 7065,
      "wild": 7066,
      "xy": 7067,
      "xx": 7068,
      "y-хромос": 7069,
      "«А": 7070,
      "«С": 7071,
      "«Е": 7072,
      "«И": 7073,
      "Баш": 7074,
      "ДТ": 7075,
      "Дании": 7076,
      "Ком": 7077,
      "Куб": 7078,
      "Каз": 7079,
      "Кузбасс": 7080,
      "Мом": 7081,
      "ПИ": 7082,
      "Пред": 7083,
      "СИ": 7084,
      "Совета": 7085,
      "Ук": 7086,
      "аск": 7087,
      "ада": 7088,
      "аоз": 7089,
      "аку": 7090,
      "али": 7091,
      "алю": 7092,
      "астра": 7093,
      "алена": 7094,
      "бат": 7095,
      "бед": 7096,
      "бой": 7097,
      "бру": 7098,
      "беск": 7099,
      "бур": 7100,
      "бег": 7101,
      "брит": 7102,
      "бата": 7103,
      "бесс": 7104,
      "бреч": 7105,
      "вч": 7106,
      "ву": 7107,
      "в.": 7108,
      "вра": 7109,
      "вск": 7110,
      "вся": 7111,
      "вас": 7112,
      "вез": 7113,
      "вок": 7114,
      "вести": 7115,
      "влож": 7116,
      "виру": 7117,
      "ваг": 7118,
      "ветер": 7119,
      "вете": 7120,
      "вряд": 7121,
      "вреда": 7122,
      "вари": 7123,
      "вносить": 7124,
      "гк": 7125,
      "гект": 7126,
      "гку": 7127,
      "гром": 7128,
      "гбу": 7129,
      "дил": 7130,
      "док": 7131,
      "дег": 7132,
      "дней": 7133,
      "даров": 7134,
      "ед": 7135,
      "ела": 7136,
      "еги": 7137,
      "зим": 7138,
      "зерк": 7139,
      "и/": 7140,
      "ими": 7141,
      "кж": 7142,
      "ким": 7143,
      "каль": 7144,
      "кора": 7145,
      "каст": 7146,
      "кожа": 7147,
      "кстат": 7148,
      "ла": 7149,
      "лов": 7150,
      "лам": 7151,
      "лив": 7152,
      "лут": 7153,
      "лош": 7154,
      "лотов": 7155,
      "лекции": 7156,
      "мп": 7157,
      "мос": 7158,
      "мера": 7159,
      "муп": 7160,
      "мба": 7161,
      "мерв": 7162,
      "мертв": 7163,
      "ну": 7164,
      "нож": 7165,
      "ними": 7166,
      "ниш": 7167,
      "нью": 7168,
      "носк": 7169,
      "нусант": 7170,
      "ору": 7171,
      "остан": 7172,
      "оке": 7173,
      "оплат": 7174,
      "пев": 7175,
      "плен": 7176,
      "паст": 7177,
      "пах": 7178,
      "пуш": 7179,
      "педи": 7180,
      "ряз": 7181,
      "сз": 7182,
      "с.": 7183,
      "сет": 7184,
      "сом": 7185,
      "сек": 7186,
      "ска": 7187,
      "сход": 7188,
      "саз": 7189,
      "сдерж": 7190,
      "сано": 7191,
      "т.": 7192,
      "тор": 7193,
      "тар": 7194,
      "тара": 7195,
      "тип": 7196,
      "товара": 7197,
      "токаев": 7198,
      "уж": 7199,
      "уск": 7200,
      "уин": 7201,
      "указал": 7202,
      "умышлен": 7203,
      "ухан": 7204,
      "уведом": 7205,
      "фо": 7206,
      "фл": 7207,
      "фред": 7208,
      "фью": 7209,
      "феф": 7210,
      "хар": 7211,
      "хим": 7212,
      "хоре": 7213,
      "халит": 7214,
      "цени": 7215,
      "цик": 7216,
      "цели": 7217,
      "церкви": 7218,
      "шла": 7219,
      "шиц": 7220,
      "шум": 7221,
      "щен": 7222,
      "ъ-п": 7223,
      "эстон": 7224,
      "юр": 7225,
      "юу": 7226,
      "юрий": 7227,
      "##пел": 7228,
      "##поз": 7229,
      "##поль": 7230,
      "##ппа": 7231,
      "##пция": 7232,
      "##прият": 7233,
      "##проме": 7234,
      "##ппе": 7235,
      "##о.": 7236,
      "##оан": 7237,
      "##оки": 7238,
      "##око": 7239,
      "##окуп": 7240,
      "##охоз": 7241,
      "##ака": 7242,
      "##аном": 7243,
      "##аез": 7244,
      "##нс": 7245,
      "##нт": 7246,
      "##неры": 7247,
      "##иу": 7248,
      "##иог": 7249,
      "##лик": 7250,
      "##луб": 7251,
      "##леск": 7252,
      "##лощ": 7253,
      "##лыш": 7254,
      "##вен": 7255,
      "##вак": 7256,
      "##виз": 7257,
      "##вая": 7258,
      "##веро": 7259,
      "##вшись": 7260,
      "##вития": 7261,
      "##си": 7262,
      "##сол": 7263,
      "##сор": 7264,
      "##син": 7265,
      "##соб": 7266,
      "##сной": 7267,
      "##кс": 7268,
      "##кест": 7269,
      "##конов": 7270,
      "##мой": 7271,
      "##мост": 7272,
      "##мила": 7273,
      "##мул": 7274,
      "##манов": 7275,
      "##мсе": 7276,
      "##мвая": 7277,
      "##ху": 7278,
      "##хол": 7279,
      "##хват": 7280,
      "##дол": 7281,
      "##деров": 7282,
      "##доров": 7283,
      "##жет": 7284,
      "##жем": 7285,
      "##ющее": 7286,
      "##юста": 7287,
      "##ьи": 7288,
      "##ьше": 7289,
      "##ьян": 7290,
      "##рнова": 7291,
      "##цз": 7292,
      "##цом": 7293,
      "##цат": 7294,
      "##цар": 7295,
      "##цева": 7296,
      "##цбург": 7297,
      "##бэ": 7298,
      "##бер": 7299,
      "##бек": 7300,
      "##без": 7301,
      "##чу": 7302,
      "##чез": 7303,
      "##чина": 7304,
      "##чная": 7305,
      "##черс": 7306,
      "##чика": 7307,
      "##tra": 7308,
      "##-з": 7309,
      "##-1": 7310,
      "##-ред": 7311,
      "##тя": 7312,
      "##тения": 7313,
      "##топлив": 7314,
      "##гл": 7315,
      "##гор": 7316,
      "##яемой": 7317,
      "##шается": 7318,
      "##ймет": 7319,
      "##уро": 7320,
      "##ула": 7321,
      "##уги": 7322,
      "##узу": 7323,
      "##устро": 7324,
      "##удач": 7325,
      "##уляр": 7326,
      "##уирован": 7327,
      "##зм": 7328,
      "##зран": 7329,
      "##зации": 7330,
      "##зрыв": 7331,
      "##ph": 7332,
      "##ple": 7333,
      "##ly": 7334,
      "##фин": 7335,
      "##фия": 7336,
      "##факт": 7337,
      "##факс": 7338,
      "##фть": 7339,
      "##0%": 7340,
      "##ri": 7341,
      "##ne": 7342,
      "##yle": 7343,
      "##st": 7344,
      "##se": 7345,
      "##sk": 7346,
      "##d-": 7347,
      "##der": 7348,
      "##ъян": 7349,
      "##3%": 7350,
      "##эр": 7351,
      "##эффект": 7352,
      "##—ав": 7353,
      "##fa": 7354,
      "##hka": 7355,
      "##vo": 7356,
      "##ve": 7357,
      "##zon": 7358,
      "##ЗО": 7359,
      "##сте": 7360,
      "##стров": 7361,
      "##стые": 7362,
      "##стаб": 7363,
      "##ене": 7364,
      "##еных": 7365,
      "##енному": 7366,
      "##еновых": 7367,
      "##овом": 7368,
      "##ованные": 7369,
      "##ованием": 7370,
      "##рала": 7371,
      "##расов": 7372,
      "##рацию": 7373,
      "##нош": 7374,
      "##ноцен": 7375,
      "##нозем": 7376,
      "##роют": 7377,
      "##ростов": 7378,
      "##роизвод": 7379,
      "##анное": 7380,
      "##анность": 7381,
      "##анта": 7382,
      "##анную": 7383,
      "##ансов": 7384,
      "##анса": 7385,
      "##реж": 7386,
      "##реем": 7387,
      "##реевой": 7388,
      "##реаги": 7389,
      "##алу": 7390,
      "##алом": 7391,
      "##алансиров": 7392,
      "##одель": 7393,
      "##одоро": 7394,
      "##одец": 7395,
      "##одисп": 7396,
      "##сков": 7397,
      "##скают": 7398,
      "##скаж": 7399,
      "##скохоз": 7400,
      "##ерик": 7401,
      "##ерного": 7402,
      "##ерные": 7403,
      "##ерфакс": 7404,
      "##елов": 7405,
      "##ито": 7406,
      "##ите": 7407,
      "##итно": 7408,
      "##итых": 7409,
      "##олон": 7410,
      "##олис": 7411,
      "##олита": 7412,
      "##енили": 7413,
      "##орин": 7414,
      "##орку": 7415,
      "##орке": 7416,
      "##орца": 7417,
      "##ома": 7418,
      "##омки": 7419,
      "##илизации": 7420,
      "##иня": 7421,
      "##инции": 7422,
      "##инском": 7423,
      "##гон": 7424,
      "##онд": 7425,
      "##онного": 7426,
      "##онным": 7427,
      "##онеч": 7428,
      "##онского": 7429,
      "##онации": 7430,
      "##онтов": 7431,
      "##онска": 7432,
      "##оть": 7433,
      "##отаж": 7434,
      "##отех": 7435,
      "##ствам": 7436,
      "##ствием": 7437,
      "##арм": 7438,
      "##арской": 7439,
      "##арова": 7440,
      "##арус": 7441,
      "##осп": 7442,
      "##осервис": 7443,
      "##иком": 7444,
      "##икам": 7445,
      "##лам": 7446,
      "##лакова": 7447,
      "##лаждение": 7448,
      "##лашев": 7449,
      "обж": 7450,
      "обез": 7451,
      "расти": 7452,
      "раун": 7453,
      "##имого": 7454,
      "##еко": 7455,
      "##екций": 7456,
      "##екуляр": 7457,
      "##едия": 7458,
      "##еми": 7459,
      "##емый": 7460,
      "наг": 7461,
      "наст": 7462,
      "надел": 7463,
      "навер": 7464,
      "напа": 7465,
      "наша": 7466,
      "нашего": 7467,
      "насы": 7468,
      "надлеж": 7469,
      "награждения": 7470,
      "напротив": 7471,
      "сорок": 7472,
      "соиск": 7473,
      "сочет": 7474,
      "сожал": 7475,
      "пролон": 7476,
      "пройти": 7477,
      "ста": 7478,
      "стс": 7479,
      "стен": 7480,
      "стек": 7481,
      "стены": 7482,
      "стаж": 7483,
      "стеф": 7484,
      "##ойное": 7485,
      "заран": 7486,
      "заплат": 7487,
      "займет": 7488,
      "##риб": 7489,
      "##ама": 7490,
      "преим": 7491,
      "прести": 7492,
      "##стиров": 7493,
      "##рует": 7494,
      "##руют": 7495,
      "##национ": 7496,
      "##обрит": 7497,
      "##облож": 7498,
      "##объект": 7499,
      "##ично": 7500,
      "##ивов": 7501,
      "попа": 7502,
      "поиск": 7503,
      "поезд": 7504,
      "пожа": 7505,
      "пошли": 7506,
      "поиска": 7507,
      "поясняет": 7508,
      "##ентз": 7509,
      "##авшей": 7510,
      "##авшую": 7511,
      "отск": 7512,
      "отстав": 7513,
      "отрав": 7514,
      "отоп": 7515,
      "отвер": 7516,
      "отец": 7517,
      "отриц": 7518,
      "отреаги": 7519,
      "регла": 7520,
      "реальные": 7521,
      "реорг": 7522,
      "реаги": 7523,
      "##ровские": 7524,
      "##евремен": 7525,
      "выв": 7526,
      "вый": 7527,
      "выращ": 7528,
      "выиг": 7529,
      "выех": 7530,
      "выяснил": 7531,
      "выдачи": 7532,
      "вызв": 7533,
      "выясня": 7534,
      "выиграл": 7535,
      "##актов": 7536,
      "##ороне": 7537,
      "##ятской": 7538,
      "##раник": 7539,
      "##иза": 7540,
      "##изи": 7541,
      "##изм": 7542,
      "##измен": 7543,
      "##изма": 7544,
      "##сплей": 7545,
      "##альность": 7546,
      "##огооблож": 7547,
      "##дах": 7548,
      "##дающий": 7549,
      "пода": 7550,
      "подала": 7551,
      "подвер": 7552,
      "подлет": 7553,
      "подвед": 7554,
      "подлеж": 7555,
      "прид": 7556,
      "приход": 7557,
      "пригород": 7558,
      "приготов": 7559,
      "прирост": 7560,
      "##удили": 7561,
      "предсказ": 7562,
      "предлог": 7563,
      "предлага": 7564,
      "##озв": 7565,
      "##озной": 7566,
      "##озап": 7567,
      "##оздоров": 7568,
      "##юта": 7569,
      "##алины": 7570,
      "полной": 7571,
      "полгод": 7572,
      "полноцен": 7573,
      "##ереди": 7574,
      "##еребой": 7575,
      "##слов": 7576,
      "инк": 7577,
      "иниции": 7578,
      "инспект": 7579,
      "иннова": 7580,
      "##ляева": 7581,
      "##ительность": 7582,
      "##ительского": 7583,
      "##ительная": 7584,
      "##ительную": 7585,
      "##ительному": 7586,
      "разъ": 7587,
      "разыгрыв": 7588,
      "##ольском": 7589,
      "комлев": 7590,
      "комитете": 7591,
      "##оссети": 7592,
      "##раторий": 7593,
      "##лиш": 7594,
      "##либин": 7595,
      "##кир": 7596,
      "##непод": 7597,
      "##нефть": 7598,
      "##ожн": 7599,
      "##опровод": 7600,
      "##опреем": 7601,
      "свр": 7602,
      "свод": 7603,
      "спада": 7604,
      "спонс": 7605,
      "##остеро": 7606,
      "##осторож": 7607,
      "##идеми": 7608,
      "рубин": 7609,
      "##асов": 7610,
      "##редил": 7611,
      "изотова": 7612,
      "изображ": 7613,
      "##костью": 7614,
      "##ывала": 7615,
      "##ываться": 7616,
      "##плено": 7617,
      "##площад": 7618,
      "##очном": 7619,
      "сообщения": 7620,
      "кондици": 7621,
      "конусов": 7622,
      "краевого": 7623,
      "неиз": 7624,
      "неправ": 7625,
      "негод": 7626,
      "неордин": 7627,
      "неудач": 7628,
      "неосторож": 7629,
      "##ственность": 7630,
      "возм": 7631,
      "возвод": 7632,
      "##окольной": 7633,
      "##аде": 7634,
      "учета": 7635,
      "##егом": 7636,
      "##ителю": 7637,
      "облад": 7638,
      "##умышлен": 7639,
      "осень": 7640,
      "осво": 7641,
      "осипов": 7642,
      "осудили": 7643,
      "госстро": 7644,
      "госорг": 7645,
      "госизмен": 7646,
      "новин": 7647,
      "новую": 7648,
      "новыми": 7649,
      "##ромными": 7650,
      "##ромышлен": 7651,
      "##родук": 7652,
      "опг": 7653,
      "опор": 7654,
      "опров": 7655,
      "опере": 7656,
      "опух": 7657,
      "опуст": 7658,
      "опьян": 7659,
      "##артнеров": 7660,
      "##ировала": 7661,
      "совокуп": 7662,
      "совбез": 7663,
      "судна": 7664,
      "судья": 7665,
      "##ленные": 7666,
      "##ательного": 7667,
      "##ательное": 7668,
      "##ательными": 7669,
      "месс": 7670,
      "механи": 7671,
      "##иры": 7672,
      "##ирин": 7673,
      "деш": 7674,
      "##айно": 7675,
      "##новремен": 7676,
      "одни": 7677,
      "одновремен": 7678,
      "##ково": 7679,
      "##ковых": 7680,
      "компресс": 7681,
      "компенс": 7682,
      "компанией": 7683,
      "##ое-то": 7684,
      "планов": 7685,
      "плох": 7686,
      "плюс": 7687,
      "самим": 7688,
      "самый": 7689,
      "самоволь": 7690,
      "перевод": 7691,
      "перелом": 7692,
      "##ющая": 7693,
      "##ющими": 7694,
      "##скомпаний": 7695,
      "моис": 7696,
      "региональных": 7697,
      "региональном": 7698,
      "региональными": 7699,
      "среды": 7700,
      "среду": 7701,
      "средним": 7702,
      "средняя": 7703,
      "дошк": 7704,
      "минсельхоз": 7705,
      "орд": 7706,
      "орфей": 7707,
      "оркест": 7708,
      "сентябрь": 7709,
      "##олжье": 7710,
      "арсен": 7711,
      "##ильно": 7712,
      "колоб": 7713,
      "коллед": 7714,
      "колеб": 7715,
      "колченко": 7716,
      "##чины": 7717,
      "##ладов": 7718,
      "право": 7719,
      "правопреем": 7720,
      "##гунов": 7721,
      "продвижение": 7722,
      "##ушек": 7723,
      "##ушку": 7724,
      "двое": 7725,
      "дворе": 7726,
      "дворца": 7727,
      "посту": 7728,
      "постель": 7729,
      "экос": 7730,
      "##лепроме": 7731,
      "рфс": 7732,
      "состава": 7733,
      "составят": 7734,
      "составляют": 7735,
      "кух": 7736,
      "куратор": 7737,
      "кулакова": 7738,
      "кулибин": 7739,
      "заявив": 7740,
      "получив": 7741,
      "получило": 7742,
      "провел": 7743,
      "провести": 7744,
      "провинции": 7745,
      "начнут": 7746,
      "начало": 7747,
      "проектам": 7748,
      "строг": 7749,
      "##граждение": 7750,
      "##анды": 7751,
      "развлек": 7752,
      "автодоро": 7753,
      "автосервис": 7754,
      "алт": 7755,
      "теод": 7756,
      "тестиров": 7757,
      "уклон": 7758,
      "укреп": 7759,
      "расч": 7760,
      "расчет": 7761,
      "расскаж": 7762,
      "российским": 7763,
      "российское": 7764,
      "##ощи": 7765,
      "##яться": 7766,
      "инфекции": 7767,
      "местного": 7768,
      "местной": 7769,
      "местными": 7770,
      "местному": 7771,
      "##лючение": 7772,
      "сквер": 7773,
      "скрыв": 7774,
      "сконч": 7775,
      "сколько": 7776,
      "скромными": 7777,
      "первым": 7778,
      "##ышкин": 7779,
      "называют": 7780,
      "##естиваля": 7781,
      "представили": 7782,
      "представления": 7783,
      "представление": 7784,
      "представляет": 7785,
      "представляют": 7786,
      "представлены": 7787,
      "заполн": 7788,
      "запущ": 7789,
      "запуст": 7790,
      "окна": 7791,
      "##енаправ": 7792,
      "##ателю": 7793,
      "прессы": 7794,
      "ведутся": 7795,
      "главного": 7796,
      "главной": 7797,
      "главное": 7798,
      "главными": 7799,
      "нарком": 7800,
      "московской": 7801,
      "доме": 7802,
      "домой": 7803,
      "повер": 7804,
      "повсед": 7805,
      "##абилиз": 7806,
      "##янут": 7807,
      "##янъян": 7808,
      "##кома": 7809,
      "военных": 7810,
      "военный": 7811,
      "вошел": 7812,
      "серб": 7813,
      "серий": 7814,
      "серти": 7815,
      "##ерней": 7816,
      "##ернатив": 7817,
      "центром": 7818,
      "центры": 7819,
      "исков": 7820,
      "исковые": 7821,
      "спорту": 7822,
      "спортом": 7823,
      "удорож": 7824,
      "удво": 7825,
      "направят": 7826,
      "направлено": 7827,
      "истреб": 7828,
      "истца": 7829,
      "истечения": 7830,
      "руки": 7831,
      "руфия": 7832,
      "угля": 7833,
      "угроз": 7834,
      "углуб": 7835,
      "углепроме": 7836,
      "##шихся": 7837,
      "заклад": 7838,
      "заксоб": 7839,
      "предпис": 7840,
      "предполож": 7841,
      "предпола": 7842,
      "следственного": 7843,
      "следствием": 7844,
      "основой": 7845,
      "основная": 7846,
      "основатель": 7847,
      "##июне": 7848,
      "рыжков": 7849,
      "ранение": 7850,
      "раньше": 7851,
      "раненых": 7852,
      "связке": 7853,
      "связаны": 7854,
      "связано": 7855,
      "связанные": 7856,
      "безвоз": 7857,
      "строительных": 7858,
      "строительству": 7859,
      "строительстве": 7860,
      "марина": 7861,
      "##строение": 7862,
      "протести": 7863,
      "президенту": 7864,
      "потратить": 7865,
      "##ческой": 7866,
      "##енде": 7867,
      "##развития": 7868,
      "министров": 7869,
      "пап": 7870,
      "парал": 7871,
      "паузу": 7872,
      "##ующими": 7873,
      "своевремен": 7874,
      "участки": 7875,
      "участники": 7876,
      "участника": 7877,
      "москвой": 7878,
      "действиях": 7879,
      "огне": 7880,
      "##трамвая": 7881,
      "ведомости": 7882,
      "##цеп": 7883,
      "##-премьер": 7884,
      "##-партнеров": 7885,
      "актер": 7886,
      "актри": 7887,
      "снг": 7888,
      "##вела": 7889,
      "##товской": 7890,
      "##товая": 7891,
      "рассел": 7892,
      "наполн": 7893,
      "напрям": 7894,
      "##ителями": 7895,
      "турищ": 7896,
      "будем": 7897,
      "##ологического": 7898,
      "обвинили": 7899,
      "обвинений": 7900,
      "нарушении": 7901,
      "организаторы": 7902,
      "реку": 7903,
      "семак": 7904,
      "находилась": 7905,
      "стражи": 7906,
      "сможет": 7907,
      "задержания": 7908,
      "поддержке": 7909,
      "поддержкой": 7910,
      "участвует": 7911,
      "участвуют": 7912,
      "специф": 7913,
      "специальные": 7914,
      "специально": 7915,
      "специальное": 7916,
      "специализирован": 7917,
      "взяла": 7918,
      "установили": 7919,
      "установления": 7920,
      "установлена": 7921,
      "установлены": 7922,
      "##ежда": 7923,
      "создал": 7924,
      "созданная": 7925,
      "водоп": 7926,
      "##но-д": 7927,
      "##но-стро": 7928,
      "##но-техн": 7929,
      "##ативную": 7930,
      "##городтранс": 7931,
      "столе": 7932,
      "высший": 7933,
      "необыч": 7934,
      "четверо": 7935,
      "##ущий": 7936,
      "техник": 7937,
      "техники": 7938,
      "технику": 7939,
      "владелец": 7940,
      "говорят": 7941,
      "отметила": 7942,
      "предложили": 7943,
      "##имостью": 7944,
      "управлением": 7945,
      "##чего": 7946,
      "##годонска": 7947,
      "##ерты": 7948,
      "позиция": 7949,
      "руководил": 7950,
      "руководители": 7951,
      "отношение": 7952,
      "отношениях": 7953,
      "##жием": 7954,
      "андри": 7955,
      "андраник": 7956,
      "игру": 7957,
      "остров": 7958,
      "осталось": 7959,
      "остались": 7960,
      "осталась": 7961,
      "рейс": 7962,
      "##устин": 7963,
      "большое": 7964,
      "метри": 7965,
      "метте": 7966,
      "продолжат": 7967,
      "продолжать": 7968,
      "воплощ": 7969,
      "государственных": 7970,
      "добы": 7971,
      "добывающих": 7972,
      "траг": 7973,
      "реализовано": 7974,
      "возможных": 7975,
      "возможным": 7976,
      "возможностью": 7977,
      "возможностей": 7978,
      "рассказывала": 7979,
      "белый": 7980,
      "беларус": 7981,
      "крупный": 7982,
      "крупном": 7983,
      "##чинов": 7984,
      "##чинской": 7985,
      "сбалансиров": 7986,
      "соотече": 7987,
      "##густе": 7988,
      "городами": 7989,
      "активного": 7990,
      "активности": 7991,
      "аксен": 7992,
      "аксай": 7993,
      "моду": 7994,
      "##аемой": 7995,
      "##аемые": 7996,
      "##суль": 7997,
      "долл": 7998,
      "дорого": 7999,
      "дороже": 8000,
      "дорогой": 8001,
      "дорогое": 8002,
      "партий": 8003,
      "партнеры": 8004,
      "##-кола": 8005,
      "приват": 8006,
      "привяз": 8007,
      "федеральные": 8008,
      "федеральном": 8009,
      "занимают": 8010,
      "занимающихся": 8011,
      "детс": 8012,
      "детьми": 8013,
      "детонации": 8014,
      "кубанской": 8015,
      "молдав": 8016,
      "молекуляр": 8017,
      "сферах": 8018,
      "санкции": 8019,
      "санитар": 8020,
      "стороной": 8021,
      "компаниям": 8022,
      "обеспечили": 8023,
      "показывают": 8024,
      "выброс": 8025,
      "артам": 8026,
      "участию": 8027,
      "участия": 8028,
      "золотого": 8029,
      "июнь": 8030,
      "путь": 8031,
      "##ничества": 8032,
      "политических": 8033,
      "политическое": 8034,
      "двухлет": 8035,
      "назначения": 8036,
      "назначении": 8037,
      "признан": 8038,
      "признали": 8039,
      "признании": 8040,
      "признаны": 8041,
      "меня": 8042,
      "стратстаб": 8043,
      "службой": 8044,
      "увеличилось": 8045,
      "лишиться": 8046,
      "##аполис": 8047,
      "##ловский": 8048,
      "общество": 8049,
      "поставщиков": 8050,
      "индик": 8051,
      "индии": 8052,
      "судах": 8053,
      "важным": 8054,
      "карьер": 8055,
      "карьеры": 8056,
      "людмила": 8057,
      "родствен": 8058,
      "родителей": 8059,
      "родился": 8060,
      "родилась": 8061,
      "силы": 8062,
      "силов": 8063,
      "темой": 8064,
      "хода": 8065,
      "этап": 8066,
      "этажа": 8067,
      "ставок": 8068,
      "ставрополь": 8069,
      "помощника": 8070,
      "фестивал": 8071,
      "целей": 8072,
      "##ераторы": 8073,
      "##урус": 8074,
      "замглав": 8075,
      "замороз": 8076,
      "отмечают": 8077,
      "отмечено": 8078,
      "выставят": 8079,
      "красной": 8080,
      "краснов": 8081,
      "красную": 8082,
      "особо": 8083,
      "особой": 8084,
      "граждане": 8085,
      "гражданского": 8086,
      "гражданских": 8087,
      "включать": 8088,
      "включает": 8089,
      "включено": 8090,
      "казан": 8091,
      "экономической": 8092,
      "##сировать": 8093,
      "случившегося": 8094,
      "доходы": 8095,
      "планируем": 8096,
      "лидерами": 8097,
      "упомин": 8098,
      "##потока": 8099,
      "##болив": 8100,
      "##олетних": 8101,
      "газета": 8102,
      "газопровод": 8103,
      "мэром": 8104,
      "частного": 8105,
      "обратилась": 8106,
      "созн": 8107,
      "создает": 8108,
      "сохранения": 8109,
      "сохранить": 8110,
      "отделом": 8111,
      "выступил": 8112,
      "выступят": 8113,
      "выступила": 8114,
      "вооруженных": 8115,
      "любом": 8116,
      "любые": 8117,
      "допу": 8118,
      "допущ": 8119,
      "значения": 8120,
      "значимость": 8121,
      "курьера": 8122,
      "курентз": 8123,
      "определяется": 8124,
      "десятку": 8125,
      "качества": 8126,
      "условно": 8127,
      "обвиняют": 8128,
      "прошлым": 8129,
      "агре": 8130,
      "агента": 8131,
      "бывших": 8132,
      "верующими": 8133,
      "какое-то": 8134,
      "классический": 8135,
      "никому": 8136,
      "никита": 8137,
      "октябре": 8138,
      "октябрь": 8139,
      "выполня": 8140,
      "советом": 8141,
      "совершении": 8142,
      "проведении": 8143,
      "атаку": 8144,
      "моменту": 8145,
      "торговли": 8146,
      "ъ-с": 8147,
      "ъ-чер": 8148,
      "ъ-ростов": 8149,
      "покину": 8150,
      "покончить": 8151,
      "средством": 8152,
      "заключил": 8153,
      "заключили": 8154,
      "сотрудничестве": 8155,
      "завершил": 8156,
      "завершения": 8157,
      "джан": 8158,
      "он.—": 8159,
      "##римин": 8160,
      "обсуж": 8161,
      "обсерв": 8162,
      "завлад": 8163,
      "##рировала": 8164,
      "документа": 8165,
      "документации": 8166,
      "проверяет": 8167,
      "району": 8168,
      "районного": 8169,
      "молодой": 8170,
      "законодательного": 8171,
      "многих": 8172,
      "дмитрия": 8173,
      "мотив": 8174,
      "мотоф": 8175,
      "побратим": 8176,
      "##graph": 8177,
      "обороте": 8178,
      "заседания": 8179,
      "конкурировать": 8180,
      "объединенной": 8181,
      "объединенная": 8182,
      "проводить": 8183,
      "организовал": 8184,
      "организована": 8185,
      "маркос": 8186,
      "доступны": 8187,
      "ваку": 8188,
      "драки": 8189,
      "камеры": 8190,
      "кампании": 8191,
      "налогооблож": 8192,
      "публику": 8193,
      "публикацию": 8194,
      "сделали": 8195,
      "фактически": 8196,
      "южно": 8197,
      "южного": 8198,
      "##ирах": 8199,
      "##ari": 8200,
      "##ройках": 8201,
      "тысячи": 8202,
      "##ационных": 8203,
      "достигла": 8204,
      "интерьеров": 8205,
      "соглашений": 8206,
      "кандидатов": 8207,
      "доннар": 8208,
      "думаю": 8209,
      "затро": 8210,
      "киреевой": 8211,
      "косыг": 8212,
      "нижнем": 8213,
      "поним": 8214,
      "штрафы": 8215,
      "##торг": 8216,
      "##ang": 8217,
      "##anel": 8218,
      "##inet": 8219,
      "образованием": 8220,
      "образовательных": 8221,
      "научные": 8222,
      "появление": 8223,
      "появились": 8224,
      "появляется": 8225,
      "инструкт": 8226,
      "разработка": 8227,
      "разработке": 8228,
      "сложной": 8229,
      "совместных": 8230,
      "судебно-м": 8231,
      "складской": 8232,
      "высокий": 8233,
      "высокоп": 8234,
      "женщина": 8235,
      "женщины": 8236,
      "содержанию": 8237,
      "содержащих": 8238,
      "введении": 8239,
      "мужчина": 8240,
      "мужчины": 8241,
      "оказали": 8242,
      "русала": 8243,
      "русский": 8244,
      "трехлет": 8245,
      "убий": 8246,
      "убыт": 8247,
      "статьи": 8248,
      "статьям": 8249,
      "покупки": 8250,
      "природы": 8251,
      "природу": 8252,
      "избрал": 8253,
      "передал": 8254,
      "мощность": 8255,
      "мощностей": 8256,
      "челябинского": 8257,
      "машин": 8258,
      "повышать": 8259,
      "счетом": 8260,
      "снизить": 8261,
      "договоры": 8262,
      "инициативу": 8263,
      "мероприятие": 8264,
      "матч": 8265,
      "матче": 8266,
      "точно": 8267,
      "точки": 8268,
      "точкой": 8269,
      "##епат": 8270,
      "##чикам": 8271,
      "стабилизации": 8272,
      "способен": 8273,
      "способствует": 8274,
      "аренду": 8275,
      "помогают": 8276,
      "источников": 8277,
      "источника": 8278,
      "кварти": 8279,
      "квартирах": 8280,
      "туриста": 8281,
      "открылось": 8282,
      "открылась": 8283,
      "программах": 8284,
      "максима": 8285,
      "войдет": 8286,
      "дизтоплив": 8287,
      "личных": 8288,
      "личные": 8289,
      "сыр": 8290,
      "сызран": 8291,
      "сроков": 8292,
      "##ховска": 8293,
      "##риволжье": 8294,
      "пожара": 8295,
      "почти": 8296,
      "выделить": 8297,
      "подтвер": 8298,
      "подписали": 8299,
      "подписаны": 8300,
      "предоставит": 8301,
      "пермской": 8302,
      "учреждений": 8303,
      "армия": 8304,
      "массовый": 8305,
      "существ": 8306,
      "существенно": 8307,
      "существуют": 8308,
      "существующие": 8309,
      "потери": 8310,
      "потерял": 8311,
      "туристической": 8312,
      "туристических": 8313,
      "туристического": 8314,
      "применением": 8315,
      "белгородской": 8316,
      "французской": 8317,
      "французского": 8318,
      "выполнили": 8319,
      "аутизмом": 8320,
      "знать": 8321,
      "знамен": 8322,
      "клиента": 8323,
      "кредитования": 8324,
      "нанесли": 8325,
      "оставить": 8326,
      "оставаться": 8327,
      "оставшиеся": 8328,
      "труб": 8329,
      "устройство": 8330,
      "часа": 8331,
      "часы": 8332,
      "процессе": 8333,
      "выявила": 8334,
      "причинение": 8335,
      "объявлен": 8336,
      "построили": 8337,
      "экологической": 8338,
      "укрепления": 8339,
      "инфраструктуру": 8340,
      "инфраструктуре": 8341,
      "интересно": 8342,
      "интересов": 8343,
      "интересам": 8344,
      "принимают": 8345,
      "санкт-петербург": 8346,
      "футбола": 8347,
      "чемпионат": 8348,
      "внимания": 8349,
      "оскорб": 8350,
      "портале": 8351,
      "пациент": 8352,
      "##промторг": 8353,
      "обращения": 8354,
      "обращение": 8355,
      "пробегом": 8356,
      "премьера": 8357,
      "констат": 8358,
      "конструкции": 8359,
      "областную": 8360,
      "самолеты": 8361,
      "продуктов": 8362,
      "поступают": 8363,
      "повреждении": 8364,
      "повреждены": 8365,
      "парламентской": 8366,
      "приняты": 8367,
      "металла": 8368,
      "воспитания": 8369,
      "восприним": 8370,
      "инвалидов": 8371,
      "инвалидность": 8372,
      "соответствующие": 8373,
      "официальных": 8374,
      "официальный": 8375,
      "воронежа": 8376,
      "полицейских": 8377,
      "вспых": 8378,
      "всплеск": 8379,
      "диверсант": 8380,
      "диверсиф": 8381,
      "охраны": 8382,
      "филиала": 8383,
      "##шенными": 8384,
      "национального": 8385,
      "прекрат": 8386,
      "семьи": 8387,
      "государственную": 8388,
      "беременных": 8389,
      "беременными": 8390,
      "всероссийских": 8391,
      "aura": 8392,
      "auto": 8393,
      "анапе": 8394,
      "бренды": 8395,
      "впечат": 8396,
      "дроны": 8397,
      "лазерной": 8398,
      "мирных": 8399,
      "мирный": 8400,
      "пытаются": 8401,
      "пытался": 8402,
      "сельхоз": 8403,
      "сельскохоз": 8404,
      "облдум": 8405,
      "приобрел": 8406,
      "##следования": 8407,
      "крайней": 8408,
      "поселок": 8409,
      "##ющихся": 8410,
      "спортсменка": 8411,
      "форуме": 8412,
      "требованиям": 8413,
      "электростан": 8414,
      "восстановления": 8415,
      "устойчивые": 8416,
      "опубликовал": 8417,
      "опубликована": 8418,
      "пункты": 8419,
      "обнаружили": 8420,
      "вице-премьер": 8421,
      "играх": 8422,
      "легко": 8423,
      "ноябре": 8424,
      "романт": 8425,
      "травму": 8426,
      "турни": 8427,
      "турпотока": 8428,
      "ул.": 8429,
      "уфсб": 8430,
      "хотел": 8431,
      "ярховска": 8432,
      "##женности": 8433,
      "отличие": 8434,
      "отличается": 8435,
      "отсутствия": 8436,
      "выхода": 8437,
      "выходе": 8438,
      "подсуд": 8439,
      "причина": 8440,
      "предварительно": 8441,
      "спроса": 8442,
      "опасности": 8443,
      "западе": 8444,
      "западных": 8445,
      "четверых": 8446,
      "административном": 8447,
      "созыве": 8448,
      "дополнительные": 8449,
      "дополнительных": 8450,
      "изъяты": 8451,
      "капитала": 8452,
      "категор": 8453,
      "дальнейшего": 8454,
      "дальнейшее": 8455,
      "предусмотрена": 8456,
      "предусмотрено": 8457,
      "коммерческие": 8458,
      "проблема": 8459,
      "проблемы": 8460,
      "разрешения": 8461,
      "ближайшие": 8462,
      "сравнении": 8463,
      "погибли": 8464,
      "погибших": 8465,
      "богаты": 8466,
      "балаш": 8467,
      "виновным": 8468,
      "еревана": 8469,
      "идеи": 8470,
      "супруг": 8471,
      "устранение": 8472,
      "черных": 8473,
      "черников": 8474,
      "##неторгов": 8475,
      "##звуч": 8476,
      "##илизаций": 8477,
      "насилия": 8478,
      "накоп": 8479,
      "сопер": 8480,
      "закупку": 8481,
      "выступление": 8482,
      "освещение": 8483,
      "театраль": 8484,
      "инфляция": 8485,
      "первомай": 8486,
      "взятки": 8487,
      "украинских": 8488,
      "украинские": 8489,
      "украинским": 8490,
      "воздушного": 8491,
      "профессор": 8492,
      "институте": 8493,
      "расширение": 8494,
      "удовлетворил": 8495,
      "коллективы": 8496,
      "серьезно": 8497,
      "серьезной": 8498,
      "зарегистрирован": 8499,
      "Крас": 8500,
      "альметьев": 8501,
      "внешней": 8502,
      "гарант": 8503,
      "гриппа": 8504,
      "критер": 8505,
      "миллионов": 8506,
      "плак": 8507,
      "петербурга": 8508,
      "риски": 8509,
      "садов": 8510,
      "холдин": 8511,
      "шестого": 8512,
      "энт": 8513,
      "энрике": 8514,
      "##toinet": 8515,
      "##ензии": 8516,
      "##рача": 8517,
      "захв": 8518,
      "захват": 8519,
      "заказов": 8520,
      "отражает": 8521,
      "отчислений": 8522,
      "подходы": 8523,
      "подготовке": 8524,
      "концепция": 8525,
      "конференция": 8526,
      "оснащен": 8527,
      "оснащение": 8528,
      "среднемног": 8529,
      "экс-чинов": 8530,
      "автобуса": 8531,
      "собрания": 8532,
      "запасов": 8533,
      "московском": 8534,
      "сервис": 8535,
      "законную": 8536,
      "сборной": 8537,
      "партнерской": 8538,
      "глобальной": 8539,
      "вакцин": 8540,
      "наличие": 8541,
      "магазин": 8542,
      "магазинов": 8543,
      "ключевым": 8544,
      "сократилась": 8545,
      "смертной": 8546,
      "борьбе": 8547,
      "дизайне": 8548,
      "весьма": 8549,
      "европейской": 8550,
      "европейские": 8551,
      "посвященном": 8552,
      "covi": 8553,
      "coca": 8554,
      "далеко": 8555,
      "клеток": 8556,
      "петров": 8557,
      "петух": 8558,
      "тестостеро": 8559,
      "целью": 8560,
      "эмоций": 8561,
      "радулов": 8562,
      "союза": 8563,
      "отправили": 8564,
      "скорой": 8565,
      "скорости": 8566,
      "скорость": 8567,
      "сергею": 8568,
      "угрож": 8569,
      "угрозы": 8570,
      "маршруты": 8571,
      "управлял": 8572,
      "вторник": 8573,
      "вторичном": 8574,
      "методику": 8575,
      "требованием": 8576,
      "газпрома": 8577,
      "онколог": 8578,
      "онкодисп": 8579,
      "пользуется": 8580,
      "встреча": 8581,
      "энергии": 8582,
      "ожоговый": 8583,
      "дефицита": 8584,
      "муниципального": 8585,
      "тяжелом": 8586,
      "эффективность": 8587,
      "подозреваемый": 8588,
      "подразделений": 8589,
      "nor": 8590,
      "брани": 8591,
      "ввп": 8592,
      "влияет": 8593,
      "влияние": 8594,
      "гибели": 8595,
      "героиня": 8596,
      "давно": 8597,
      "креативных": 8598,
      "кутляева": 8599,
      "кольц": 8600,
      "миклашев": 8601,
      "овз": 8602,
      "овощи": 8603,
      "ознаком": 8604,
      "оценке": 8605,
      "палаты": 8606,
      "увид": 8607,
      "уваж": 8608,
      "ушедших": 8609,
      "##tion": 8610,
      "обслуживание": 8611,
      "навы": 8612,
      "навяз": 8613,
      "преступной": 8614,
      "отечественных": 8615,
      "положительное": 8616,
      "органной": 8617,
      "органах": 8618,
      "скр.": 8619,
      "окончил": 8620,
      "рассмотрения": 8621,
      "будущих": 8622,
      "дорогах": 8623,
      "##-класса": 8624,
      "индивидуальное": 8625,
      "тематический": 8626,
      "замедления": 8627,
      "гостиниц": 8628,
      "размещена": 8629,
      "линейка": 8630,
      "финансирование": 8631,
      "ошибочно": 8632,
      "филиппинах": 8633,
      "доказательства": 8634,
      "##политике": 8635,
      "маркетплейсов": 8636,
      "2024": 8637,
      "зафиксирована": 8638,
      "Челябинской": 8639,
      "Челябинске": 8640,
      "многоквартирного": 8641,
      "marie": 8642,
      "stra": 8643,
      "аудитор": 8644,
      "аудиог": 8645,
      "бокса": 8646,
      "ложной": 8647,
      "морского": 8648,
      "оригин": 8649,
      "птиц": 8650,
      "узбек": 8651,
      "флагман": 8652,
      "чиновник": 8653,
      "чиновников": 8654,
      "обычно": 8655,
      "народных": 8656,
      "стремится": 8657,
      "становится": 8658,
      "становятся": 8659,
      "отказался": 8660,
      "##ранснадзора": 8661,
      "прибыт": 8662,
      "приступил": 8663,
      "посетителей": 8664,
      "минуте": 8665,
      "домашних": 8666,
      "признано": 8667,
      "огромное": 8668,
      "последующем": 8669,
      "последующие": 8670,
      "смарт-ч": 8671,
      "экспозиции": 8672,
      "группировки": 8673,
      "электромобил": 8674,
      "электромобили": 8675,
      "ответчики": 8676,
      "ответчиков": 8677,
      "планирования": 8678,
      "планировалось": 8679,
      "картофеля": 8680,
      "футбольной": 8681,
      "букмекерских": 8682,
      "букмекерские": 8683,
      "обсудили": 8684,
      "январе—ав": 8685,
      "товарного": 8686,
      "пользователи": 8687,
      "великобрит": 8688,
      "роспотребнадзора": 8689,
      "ипотечного": 8690,
      "потерпевших": 8691,
      "ассоциации": 8692,
      "возглавлял": 8693,
      "привлекательность": 8694,
      "наибольшее": 8695,
      "водохранилища": 8696,
      "фиксации": 8697,
      "изолятора": 8698,
      "библиотек": 8699,
      "библиотеки": 8700,
      "калининградской": 8701,
      "боевых": 8702,
      "бирже": 8703,
      "визу": 8704,
      "веса": 8705,
      "горовиц": 8706,
      "длина": 8707,
      "динамика": 8708,
      "исход": 8709,
      "исчез": 8710,
      "крови": 8711,
      "лечеб": 8712,
      "табуирован": 8713,
      "тренды": 8714,
      "удара": 8715,
      "шинный": 8716,
      "шагом": 8717,
      "##услов": 8718,
      "раскрыт": 8719,
      "нацпроект": 8720,
      "нацелен": 8721,
      "наставничества": 8722,
      "наследие": 8723,
      "студенты": 8724,
      "команды": 8725,
      "коммунальных": 8726,
      "осуществляется": 8727,
      "одежду": 8728,
      "правоохранители": 8729,
      "правоохранительные": 8730,
      "провайдеров": 8731,
      "начинать": 8732,
      "окружной": 8733,
      "направленное": 8734,
      "ростовская": 8735,
      "территори": 8736,
      "территорию": 8737,
      "республиканского": 8738,
      "республиканских": 8739,
      "индустрий": 8740,
      "индустрии": 8741,
      "утверждения": 8742,
      "десятилетия": 8743,
      "поколения": 8744,
      "драгоценного": 8745,
      "экспертизы": 8746,
      "сокращение": 8747,
      "регулярно": 8748,
      "подтвердил": 8749,
      "осколочное": 8750,
      "прекращение": 8751,
      "вернуть": 8752,
      "вернуться": 8753,
      "внутренние": 8754,
      "творческих": 8755,
      "архитектура": 8756,
      "теплоснабжения": 8757,
      "теплоснабжающей": 8758,
      "союзн": 8759,
      "парфюмерии": 8760,
      "одобрил": 8761,
      "одобрили": 8762,
      "двустороннего": 8763,
      "fig": 8764,
      "fifa": 8765,
      "Петербурга": 8766,
      "георг": 8767,
      "грозят": 8768,
      "дуцз": 8769,
      "другое": 8770,
      "дочерней": 8771,
      "ищет": 8772,
      "и.о.": 8773,
      "килстройинвест": 8774,
      "можем": 8775,
      "мегаполис": 8776,
      "мандат": 8777,
      "мишустин": 8778,
      "секторе": 8779,
      "титулы": 8780,
      "турниров": 8781,
      "худож": 8782,
      "##хождения": 8783,
      "##-француз": 8784,
      "##sider": 8785,
      "##eek": 8786,
      "проезж": 8787,
      "проезжей": 8788,
      "презентации": 8789,
      "похож": 8790,
      "##евича": 8791,
      "выгляд": 8792,
      "пределах": 8793,
      "возведение": 8794,
      "новостройках": 8795,
      "новгороде": 8796,
      "новороссийске": 8797,
      "монолит": 8798,
      "##люзив": 8799,
      "поводу": 8800,
      "квадрат": 8801,
      "снижении": 8802,
      "рекоменд": 8803,
      "рекоменда": 8804,
      "столкну": 8805,
      "высокую": 8806,
      "высоте": 8807,
      "демонстра": 8808,
      "демонстриров": 8809,
      "попросил": 8810,
      "праздник": 8811,
      "третьего": 8812,
      "поручил": 8813,
      "каких-то": 8814,
      "космической": 8815,
      "мужчину": 8816,
      "статистики": 8817,
      "звонков": 8818,
      "физкультур": 8819,
      "схемы": 8820,
      "электроэнергии": 8821,
      "электроэнергией": 8822,
      "топ-менеджеров": 8823,
      "трансформатор": 8824,
      "символики": 8825,
      "супруги": 8826,
      "супругой": 8827,
      "освобожд": 8828,
      "интернету": 8829,
      "альянса": 8830,
      "альянсом": 8831,
      "подъездах": 8832,
      "спектакль": 8833,
      "полугодии": 8834,
      "авиакомпании": 8835,
      "кластер": 8836,
      "кластере": 8837,
      "отвечает": 8838,
      "подвеска": 8839,
      "турецкой": 8840,
      "памятника": 8841,
      "цимлянское": 8842,
      "нецензурной": 8843,
      "ВСУ": 8844,
      "Самарской": 8845,
      "брифин": 8846,
      "вкус": 8847,
      "госкомпаний": 8848,
      "гинцбург": 8849,
      "днк": 8850,
      "злоумышлен": 8851,
      "кочевых": 8852,
      "ркк": 8853,
      "религи": 8854,
      "съезде": 8855,
      "сутки": 8856,
      "тенден": 8857,
      "унифицирован": 8858,
      "флаконов": 8859,
      "хватает": 8860,
      "шансы": 8861,
      "##латоуст": 8862,
      "##косроч": 8863,
      "##-таки": 8864,
      "##рашивают": 8865,
      "##инарной": 8866,
      "обошлось": 8867,
      "найд": 8868,
      "стадии": 8869,
      "пороге": 8870,
      "отчета": 8871,
      "священ": 8872,
      "спиной": 8873,
      "сообщества": 8874,
      "нежил": 8875,
      "возгорания": 8876,
      "##адиных": 8877,
      "прилож": 8878,
      "приказ": 8879,
      "опроса": 8880,
      "анализа": 8881,
      "одесской": 8882,
      "композит": 8883,
      "минэкономразвития": 8884,
      "помещениях": 8885,
      "округа": 8886,
      "руслан": 8887,
      "пашинян": 8888,
      "градостро": 8889,
      "метротрамвая": 8890,
      "форсайтовской": 8891,
      "электрокары": 8892,
      "аккумул": 8893,
      "демонстрирует": 8894,
      "сегодняшний": 8895,
      "инвесторов": 8896,
      "превратились": 8897,
      "индонезии": 8898,
      "выпустили": 8899,
      "декларации": 8900,
      "зарплату": 8901,
      "арестантов": 8902,
      "регулятора": 8903,
      "гуцана": 8904,
      "напомнил": 8905,
      "логистических": 8906,
      "внутриполитической": 8907,
      "сопровожд": 8908,
      "голословными": 8909,
      "грибкова": 8910,
      "миллиардером": 8911,
      "розничные": 8912,
      "шестимиллионного": 8913,
      "салавата": 8914,
      "##эксперт": 8915,
      "атмосферы": 8916,
      "нейтральный": 8917,
      "принципи": 8918,
      "виталина": 8919,
      "оценивают": 8920,
      "мониторинга": 8921,
      "хоккейный": 8922,
      "процедур": 8923,
      "вымогательстве": 8924,
      "свидетель": 8925,
      "Краснодаре": 8926,
      "костюм": 8927,
      "педагог": 8928,
      "сигнальной": 8929,
      "церемония": 8930,
      "коммуникация": 8931,
      "диапазоне": 8932,
      "эксплуатацию": 8933,
      "антикоррупционное": 8934,
      "коронавируса": 8935,
      "antoinet": 8936,
      "chanel": 8937,
      "it-с": 8938,
      "zara": 8939,
      "«Россети": 8940,
      "СВО": 8941,
      "Саратовской": 8942,
      "альтернатив": 8943,
      "брюсс": 8944,
      "вероятно": 8945,
      "груди": 8946,
      "гурарий": 8947,
      "гиперк": 8948,
      "дестабилиз": 8949,
      "кбха": 8950,
      "кейсы": 8951,
      "краткосроч": 8952,
      "крыма": 8953,
      "мальчик": 8954,
      "младен": 8955,
      "морозова": 8956,
      "пензенской": 8957,
      "ртз": 8958,
      "тратят": 8959,
      "теракт": 8960,
      "труппы": 8961,
      "умерла": 8962,
      "улететь": 8963,
      "хетч": 8964,
      "цивилизаций": 8965,
      "черненко": 8966,
      "шеф-ред": 8967,
      "юбилей": 8968,
      "##-cola": 8969,
      "##гельсе": 8970,
      "##устройство": 8971,
      "##антеевского": 8972,
      "награды": 8973,
      "##руководителя": 8974,
      "вырастет": 8975,
      "поднималась": 8976,
      "разруш": 8977,
      "сведениям": 8978,
      "конфликт": 8979,
      "приток": 8980,
      "опрошенных": 8981,
      "совещании": 8982,
      "регистрируется": 8983,
      "экс-президента": 8984,
      "собеседник": 8985,
      "магистра": 8986,
      "пресс-конференции": 8987,
      "краснокнижных": 8988,
      "рыночной": 8989,
      "квалифик": 8990,
      "все-таки": 8991,
      "напряженности": 8992,
      "позитив": 8993,
      "очевидно": 8994,
      "доброволь": 8995,
      "реализуются": 8996,
      "возможностями": 8997,
      "электроснабж": 8998,
      "отдаленных": 8999,
      "партнерами": 9000,
      "молчанов": 9001,
      "горячей": 9002,
      "гордумы": 9003,
      "##вардии": 9004,
      "украшений": 9005,
      "содействии": 9006,
      "агропромышлен": 9007,
[...]
